{
  "type": "LSTM",
  "options": {
    "inputSize": 26,
    "inputRange": 26,
    "hiddenLayers": [
      20,
      20
    ],
    "outputSize": 26,
    "decayRate": 0.999,
    "smoothEps": 1e-8,
    "regc": 0.000001,
    "clipval": 5,
    "maxPredictionLength": 100,
    "dataFormatter": {
      "indexTable": {
        "a": 0,
        "i": 1,
        "d": 2,
        "e": 3,
        "g": 4,
        "u": 5,
        "o": 6,
        "n": 7,
        "s": 8,
        "h": 9,
        "y": 10,
        "b": 11,
        "l": 12,
        "x": 13,
        "q": 14,
        "t": 15,
        "j": 16,
        "w": 17,
        "z": 18,
        "c": 19,
        "f": 20,
        "p": 21,
        "m": 22,
        "k": 23,
        "r": 24,
        "unrecognized": 25
      },
      "characterTable": {
        "0": "a",
        "1": "i",
        "2": "d",
        "3": "e",
        "4": "g",
        "5": "u",
        "6": "o",
        "7": "n",
        "8": "s",
        "9": "h",
        "10": "y",
        "11": "b",
        "12": "l",
        "13": "x",
        "14": "q",
        "15": "t",
        "16": "j",
        "17": "w",
        "18": "z",
        "19": "c",
        "20": "f",
        "21": "p",
        "22": "m",
        "23": "k",
        "24": "r",
        "25": null
      },
      "values": [
        "aide",
        "aiguo",
        "an",
        "anguo",
        "anshi",
        "anyan",
        "anyi",
        "bai",
        "bailuo",
        "bang",
        "bangxao",
        "bao",
        "baoqing",
        "baotian",
        "bei",
        "biao",
        "bijun",
        "bin",
        "bing",
        "bingde",
        "bingwen",
        "bingzhang",
        "bingzhong",
        "binying",
        "bo",
        "bohai",
        "bojing",
        "bolin",
        "boqin",
        "buwei",
        "cai",
        "caifei",
        "chang",
        "changpu",
        "changwei",
        "changyong",
        "chao",
        "chaoxiang",
        "chaoyang",
        "chen",
        "cheng",
        "chenggong",
        "chenghao",
        "chengho",
        "chengji",
        "chenglei",
        "chengqian",
        "cheung",
        "chi",
        "chianghui",
        "chiju",
        "chiming",
        "ching",
        "chingwei",
        "chongan",
        "chongkun",
        "chonglin",
        "chongxian",
        "chongyi",
        "chuanli",
        "chun",
        "chung",
        "chunhua",
        "chunmei",
        "cong",
        "da",
        "dai",
        "dailin",
        "danzu",
        "daozi",
        "daxia",
        "de",
        "decheng",
        "deli",
        "delun",
        "deming",
        "deshi",
        "dewei",
        "dingbang",
        "dingbong",
        "dingxiang",
        "dong",
        "donghai",
        "donghua",
        "dongpo",
        "du",
        "duyang",
        "duyi",
        "enguo",
        "enlai",
        "fa",
        "fai",
        "fang",
        "fatang",
        "fei",
        "feng",
        "fengge",
        "fengxiang",
        "fengyi",
        "fu",
        "fuchi",
        "fuhua",
        "fukang",
        "fupo",
        "fuquan",
        "gan",
        "gang",
        "gangsheng",
        "gao",
        "geming",
        "gen",
        "ginfan",
        "gong",
        "gongsun",
        "gu",
        "guang",
        "guangli",
        "gui",
        "guifan",
        "guifei",
        "guiren",
        "guo",
        "guodong",
        "guofang",
        "guofeng",
        "guoliang",
        "guoning",
        "guoqing",
        "guoquiang",
        "guowei",
        "guoxiu",
        "guozhi",
        "gutin",
        "hai",
        "haidong",
        "haifeng",
        "hailiang",
        "han",
        "hangfu",
        "hangki",
        "hanwu",
        "hao",
        "haohing",
        "he",
        "heng",
        "hengzong",
        "heping",
        "hiangta",
        "hiyuan",
        "ho",
        "hong",
        "hongbin",
        "hongbo",
        "honghui",
        "hongqi",
        "hongquan",
        "hongwu",
        "hou",
        "houkang",
        "howin",
        "hsinpei",
        "hsuichen",
        "hsuichuan",
        "hu",
        "huading",
        "huaiyi",
        "huaiyu",
        "huan",
        "huanfu",
        "huang",
        "huangdi",
        "huangfu",
        "hui",
        "huiying",
        "hulin",
        "hung",
        "hungchang",
        "huojin",
        "huotu",
        "jaiguo",
        "janglu",
        "ji",
        "jian",
        "jiancheng",
        "jiang",
        "jiangang",
        "jiangun",
        "jianguo",
        "jianjun",
        "jianying",
        "jianyu",
        "jianzhang",
        "jiaolong",
        "jie",
        "jin",
        "jing",
        "jingbo",
        "jingguo",
        "jingquo",
        "jingsheng",
        "jingshuan",
        "jinguo",
        "jingxiang",
        "jingyu",
        "jingzhong",
        "jinhai",
        "jinjing",
        "jinsong",
        "jinwu",
        "jiong",
        "jiuling",
        "julong",
        "jun",
        "junjie",
        "juwei",
        "juyi",
        "juzheng",
        "kang",
        "kangxi",
        "kaokan",
        "kaong",
        "keung",
        "kong",
        "kuang",
        "kuangyin",
        "kun",
        "kung",
        "kungzheng",
        "lao",
        "laosheng",
        "lei",
        "li",
        "lian",
        "liang",
        "liangde",
        "licong",
        "lihong",
        "lijie",
        "lijun",
        "liming",
        "lingkung",
        "liping",
        "liqiang",
        "liren",
        "liuchun",
        "liujie",
        "liuliang",
        "liuwei",
        "liwei",
        "lixue",
        "liyong",
        "lizhu",
        "lok",
        "long",
        "longwei",
        "lung",
        "manchu",
        "manhuan",
        "mankeung",
        "meng",
        "ming",
        "mingfeng",
        "minghoa",
        "minghua",
        "mingjiang",
        "mingli",
        "mingtun",
        "mingyu",
        "minsheng",
        "minzhe",
        "minzhong",
        "nianzu",
        "ning",
        "ningqing",
        "on",
        "pang",
        "pei",
        "peng",
        "pengfei",
        "piao",
        "qi",
        "qian",
        "qianfan",
        "qianfu",
        "qiang",
        "qiangui",
        "qianhua",
        "qichang",
        "qichao",
        "qichen",
        "qinghua",
        "qinglai",
        "qingnian",
        "qingshan",
        "qingsheng",
        "qiquiang",
        "qiu",
        "qizhen",
        "quan",
        "quiang",
        "quon",
        "renqing",
        "renshu",
        "rong",
        "ru",
        "shaiming",
        "shan",
        "shanyuan",
        "shaoqi",
        "shaoqiang",
        "shaozu",
        "shen",
        "sheng",
        "shengli",
        "shi",
        "shifu",
        "shikai",
        "shilin",
        "shimin",
        "shing",
        "shining",
        "shiping",
        "shirong",
        "shixian",
        "shiyu",
        "shoiming",
        "shouchien",
        "shoufeng",
        "shoushan",
        "shouxin",
        "shunyuan",
        "si",
        "sidao",
        "siyu",
        "song",
        "sun",
        "sunwei",
        "sushun",
        "suwu",
        "sying",
        "tan",
        "tanming",
        "tao",
        "tengfei",
        "tian",
        "tianbai",
        "tianyu",
        "tingzhe",
        "tsepeng",
        "tsing",
        "tsunchung",
        "tung",
        "tungchi",
        "wanfang",
        "wanfu",
        "wang",
        "wangchao",
        "wangfen",
        "wanggang",
        "wangjie",
        "wangjun",
        "wanglei",
        "wangping",
        "wangqiang",
        "wangtao",
        "wangweo",
        "wangyong",
        "wei",
        "weifang",
        "weiguo",
        "weihong",
        "weikang",
        "weiliang",
        "weimin",
        "weiqian",
        "weiqiang",
        "weiquo",
        "weisheng",
        "weiyuan",
        "wen",
        "wencheng",
        "wenhua",
        "wenhuan",
        "wenyan",
        "wenzhong",
        "wing",
        "wingchiu",
        "wingfung",
        "wu",
        "wuhan",
        "wuji",
        "wujiang",
        "wusheng",
        "wushun",
        "wuzhou",
        "xian",
        "xiang",
        "xiangan",
        "xiangling",
        "xianliang",
        "xianyao",
        "xiaobo",
        "xiaochen",
        "xiaodan",
        "xiaogang",
        "xiaohong",
        "xiaojian",
        "xiaomei",
        "xiaopeng",
        "xiaoping",
        "xiaosheng",
        "xiaosi",
        "xiaowei",
        "xiaowen",
        "xiaoxuan",
        "xiaoyan",
        "xiaoyong",
        "xieli",
        "xin",
        "xinfang",
        "xing",
        "xingfu",
        "xinghua",
        "xingli",
        "xingpeng",
        "xingyun",
        "xinpeng",
        "xiong",
        "xitong",
        "xiu",
        "xiwang",
        "xu",
        "xuanling",
        "xue",
        "xueliang",
        "xueqin",
        "xueyou",
        "xugang",
        "xun",
        "yang",
        "yangcheng",
        "yanhao",
        "yanlin",
        "yao",
        "yaobang",
        "yaochuan",
        "yaopang",
        "yaoqing",
        "yaoting",
        "yaozu",
        "ye",
        "yeqing",
        "yi",
        "yifu",
        "yilin",
        "yimou",
        "yinfat",
        "ying",
        "yinghua",
        "yingjie",
        "yingpei",
        "yinreng",
        "yinxiang",
        "yinzheng",
        "yiping",
        "yixiao",
        "yo",
        "yong",
        "yonghong",
        "yongliang",
        "yongnian",
        "yongrui",
        "yongzhan",
        "yu",
        "yuan",
        "yuanjun",
        "yuanzhang",
        "yubao",
        "yuejiu",
        "yuerong",
        "yun",
        "yunfat",
        "yunqi",
        "yunxu",
        "yusheng",
        "yushu",
        "yuwei",
        "yuxing",
        "yuzeng",
        "yuzhang",
        "zedong",
        "zemin",
        "zenguang",
        "zhang",
        "zhangjie",
        "zhangjun",
        "zhanglei",
        "zhangqiang",
        "zhangsung",
        "zhangtao",
        "zhangwei",
        "zhangyong",
        "zhaodao",
        "zhaohui",
        "zhaoji",
        "zhaojun",
        "zhaoying",
        "zhen",
        "zhenbang",
        "zhengxing",
        "zhengzhong",
        "zhensheng",
        "zhenying",
        "zhi",
        "zhifu",
        "zhigang",
        "zhihuan",
        "zhiqiang",
        "zhixin",
        "zhiyuan",
        "zhong",
        "zhongqi",
        "zhongshan",
        "zhongshu",
        "zhongxian",
        "zhongyan",
        "zhongyi",
        "zhu",
        "zhuang",
        "zhulan",
        "zhuocheng",
        "zian",
        "zicheng",
        "zihao",
        "zijing",
        "zijun",
        "zixin",
        "zixing",
        "ziyang",
        "zongming",
        "zongyuan"
      ],
      "characters": [
        "a",
        "i",
        "d",
        "e",
        "g",
        "u",
        "o",
        "n",
        "s",
        "h",
        "y",
        "b",
        "l",
        "x",
        "q",
        "t",
        "j",
        "w",
        "z",
        "c",
        "f",
        "p",
        "m",
        "k",
        "r",
        "unrecognized"
      ],
      "specialIndexes": [
        25
      ]
    },
    "activation": "tanh"
  },
  "trainOpts": {
    "iterations": "5000",
    "errorThresh": "0.03",
    "log": false,
    "logPeriod": 1,
    "learningRate": "0.0001",
    "callbackPeriod": 1,
    "timeout": "Infinity"
  },
  "input": {
    "rows": 27,
    "columns": 26,
    "weights": [
      0.2504167854785919,
      -0.5460666418075562,
      0.28833410143852234,
      0.02466496452689171,
      0.2672051191329956,
      0.012159017845988274,
      0.10514453798532486,
      0.29015758633613586,
      0.17867112159729004,
      -0.7738394737243652,
      -0.38157424330711365,
      0.8001143336296082,
      0.11228060722351074,
      -0.3196088373661041,
      0.5836955904960632,
      -0.0766516700387001,
      -0.09214111417531967,
      -0.22887718677520752,
      0.09992612898349762,
      -0.24402154982089996,
      -0.48774734139442444,
      -0.6583673357963562,
      -0.2770545184612274,
      -0.074541375041008,
      -0.08129718899726868,
      -0.04044538736343384,
      1.196097493171692,
      1.1938310861587524,
      -1.639202356338501,
      -0.31041353940963745,
      0.22362491488456726,
      0.5908668637275696,
      0.11601711809635162,
      2.392178535461426,
      0.6604070663452148,
      1.270891785621643,
      0.3353061079978943,
      0.4045960605144501,
      0.7189059853553772,
      -1.6895339488983154,
      -0.3767838776111603,
      -0.2039140909910202,
      0.5777714848518372,
      -0.7391260862350464,
      0.5336111783981323,
      0.014088683761656284,
      0.4329286217689514,
      0.49063360691070557,
      0.012504758313298225,
      -0.23517531156539917,
      -1.0370482206344604,
      0.7667834758758545,
      1.0396125316619873,
      1.2815395593643188,
      -0.7086396813392639,
      0.9001278281211853,
      0.5438074469566345,
      1.093083143234253,
      1.322688102722168,
      0.4461207687854767,
      -0.934868574142456,
      0.715156614780426,
      -0.6622703671455383,
      -0.0005394868203438818,
      0.4944380223751068,
      -1.0168174505233765,
      -0.19558118283748627,
      0.16333989799022675,
      0.03220806643366814,
      0.6772606372833252,
      0.3210831880569458,
      0.5016874074935913,
      0.5235440731048584,
      0.05746836960315704,
      1.9776890277862549,
      0.07217928767204285,
      0.10825847089290619,
      -0.6033439636230469,
      -1.9805421829223633,
      0.044445887207984924,
      1.7519524097442627,
      0.012856721878051758,
      3.318460464477539,
      -1.0779638290405273,
      -2.335688352584839,
      -2.6533641815185547,
      -4.214969635009766,
      -0.2374381572008133,
      1.6001745462417603,
      0.2445593625307083,
      -1.5693550109863281,
      -0.7403504252433777,
      0.6973326206207275,
      -3.450984239578247,
      -1.9312232732772827,
      -1.2931528091430664,
      -1.140176773071289,
      -1.6223560571670532,
      0.23289601504802704,
      1.0074118375778198,
      -3.00947904586792,
      -4.718505382537842,
      2.4518039226531982,
      0.17207667231559753,
      1.0616670846939087,
      1.7373604774475098,
      -1.1271196603775024,
      -0.5946487784385681,
      0.22965022921562195,
      2.4884774684906006,
      2.610281467437744,
      0.9548397660255432,
      -0.546150267124176,
      1.552406907081604,
      -0.8687549829483032,
      -0.021561220288276672,
      1.248497486114502,
      -1.160088300704956,
      0.9402500987052917,
      0.15473616123199463,
      0.16094744205474854,
      -0.264339804649353,
      0.03551149368286133,
      0.27996620535850525,
      -0.013035320676863194,
      -0.49434971809387207,
      2.739219903945923,
      0.22485700249671936,
      -0.6145740747451782,
      -0.48357412219047546,
      -0.19850094616413116,
      1.9344518184661865,
      1.042014241218567,
      -0.3680441677570343,
      -0.1742422878742218,
      1.2570441961288452,
      1.2843126058578491,
      1.4358850717544556,
      0.16491186618804932,
      -0.2064705789089203,
      0.26260584592819214,
      0.5841787457466125,
      -0.2731704115867615,
      -1.007845401763916,
      0.8367406129837036,
      -0.8218000531196594,
      0.7604609131813049,
      -0.360332190990448,
      0.5707184672355652,
      -0.2868209481239319,
      -0.42086678743362427,
      -0.002636701101437211,
      -0.8200595378875732,
      0.1488911509513855,
      -1.5599290132522583,
      2.0257387161254883,
      0.3466428518295288,
      -0.032484568655490875,
      -0.6843084692955017,
      0.21860407292842865,
      -0.3873750567436218,
      0.6526676416397095,
      0.7915767431259155,
      0.26193100214004517,
      -1.0817867517471313,
      1.4160757064819336,
      -0.9221691489219666,
      0.14022670686244965,
      0.619097113609314,
      -1.9959256649017334,
      0.9685855507850647,
      0.020944854244589806,
      0.0013950001448392868,
      -0.4358330965042114,
      -0.3816196620464325,
      -0.010449729859828949,
      -0.3502502143383026,
      -0.04305220767855644,
      2.421627998352051,
      0.7869173884391785,
      -2.476651906967163,
      0.07380662858486176,
      1.5442397594451904,
      0.87287437915802,
      -0.4032727777957916,
      1.1342449188232422,
      0.6740349531173706,
      0.44368574023246765,
      2.807178258895874,
      2.006481647491455,
      -0.9175311326980591,
      1.4326139688491821,
      -0.7488237023353577,
      0.31800755858421326,
      1.4788495302200317,
      -1.2064045667648315,
      0.5074642896652222,
      0.4604514539241791,
      -1.6293550729751587,
      -0.37996718287467957,
      -0.29819223284721375,
      -0.40989670157432556,
      -0.50575852394104,
      -0.23470060527324677,
      2.888353109359741,
      1.5878578424453735,
      -1.4510999917984009,
      -0.6100013852119446,
      0.9948676824569702,
      0.4242669641971588,
      -0.10451347380876541,
      -1.323108434677124,
      1.6224554777145386,
      0.6815806031227112,
      0.34147968888282776,
      -0.059877436608076096,
      -0.6830914616584778,
      0.8723976016044617,
      -2.3858351707458496,
      -0.20406940579414368,
      1.3640340566635132,
      -0.07167419791221619,
      0.5319272875785828,
      -1.0417218208312988,
      -1.932786464691162,
      -0.47983014583587646,
      -0.46634671092033386,
      1.1913440227508545,
      1.1535110473632812,
      0.6950197815895081,
      0.6921136379241943,
      -0.33224913477897644,
      0.28243476152420044,
      -1.2114430665969849,
      0.5473078489303589,
      -1.956154227256775,
      0.8861450552940369,
      -0.050960805267095566,
      2.035942554473877,
      1.2192163467407227,
      1.403555989265442,
      1.705025315284729,
      -1.6407825946807861,
      2.074963092803955,
      -1.6889166831970215,
      0.9872680306434631,
      -0.009178418666124344,
      -2.6662609577178955,
      2.130941867828369,
      0.44779685139656067,
      -0.13874593377113342,
      0.2845025360584259,
      0.4720126986503601,
      -0.7684247493743896,
      0.281045138835907,
      -1.547658920288086,
      0.9811864495277405,
      0.9154478311538696,
      0.4942862093448639,
      -0.5691664814949036,
      -0.1339275985956192,
      -1.1706007719039917,
      0.222853884100914,
      0.11091245710849762,
      1.2738165855407715,
      -0.07167428731918335,
      0.40806859731674194,
      0.03748319298028946,
      -0.8138887286186218,
      0.9522602558135986,
      -0.3500247001647949,
      0.4972703456878662,
      -0.19107381999492645,
      -1.7315489053726196,
      0.7219252586364746,
      -0.11410350352525711,
      -0.6128764152526855,
      1.0462592840194702,
      1.5674991607666016,
      -0.8900471329689026,
      0.7704318761825562,
      -0.4959409534931183,
      -1.7802331447601318,
      -1.8491673469543457,
      -0.26389697194099426,
      -0.00026918412186205387,
      0.4127918779850006,
      0.6751353740692139,
      0.738787829875946,
      0.47761741280555725,
      0.21111923456192017,
      -0.6861706972122192,
      -0.4403337240219116,
      2.7863359451293945,
      0.2577480673789978,
      0.6856234669685364,
      -0.2670079469680786,
      -0.18144884705543518,
      -0.15355834364891052,
      -2.2350471019744873,
      0.3447157144546509,
      0.3123753070831299,
      1.0243711471557617,
      1.3789217472076416,
      0.49962612986564636,
      0.3401015102863312,
      -0.47330883145332336,
      -1.0018607378005981,
      -1.7316218614578247,
      -0.33768999576568604,
      -1.846984624862671,
      1.8781375885009766,
      0.5365974307060242,
      -0.20588679611682892,
      1.6857353448867798,
      0.29824313521385193,
      2.0868518352508545,
      -0.8649686574935913,
      1.703668475151062,
      3.854151487350464,
      0.12537486851215363,
      0.24432656168937683,
      -2.4888103008270264,
      0.7852987051010132,
      -0.46737784147262573,
      -2.1362836360931396,
      -0.6003836989402771,
      0.701752781867981,
      0.14266438782215118,
      2.261423349380493,
      0.6722149848937988,
      0.10546720027923584,
      -1.010455846786499,
      -0.9581360816955566,
      -0.8078380227088928,
      0.12809966504573822,
      -1.865340232849121,
      1.6444438695907593,
      -1.7601253986358643,
      0.18686148524284363,
      0.8009247779846191,
      -0.9640237092971802,
      -1.5514671802520752,
      0.8123725056648254,
      -1.2253844738006592,
      -2.258901357650757,
      -1.2494152784347534,
      -1.9529776573181152,
      3.2629449367523193,
      1.6315269470214844,
      0.5808358192443848,
      -0.684538722038269,
      -0.9269940853118896,
      1.237293004989624,
      0.2947272062301636,
      1.0021342039108276,
      1.8647971153259277,
      -0.3987071216106415,
      -1.2718164920806885,
      1.0887868404388428,
      -3.137103319168091,
      -2.63014554977417,
      -1.044447422027588,
      -0.14245988428592682,
      -2.0093255043029785,
      2.9987974166870117,
      3.4594790935516357,
      -0.30835720896720886,
      1.0482203960418701,
      -0.660827100276947,
      1.3764183521270752,
      0.7872176766395569,
      0.9423767924308777,
      1.0668652057647705,
      0.8957709074020386,
      1.245417833328247,
      -1.3234450817108154,
      -2.4542059898376465,
      -0.6375811696052551,
      -1.0769466161727905,
      0.22424864768981934,
      1.3135135173797607,
      2.4168286323547363,
      -0.8244590759277344,
      -1.6106113195419312,
      -1.6146353483200073,
      -1.0972033739089966,
      -0.2877923250198364,
      -2.525463342666626,
      -0.5284335017204285,
      1.1859805583953857,
      2.6123197078704834,
      1.4017505645751953,
      -1.3579380512237549,
      0.9742844700813293,
      1.601784348487854,
      1.1735846996307373,
      3.1617751121520996,
      1.0051889419555664,
      -0.5300894379615784,
      1.7340210676193237,
      0.14783817529678345,
      1.013512372970581,
      0.02335657738149166,
      1.4618792533874512,
      -0.3840470314025879,
      -3.1008729934692383,
      0.3670100271701813,
      1.6021097898483276,
      -1.6007773876190186,
      -1.7655218839645386,
      1.9325865507125854,
      -1.834542155265808,
      -1.0488619804382324,
      -0.2754550576210022,
      0.7634211182594299,
      -2.668109893798828,
      0.5026382803916931,
      -4.0360541343688965,
      2.0154006481170654,
      6.990086078643799,
      -0.6436262130737305,
      0.23090969026088715,
      -3.0525150299072266,
      1.3277937173843384,
      -6.925661087036133,
      2.672950029373169,
      -3.8137435913085938,
      1.7442841529846191,
      -5.109142303466797,
      0.38669732213020325,
      -0.08715352416038513,
      3.2716963291168213,
      4.714131832122803,
      -3.0009925365448,
      -2.0021071434020996,
      4.539040565490723,
      1.6031349897384644,
      -1.4898462295532227,
      -0.6705833077430725,
      -6.1539506912231445,
      2.3580448627471924,
      -1.1710233688354492,
      0.6230353116989136,
      0.9736169576644897,
      -0.26291969418525696,
      1.2009565830230713,
      -0.9732716679573059,
      0.09180618077516556,
      -0.35939085483551025,
      -0.09440139681100845,
      0.22183185815811157,
      0.9045934677124023,
      -0.3510274887084961,
      -0.4045560657978058,
      -1.6843819618225098,
      0.6573899388313293,
      -0.0706871896982193,
      0.19801169633865356,
      1.0664570331573486,
      1.8288989067077637,
      -0.14327411353588104,
      -0.3148964047431946,
      -1.1297277212142944,
      -1.3877999782562256,
      0.18044413626194,
      1.7228385210037231,
      1.6019313335418701,
      -2.5029804706573486,
      0.4549544155597687,
      -0.7992258071899414,
      1.1588947772979736,
      -0.5484304428100586,
      -0.8175972104072571,
      -0.8812130689620972,
      -1.858256220817566,
      -0.34364572167396545,
      -1.700398564338684,
      2.2981860637664795,
      -1.4628366231918335,
      0.6755268573760986,
      -1.8470051288604736,
      -0.13362063467502594,
      0.1411331593990326,
      -1.659037470817566,
      0.06901341676712036,
      -1.1704835891723633,
      -2.3228209018707275,
      0.0829758420586586,
      -0.9215673208236694,
      -1.1969866752624512,
      -3.1933534145355225,
      -0.3015303909778595,
      1.3778072595596313,
      -0.8176237940788269,
      0.7688302397727966,
      0.652298092842102,
      -0.1503141075372696,
      0.49565598368644714,
      -1.0101922750473022,
      0.5487348437309265,
      0.7135103940963745,
      -0.06053495779633522,
      0.6378669142723083,
      0.39235737919807434,
      -0.9363673329353333,
      0.7220107316970825,
      -1.6411606073379517,
      -0.636656641960144,
      -1.126908302307129,
      0.8954559564590454,
      -0.2752111256122589,
      0.6625759601593018,
      -0.7163393497467041,
      -0.798102617263794,
      -0.9818095564842224,
      -2.0506935119628906,
      -1.163672924041748,
      -1.1850794553756714,
      0.7286630868911743,
      -0.4068646728992462,
      0.29411667585372925,
      -0.4078690707683563,
      -1.6962116956710815,
      -0.6694991588592529,
      -0.2241201549768448,
      0.07763278484344482,
      0.8877874612808228,
      -0.07208046317100525,
      0.22540444135665894,
      0.8173944354057312,
      0.3543951213359833,
      0.33644604682922363,
      -1.255698800086975,
      0.0892345979809761,
      -1.0363636016845703,
      0.7425663471221924,
      -0.3181164264678955,
      0.15226194262504578,
      1.0413888692855835,
      -1.0640519857406616,
      -0.8692097663879395,
      -2.207369804382324,
      -0.29205620288848877,
      -0.6709750294685364,
      0.2555079162120819,
      -1.6125574111938477,
      1.4633461236953735,
      0.3556041419506073,
      -0.09533769637346268,
      -0.8617352843284607,
      -0.4914611876010895,
      -0.4953392446041107,
      -1.2608792781829834,
      -0.003037685062736273,
      -1.0073769092559814,
      2.537611961364746,
      0.15812820196151733,
      0.3742765784263611,
      -1.531679630279541,
      -0.26220667362213135,
      0.15786737203598022,
      1.0393564701080322,
      0.7510491609573364,
      1.6925703287124634,
      -0.8199299573898315,
      -0.41379407048225403,
      -0.8647019863128662,
      -3.3675739765167236,
      -0.4394950866699219,
      1.396077275276184,
      0.6514818072319031,
      -0.44769564270973206,
      -0.5426849722862244,
      0.9271569848060608,
      -0.008173036389052868,
      0.05764833465218544,
      0.1736365407705307,
      0.19790837168693542,
      -0.6132258772850037,
      -0.42707887291908264,
      -1.9817321300506592,
      -0.6967824101448059,
      1.8114582300186157,
      1.5163291692733765,
      -3.760883092880249,
      0.06448914855718613,
      -0.8387694358825684,
      -2.2717108726501465,
      0.07149536907672882,
      0.3337098956108093,
      0.5959435701370239,
      -0.6769957542419434,
      0.7617242932319641,
      -2.8375518321990967,
      -0.1444632112979889,
      -0.9340165257453918,
      -0.3460918962955475,
      -0.8256943821907043,
      -2.8741183280944824,
      0.8789565563201904,
      -1.8193869590759277,
      0.8474668264389038,
      2.0422205924987793,
      1.0719444751739502,
      1.7556676864624023,
      1.0209596157073975,
      -2.3601677417755127,
      2.263214588165283,
      1.4329055547714233,
      -2.4521172046661377,
      -0.5809455513954163,
      -3.609968423843384,
      -0.3846852481365204,
      0.6384437680244446,
      -2.0684304237365723,
      2.284539222717285,
      -0.49561744928359985,
      -3.258396625518799,
      -0.37833425402641296,
      2.6109237670898438,
      0.39647147059440613,
      -0.09261482208967209,
      0.6275659799575806,
      0.41163644194602966,
      0.32656604051589966,
      0.3901762068271637,
      -1.7308281660079956,
      0.7922491431236267,
      -0.4757704734802246,
      3.481006622314453,
      -1.0264892578125,
      1.8066160678863525,
      0.259047269821167,
      1.3486158847808838,
      -0.21825864911079407,
      -0.4941125512123108,
      0.7272229790687561,
      -0.5090161561965942,
      0.7415981292724609,
      0.784463107585907,
      -1.411300778388977,
      2.9792263507843018,
      -0.4392719566822052,
      -1.89500892162323,
      1.0780344009399414,
      -0.3029981255531311,
      -0.44791945815086365,
      1.0126144886016846,
      0.9336901307106018,
      -3.173038959503174,
      0.26040399074554443,
      1.8681299686431885,
      -2.500279188156128,
      1.931064248085022,
      -0.2884463667869568,
      -1.9886744022369385,
      2.7484984397888184,
      2.44875168800354,
      1.2076284885406494,
      3.4547557830810547,
      2.3247592449188232,
      1.1026208400726318,
      1.167350172996521,
      -1.5490522384643555,
      -0.10426685959100723,
      1.2557767629623413,
      0.1296505630016327,
      0.3564430773258209,
      2.874084711074829,
      -1.0160154104232788,
      -0.46449869871139526,
      -2.47482967376709,
      -0.18021553754806519,
      4.551107883453369,
      1.6091769933700562,
      -0.0003373274812474847,
      0.00014941697008907795,
      0.0001381921028951183,
      -0.00020502366533037275,
      -0.00018062123854178935,
      -0.00020969219622202218,
      -0.000022092201106715947,
      -0.000126307611935772,
      0.00020149213378317654,
      0.000034900491300504655,
      0.00007761998858768493,
      -0.0002163568715332076,
      0.0002049914764938876,
      0.0001860966585809365,
      0.0003089128585997969,
      0.0000822678703116253,
      0.00010160531383007765,
      0.00011309517140034586,
      0.00011027736763935536,
      0.00019758078269660473,
      0.00011372505105100572,
      -0.00025371203082613647,
      -0.00015204009832814336,
      -0.0001564173580845818,
      0.00021445497986860573,
      -0.00023708253866061568
    ]
  },
  "hiddenLayers": [
    {
      "inputMatrix": {
        "rows": 20,
        "columns": 26,
        "weights": [
          0.2535940408706665,
          -0.22691017389297485,
          -0.2998366355895996,
          0.11353479325771332,
          0.3816159963607788,
          -0.02817007340490818,
          0.3823447823524475,
          -0.06423833966255188,
          0.34889429807662964,
          -0.3190542757511139,
          0.13630461692810059,
          0.4861808121204376,
          0.001794163603335619,
          -0.029379453510046005,
          -0.281507283449173,
          0.3925386369228363,
          -0.47263219952583313,
          -0.009824806824326515,
          0.1037260890007019,
          0.4929194748401642,
          0.10392102599143982,
          -0.3366108238697052,
          0.023363767191767693,
          -0.3643117845058441,
          -0.10368151217699051,
          -0.32438233494758606,
          0.5746344923973083,
          0.41912055015563965,
          0.5928873419761658,
          0.6924293041229248,
          0.13045550882816315,
          -0.38036400079727173,
          0.7450057864189148,
          -0.27837011218070984,
          -0.6202302575111389,
          -0.09034863859415054,
          0.08625956624746323,
          -0.03247066214680672,
          0.5623490810394287,
          -0.11520794779062271,
          -0.3107079863548279,
          -0.15848921239376068,
          -0.44293344020843506,
          -0.015320814214646816,
          -0.44919028878211975,
          -0.14468400180339813,
          0.23983612656593323,
          0.029521552845835686,
          -0.3491534888744354,
          -0.4487026631832123,
          -0.07396422326564789,
          0.36868196725845337,
          0.04911033436655998,
          -0.0979391410946846,
          -0.34294393658638,
          -0.10959391295909882,
          0.5839548707008362,
          0.014773529022932053,
          0.21148963272571564,
          0.1620703786611557,
          0.00077783566666767,
          0.17827296257019043,
          0.24001523852348328,
          0.2146224081516266,
          -0.40396201610565186,
          -0.49532032012939453,
          -0.18456625938415527,
          -0.1354341059923172,
          0.008382189087569714,
          0.37600842118263245,
          0.25415316224098206,
          0.2806254029273987,
          0.219600647687912,
          -0.12916511297225952,
          -0.043533798307180405,
          -0.502495527267456,
          0.14655464887619019,
          0.2513161897659302,
          0.8251961469650269,
          0.4628106355667114,
          -0.031465865671634674,
          -0.10582833737134933,
          0.13433487713336945,
          0.48372820019721985,
          -0.003257974050939083,
          0.0972287505865097,
          0.39030030369758606,
          -0.2780945897102356,
          -0.4304659962654114,
          0.2276102602481842,
          0.008385012857615948,
          -0.4860852360725403,
          0.11150198429822922,
          -0.5075328350067139,
          0.3524981141090393,
          0.5954070091247559,
          0.33958014845848083,
          0.29681771993637085,
          0.3860231041908264,
          -0.034954436123371124,
          -0.1361915022134781,
          0.01306995376944542,
          0.05559161305427551,
          -0.14252826571464539,
          0.42400121688842773,
          0.06021813303232193,
          -0.3098851144313812,
          0.4665844142436981,
          0.7220188975334167,
          -0.24608610570430756,
          -0.11832759529352188,
          0.2665287256240845,
          -0.04289606213569641,
          -0.028934992849826813,
          0.38703081011772156,
          0.6242713928222656,
          -0.27507057785987854,
          -0.40898922085762024,
          -0.14511777460575104,
          -0.631640613079071,
          -0.37324002385139465,
          0.5192363262176514,
          0.4615311920642853,
          -0.017695792019367218,
          0.12982232868671417,
          -0.10954216122627258,
          -0.19947345554828644,
          -0.1304907649755478,
          -0.02836398035287857,
          -0.29313674569129944,
          -0.020594915375113487,
          0.26235389709472656,
          -0.07953951507806778,
          -0.20966607332229614,
          -0.255300372838974,
          0.02170131541788578,
          -0.04909353703260422,
          -0.018300438299775124,
          -0.256808876991272,
          0.1266910582780838,
          -0.42074671387672424,
          -0.1769043654203415,
          0.5834237337112427,
          -0.4911195635795593,
          -0.013546227477490902,
          0.4709826111793518,
          0.15437421202659607,
          0.0033183845225721598,
          -0.2632242441177368,
          -0.7821432948112488,
          -0.3978680968284607,
          -0.35127222537994385,
          -0.15266521275043488,
          -0.28046151995658875,
          0.2694811224937439,
          0.337934672832489,
          0.17994576692581177,
          -0.008943180553615093,
          0.17300045490264893,
          0.10907484591007233,
          0.12388657033443451,
          -0.5272404551506042,
          0.29251131415367126,
          0.03882678970694542,
          -0.15742260217666626,
          -0.3805437684059143,
          0.13188278675079346,
          0.13366900384426117,
          0.2201872169971466,
          -0.42073050141334534,
          -0.1525246948003769,
          0.1659603714942932,
          -0.10516975075006485,
          -0.08914035558700562,
          -0.41579189896583557,
          0.15288785099983215,
          -0.2626856863498688,
          -0.2115749567747116,
          -0.041965462267398834,
          -0.008263807743787766,
          -0.5475679636001587,
          -0.17208509147167206,
          0.3178907632827759,
          0.01817796565592289,
          -0.2337423712015152,
          -0.01064439956098795,
          -0.08140359073877335,
          0.22838111221790314,
          0.3140368163585663,
          -0.18569359183311462,
          0.09688129276037216,
          0.041762348264455795,
          0.0005357518093660474,
          0.7747465968132019,
          -0.058696042746305466,
          0.16335250437259674,
          0.13057729601860046,
          -0.15669146180152893,
          0.09960221499204636,
          0.2348816692829132,
          0.6138277649879456,
          0.41700977087020874,
          0.1759410947561264,
          -0.11160547286272049,
          -0.19128543138504028,
          -0.2249782681465149,
          -0.032612111419439316,
          0.144265815615654,
          -0.046847712248563766,
          0.04940628260374069,
          -0.3089126646518707,
          0.21800145506858826,
          0.08956953138113022,
          0.3626985251903534,
          0.5836385488510132,
          -0.05196704715490341,
          0.1930554062128067,
          -0.10533938556909561,
          0.11129386723041534,
          0.1666414886713028,
          0.39176174998283386,
          0.007994488812983036,
          -0.026450442150235176,
          0.3205466866493225,
          -0.07795778661966324,
          -0.3547002971172333,
          0.20503780245780945,
          0.20812179148197174,
          -0.4427649676799774,
          -0.6098378300666809,
          0.26155737042427063,
          0.09518001973628998,
          0.2767559885978699,
          -0.18867924809455872,
          0.4553917944431305,
          0.03933318704366684,
          0.12050618976354599,
          -0.35754063725471497,
          0.37210068106651306,
          -0.0005164850153960288,
          0.3200647532939911,
          0.33853983879089355,
          -0.036766622215509415,
          -0.0038296631537377834,
          0.007964443415403366,
          0.17885860800743103,
          0.035818178206682205,
          -0.3651013672351837,
          0.1791745275259018,
          -0.011916806921362877,
          -0.10898417979478836,
          0.020612267777323723,
          0.25164681673049927,
          -0.0469294898211956,
          -0.13552412390708923,
          0.14496831595897675,
          -0.00044953255564905703,
          0.07694028317928314,
          -0.25827518105506897,
          0.20605194568634033,
          -0.3163551986217499,
          0.5084701776504517,
          -0.2585316300392151,
          0.40138497948646545,
          -0.2237534075975418,
          0.13406559824943542,
          -0.07437458634376526,
          0.08021324872970581,
          -0.09415536373853683,
          -0.5236573815345764,
          -0.21699416637420654,
          0.35707518458366394,
          -0.07641647011041641,
          -0.09659521281719208,
          0.48089638352394104,
          0.5558342337608337,
          0.06821838766336441,
          -0.3295305371284485,
          0.03480098396539688,
          -0.490489661693573,
          0.05579175055027008,
          -0.23389092087745667,
          -0.034269604831933975,
          -0.18805532157421112,
          -0.11765164881944656,
          -0.04116768389940262,
          0.01904403232038021,
          -0.2157544493675232,
          0.19307540357112885,
          0.01888311095535755,
          0.015242304652929306,
          -0.6109114289283752,
          -0.06695131212472916,
          0.2618583142757416,
          -0.16479119658470154,
          -0.25356748700141907,
          0.20963330566883087,
          0.3483905494213104,
          -0.03241845965385437,
          -0.3447960615158081,
          0.03848391771316528,
          -0.12943853437900543,
          -0.01947610452771187,
          0.24349121749401093,
          0.2659795582294464,
          -0.07094766199588776,
          -0.4833604693412781,
          -0.07721713930368423,
          0.05963297560811043,
          -0.07892105728387833,
          -0.1433342546224594,
          0.18159426748752594,
          0.4559169411659241,
          0.09518946707248688,
          -0.2585201561450958,
          0.14744329452514648,
          0.3103409707546234,
          -0.10519612580537796,
          0.5212191939353943,
          0.10927800089120865,
          -0.1900329291820526,
          0.3717440664768219,
          -0.009857959114015102,
          0.3394795358181,
          0.2589804232120514,
          -0.4771071672439575,
          0.4253625273704529,
          -0.234026238322258,
          0.3979419767856598,
          0.056962739676237106,
          -0.22098363935947418,
          0.19192253053188324,
          -0.17089447379112244,
          -0.04386328533291817,
          -0.0066054631024599075,
          0.18562351167201996,
          0.3793396055698395,
          0.6122197508811951,
          0.1948241889476776,
          -0.41185444593429565,
          0.1033148467540741,
          0.46140897274017334,
          -0.07046304643154144,
          -0.014959038235247135,
          0.3022405207157135,
          0.17561721801757812,
          -0.16306769847869873,
          -0.5804633498191833,
          0.13933135569095612,
          -0.25533053278923035,
          0.3679400384426117,
          0.09452603757381439,
          0.13752171397209167,
          0.09821290522813797,
          -0.051277969032526016,
          -0.2549578547477722,
          -0.17315132915973663,
          -1.1123207807540894,
          0.19085653126239777,
          -0.28150874376296997,
          -0.0922665148973465,
          -0.16951777040958405,
          -0.4894212484359741,
          -0.34589558839797974,
          0.2149275243282318,
          -0.07030072063207626,
          0.38855448365211487,
          -0.06695211678743362,
          -0.057923201471567154,
          -0.31660163402557373,
          -0.14327549934387207,
          0.36825472116470337,
          -0.10979880392551422,
          -0.20281365513801575,
          -0.08088650554418564,
          0.48660874366760254,
          -0.05057573318481445,
          -0.46438223123550415,
          0.19438743591308594,
          -0.32277578115463257,
          0.3472371995449066,
          0.2272937297821045,
          0.5153546929359436,
          -0.043036170303821564,
          -0.24581319093704224,
          0.69742351770401,
          0.20379126071929932,
          -0.3199174702167511,
          -0.014850260689854622,
          0.2855422794818878,
          0.07477054744958878,
          -0.4533705413341522,
          0.06516017764806747,
          -0.2780589163303375,
          0.22343014180660248,
          -0.1962948739528656,
          -0.07072366774082184,
          0.3122423589229584,
          0.22398912906646729,
          -0.24507801234722137,
          -0.23634999990463257,
          -0.0238371379673481,
          -0.05339539051055908,
          -0.24450655281543732,
          0.31004709005355835,
          0.1841738075017929,
          -0.2611851096153259,
          -0.402558296918869,
          -0.07031100988388062,
          -0.5783624649047852,
          -0.18974514305591583,
          -0.189493790268898,
          0.09673422574996948,
          -0.5652327537536621,
          -0.08994393050670624,
          0.36670219898223877,
          -0.45554119348526,
          -0.07876970618963242,
          -0.2606838643550873,
          -0.05292969569563866,
          0.3568623661994934,
          0.2835317552089691,
          -0.5435039401054382,
          0.3048534095287323,
          -0.7752202153205872,
          0.20826701819896698,
          0.07356386631727219,
          0.03061375394463539,
          -0.23136106133460999,
          0.1348017305135727,
          0.6527812480926514,
          0.0773792564868927,
          0.13019245862960815,
          0.19986899197101593,
          0.08248666673898697,
          -0.0903330072760582,
          -0.127305269241333,
          0.14825427532196045,
          0.18636029958724976,
          -0.07263042777776718,
          0.26645445823669434,
          0.19376473128795624,
          0.17990656197071075,
          0.18093369901180267,
          -0.3984333276748657,
          -0.29975953698158264,
          0.20648321509361267,
          -0.08147987723350525,
          -0.06715784221887589,
          -0.07356748729944229,
          0.058143939822912216,
          -0.19255317747592926,
          0.02346707507967949,
          -0.05399971082806587,
          0.18017375469207764,
          -0.2096700817346573,
          -0.1322174370288849,
          -0.047264888882637024,
          -0.46739116311073303,
          -0.47381725907325745,
          -0.5060141086578369,
          -0.020966501906514168,
          -0.6241176724433899,
          0.028478235006332397,
          0.3383191227912903,
          0.02002626471221447,
          0.07167771458625793,
          -0.1407080888748169,
          0.388958215713501,
          -0.17565017938613892,
          0.5608901977539062,
          -0.16425290703773499,
          -0.014312473125755787,
          0.01920405402779579,
          0.10860437154769897,
          -0.22025784850120544,
          -0.15353772044181824,
          -0.3306341767311096,
          -0.04609626531600952,
          0.5010257959365845,
          0.38592275977134705,
          -0.291456013917923,
          0.12419090420007706,
          -0.44959527254104614,
          -0.017009885981678963,
          0.22609713673591614,
          -0.1448947638273239,
          -0.2823318541049957,
          0.027707839384675026,
          -0.08789371699094772,
          -0.06106323376297951,
          -0.31792187690734863,
          -0.015942668542265892,
          0.2573521137237549,
          0.1895182728767395,
          0.04659131169319153,
          -0.01471803616732359,
          0.4109237790107727,
          -0.3745557963848114,
          -0.06049453094601631,
          0.2798534035682678,
          -0.213101327419281,
          0.09542533755302429,
          0.06930325925350189,
          0.13142400979995728,
          0.1635218858718872,
          0.19075794517993927,
          -0.19157136976718903,
          0.08234839141368866,
          -0.13144564628601074,
          0.01844623312354088,
          -0.12908099591732025,
          0.07093268632888794,
          0.2514520287513733,
          -0.02422238141298294,
          -0.48034968972206116,
          -0.1232229620218277,
          -0.01019278634339571,
          -0.041401151567697525,
          0.00826460774987936
        ]
      },
      "inputHidden": {
        "rows": 20,
        "columns": 20,
        "weights": [
          0.041939783841371536,
          -0.7703197002410889,
          0.1356070339679718,
          0.3159399628639221,
          -0.558922529220581,
          0.05610368400812149,
          0.4347090721130371,
          -0.0034153081942349672,
          -0.02851935289800167,
          -0.2563081681728363,
          0.3013762831687927,
          -0.8341186046600342,
          0.2080991268157959,
          0.48170533776283264,
          -0.346677303314209,
          0.5983098149299622,
          1.6233201026916504,
          -0.1195320412516594,
          0.2574115991592407,
          0.6932703852653503,
          0.40744227170944214,
          0.07326198369264603,
          -0.4563576579093933,
          -0.9073125720024109,
          -0.4857957661151886,
          0.40811648964881897,
          -0.34493309259414673,
          0.11616764217615128,
          -0.4848080277442932,
          -0.1944676637649536,
          0.3776908218860626,
          -0.3286497890949249,
          -0.35581880807876587,
          0.06831202656030655,
          0.05363106727600098,
          -0.09803854674100876,
          0.24120496213436127,
          0.6325557231903076,
          0.28151705861091614,
          -0.26767751574516296,
          -0.38512715697288513,
          0.07353809475898743,
          -1.1564083099365234,
          0.09473399817943573,
          0.13183781504631042,
          0.09719792753458023,
          0.7708029747009277,
          0.36611515283584595,
          0.0904620960354805,
          -0.24195332825183868,
          -0.31480979919433594,
          -1.0548382997512817,
          -0.24227310717105865,
          -0.0293062012642622,
          -0.376013845205307,
          -0.29775169491767883,
          -0.5806663632392883,
          -0.7783260345458984,
          0.649029552936554,
          -0.5539881587028503,
          0.10364663600921631,
          0.1460741013288498,
          0.006506215315312147,
          0.3875146508216858,
          0.837855339050293,
          -0.1282312572002411,
          -0.8047506213188171,
          -0.38864976167678833,
          -0.45313557982444763,
          0.6759015917778015,
          0.46045222878456116,
          -0.336852490901947,
          0.1455545723438263,
          -0.7183877825737,
          -0.8077766299247742,
          0.20210833847522736,
          -0.2790410816669464,
          -0.022127114236354828,
          -0.08614437282085419,
          -0.13692407310009003,
          -0.02324856072664261,
          -0.6110684275627136,
          0.11997441947460175,
          -0.18026812374591827,
          -0.032738037407398224,
          -0.30009162425994873,
          0.18361368775367737,
          -0.7929772138595581,
          -0.8099748492240906,
          -0.000007691662176512182,
          -0.3352269232273102,
          -0.39855632185935974,
          -0.03378599137067795,
          -0.668750524520874,
          -0.13128894567489624,
          0.3655845522880554,
          0.9929158687591553,
          -0.8206726312637329,
          0.30340564250946045,
          0.0759124755859375,
          -0.16068245470523834,
          0.0583726204931736,
          0.03015378676354885,
          0.32291534543037415,
          0.06368397921323776,
          -1.2763707637786865,
          0.4846988916397095,
          -0.32087740302085876,
          -0.3994896113872528,
          0.5167810320854187,
          -0.09370063245296478,
          -0.3565060496330261,
          -0.0606750026345253,
          -0.8125319480895996,
          -0.13715429604053497,
          -0.7069686055183411,
          -0.09675423800945282,
          -1.1327606439590454,
          -0.3555595278739929,
          0.2833505868911743,
          0.2538333535194397,
          -0.09969295561313629,
          -0.2114371359348297,
          -1.2701317071914673,
          -0.03838971257209778,
          -0.05754823237657547,
          -0.36876532435417175,
          -0.33672812581062317,
          -0.4400208592414856,
          -0.6088167428970337,
          0.39733362197875977,
          0.006890028715133667,
          -0.1417178064584732,
          -0.01616889238357544,
          -0.55406254529953,
          -1.1134902238845825,
          0.7495282292366028,
          -0.5197147727012634,
          -0.14404265582561493,
          0.21695564687252045,
          0.24961087107658386,
          -0.31174221634864807,
          -0.588124692440033,
          -0.4119740426540375,
          0.4296681582927704,
          0.18208155035972595,
          -0.4384296238422394,
          -0.7635747194290161,
          -0.8252033591270447,
          -0.27700310945510864,
          -0.08822639286518097,
          0.5302467346191406,
          0.09271261841058731,
          -0.24408063292503357,
          -0.06239604204893112,
          -0.8342593908309937,
          -0.6645142436027527,
          0.1942978948354721,
          -0.5030359625816345,
          -0.5596246719360352,
          0.30330419540405273,
          -0.37004831433296204,
          -1.6705234050750732,
          -0.23365499079227448,
          0.708172619342804,
          0.3477393686771393,
          0.44514000415802,
          0.09470359981060028,
          -0.5415747761726379,
          -1.0466591119766235,
          -0.1750088781118393,
          -1.5779951810836792,
          0.042255762964487076,
          0.6141273379325867,
          0.17906790971755981,
          -0.06147448346018791,
          0.3511907756328583,
          0.339140921831131,
          0.241366907954216,
          0.27939295768737793,
          0.46456775069236755,
          -1.3193776607513428,
          -0.9198341369628906,
          -0.04500454664230347,
          -0.21380485594272614,
          -0.44753631949424744,
          0.2137332558631897,
          -2.2210440635681152,
          -0.43994832038879395,
          -0.5584137439727783,
          0.2240191102027893,
          0.01563192531466484,
          0.007499805185943842,
          -0.2802325487136841,
          -0.01045011356472969,
          -0.5695755481719971,
          0.05705587565898895,
          -0.583345353603363,
          0.4952576458454132,
          -0.26864808797836304,
          0.38521257042884827,
          -0.953303337097168,
          -0.9361445307731628,
          0.00827828049659729,
          0.2952437400817871,
          0.12826478481292725,
          -0.34859076142311096,
          -0.32831960916519165,
          0.06885913014411926,
          -0.6195694804191589,
          0.3806619644165039,
          -0.15918664634227753,
          -0.11313322186470032,
          0.4915351867675781,
          0.5209944248199463,
          -0.4264273941516876,
          -0.03949064761400223,
          0.030065080150961876,
          0.11768127232789993,
          0.24338261783123016,
          0.48670050501823425,
          -1.303362488746643,
          -0.7289280891418457,
          -0.3008885979652405,
          0.12221765518188477,
          -0.3085627853870392,
          -0.2880595028400421,
          0.15072551369667053,
          -0.938140332698822,
          -0.2733546197414398,
          -0.5957679748535156,
          0.0388324074447155,
          -0.16198866069316864,
          -0.788608729839325,
          0.8988673686981201,
          -0.11856169998645782,
          -0.060737766325473785,
          -0.6818886995315552,
          0.11687110364437103,
          -0.2547939121723175,
          0.39566975831985474,
          0.14320532977581024,
          -0.3838269114494324,
          -0.12390818446874619,
          -0.21440193057060242,
          -0.14049667119979858,
          -0.05628691986203194,
          -0.19013671576976776,
          0.4120086431503296,
          -0.35425397753715515,
          0.15686558187007904,
          -0.8785260915756226,
          -0.15396429598331451,
          -0.2319057136774063,
          -0.009147543460130692,
          -0.48842230439186096,
          0.024217616766691208,
          0.2803882360458374,
          0.29135453701019287,
          0.2407943457365036,
          0.14934632182121277,
          0.1574159413576126,
          -0.19045297801494598,
          0.05941116437315941,
          0.6603065729141235,
          -0.08334986865520477,
          -0.14982883632183075,
          -1.2146661281585693,
          -0.19501833617687225,
          0.2348601371049881,
          0.5727427005767822,
          -0.5727607011795044,
          0.34875476360321045,
          -0.10746125876903534,
          -0.04390573501586914,
          -0.7125639319419861,
          0.17095746099948883,
          -0.5496214628219604,
          -0.22101959586143494,
          -0.07114037871360779,
          -0.27494630217552185,
          -0.27576103806495667,
          0.347870796918869,
          0.3746473491191864,
          0.6396201848983765,
          -0.40240034461021423,
          0.3600308895111084,
          -0.236074298620224,
          0.2030784636735916,
          -0.3329474925994873,
          -0.2569679021835327,
          -0.5221041440963745,
          0.6487924456596375,
          0.23081699013710022,
          -0.24210624396800995,
          0.13808868825435638,
          0.47022342681884766,
          -0.5010495781898499,
          0.3966120779514313,
          -0.06899087131023407,
          0.5664514899253845,
          -1.0943431854248047,
          -2.271134853363037,
          -0.358979195356369,
          0.19015458226203918,
          -0.3400172293186188,
          0.6416924595832825,
          0.10223543643951416,
          -0.4420223832130432,
          -0.06988081336021423,
          -0.5519077181816101,
          -0.4234483242034912,
          0.5483096241950989,
          0.7020476460456848,
          0.17362745106220245,
          -0.3853716254234314,
          -0.5140907764434814,
          -0.04990723356604576,
          0.37555238604545593,
          0.3044761121273041,
          0.4328228831291199,
          -0.5066654086112976,
          -0.9257122874259949,
          0.08697356283664703,
          1.1679507493972778,
          -0.6006835103034973,
          0.231394425034523,
          -0.4195610582828522,
          0.39897778630256653,
          -0.3342927396297455,
          0.5911539196968079,
          -0.1604287177324295,
          -0.7819445729255676,
          0.11233261227607727,
          1.2194732427597046,
          -0.4267123341560364,
          0.014422865584492683,
          0.9859588742256165,
          0.5073056817054749,
          -0.13692612946033478,
          -0.041968539357185364,
          -1.178479790687561,
          -0.24464856088161469,
          -0.0027653402648866177,
          -0.4337649941444397,
          -0.38858044147491455,
          1.0698184967041016,
          -0.0985417366027832,
          -0.1420404613018036,
          -0.7109388113021851,
          -0.1527763307094574,
          -0.5100014209747314,
          0.8201058506965637,
          0.10645067691802979,
          0.8819111585617065,
          -0.22344757616519928,
          -0.17442627251148224,
          0.3054446578025818,
          0.3846466839313507,
          -0.4404922425746918,
          -0.3303149938583374,
          -0.1550627052783966,
          -0.3636494576931,
          -0.8729222416877747,
          0.2677556574344635,
          0.3681444525718689,
          -0.05827635899186134,
          -0.30584344267845154,
          -0.7328801155090332,
          -0.15078194439411163,
          -0.2758162319660187,
          -0.0643133744597435,
          0.601427435874939,
          0.20388276875019073,
          -0.7062182426452637,
          0.2832992672920227,
          -0.018436577171087265,
          0.63823002576828,
          0.28324639797210693,
          -0.30443868041038513,
          -0.7333611845970154,
          -0.31909844279289246,
          -1.4456291198730469,
          0.17567066848278046,
          -0.10938145220279694,
          0.33226582407951355,
          -0.33077549934387207,
          -0.8296889066696167,
          -0.2535947263240814,
          -0.8004099130630493,
          -0.45624667406082153,
          -0.8212091326713562,
          0.5720561146736145,
          -0.36120736598968506,
          0.20337721705436707,
          -0.16088944673538208,
          0.1357349157333374,
          -0.4259871542453766,
          -0.012240053154528141,
          -0.6636943221092224
        ]
      },
      "inputBias": {
        "rows": 20,
        "columns": 1,
        "weights": [
          0.5250654220581055,
          -0.13065700232982635,
          -0.3923134207725525,
          0.8423610925674438,
          0.22606997191905975,
          0.6463462114334106,
          0.139959916472435,
          -0.14350442588329315,
          0.6579204201698303,
          -0.07935222238302231,
          1.10871422290802,
          0.23004795610904694,
          1.0723814964294434,
          1.0495742559432983,
          0.7507663369178772,
          0.5488824844360352,
          0.20334792137145996,
          0.3107483685016632,
          0.8551887273788452,
          0.5169938206672668
        ]
      },
      "forgetMatrix": {
        "rows": 20,
        "columns": 26,
        "weights": [
          0.43104374408721924,
          0.03627253323793411,
          0.3422899842262268,
          -0.19820915162563324,
          0.1734473556280136,
          0.091926209628582,
          0.08995161205530167,
          -0.2697279453277588,
          0.10954812914133072,
          0.18369095027446747,
          -0.4115030765533447,
          0.09529934823513031,
          -0.22269268333911896,
          -0.010256219655275345,
          0.0038575995713472366,
          -0.14125947654247284,
          0.3283262550830841,
          0.21956868469715118,
          -0.0431692935526371,
          0.1490565538406372,
          0.24744179844856262,
          0.08102662116289139,
          -0.017487743869423866,
          -0.3184035122394562,
          0.17636217176914215,
          0.1118469089269638,
          0.4702344238758087,
          0.1769779622554779,
          0.29016196727752686,
          -0.4870653450489044,
          -0.28607410192489624,
          0.25711625814437866,
          0.39561954140663147,
          -0.5018100738525391,
          0.19337394833564758,
          -0.3485645353794098,
          -0.4691111147403717,
          0.2065363973379135,
          -0.3130306005477905,
          -0.15753518044948578,
          0.29291778802871704,
          -0.2384382039308548,
          0.385143905878067,
          0.23228250443935394,
          -0.3717458248138428,
          -0.15655000507831573,
          0.19245928525924683,
          -0.22350458800792694,
          -0.2985512316226959,
          -0.40628957748413086,
          -0.2858559489250183,
          -0.01564737781882286,
          -0.05930669605731964,
          0.6177262663841248,
          -0.042863957583904266,
          0.24302628636360168,
          -0.011748235672712326,
          -0.13617068529129028,
          0.03538995981216431,
          -0.16523410379886627,
          -0.3755975067615509,
          0.35122305154800415,
          -0.06618831306695938,
          -0.26265162229537964,
          0.005048905033618212,
          -0.1566673368215561,
          -0.07732667028903961,
          -0.47808441519737244,
          -0.39298540353775024,
          -0.14332808554172516,
          -0.14209313690662384,
          0.12988878786563873,
          0.1052655354142189,
          0.015282011590898037,
          -0.059601664543151855,
          -0.04107142612338066,
          0.05167801305651665,
          0.196285218000412,
          -0.6904263496398926,
          -0.19944815337657928,
          -0.25452813506126404,
          -0.003898223862051964,
          0.2046549767255783,
          -0.1363442987203598,
          -0.06441590934991837,
          0.2751278877258301,
          -0.20036795735359192,
          0.06862986832857132,
          0.3677656650543213,
          -0.7713680863380432,
          0.36505645513534546,
          0.22949910163879395,
          0.28166884183883667,
          -0.42709359526634216,
          -0.10952448844909668,
          -0.3256799280643463,
          -0.1565118283033371,
          -0.36800849437713623,
          -0.26861247420310974,
          0.2729526162147522,
          0.023836180567741394,
          0.30872082710266113,
          -0.17821480333805084,
          0.31958672404289246,
          0.06634392589330673,
          -0.39804452657699585,
          0.09448182582855225,
          -0.357727587223053,
          0.1968695968389511,
          0.43786635994911194,
          -0.32826992869377136,
          0.3692150115966797,
          -0.14132411777973175,
          -0.5849196314811707,
          -0.3406071662902832,
          -0.0630108043551445,
          0.015490912832319736,
          0.2135751098394394,
          0.12267173081636429,
          -0.39597612619400024,
          0.24358907341957092,
          0.5357975363731384,
          0.43061381578445435,
          -0.3494977056980133,
          0.13806743919849396,
          0.4045008718967438,
          -0.47028595209121704,
          -0.299139142036438,
          -0.15375842154026031,
          -0.2638449966907501,
          -0.19039864838123322,
          0.4220094382762909,
          -0.19220302999019623,
          -0.16446711122989655,
          -0.0680791437625885,
          0.3482697010040283,
          0.45757314562797546,
          -0.15181094408035278,
          0.29071345925331116,
          0.08389844000339508,
          0.23119674623012543,
          0.0971866101026535,
          -0.07135561108589172,
          0.07259690761566162,
          0.19802169501781464,
          0.12079017609357834,
          0.495606392621994,
          0.14803294837474823,
          -0.2573547065258026,
          0.49855703115463257,
          -0.2986353635787964,
          -0.46409788727760315,
          -0.1357056200504303,
          0.012655304744839668,
          -0.22032776474952698,
          0.041678931564092636,
          0.1277594417333603,
          -0.07757493853569031,
          0.37242117524147034,
          -0.18654097616672516,
          0.01300808135420084,
          -0.23629280924797058,
          -0.3390876352787018,
          0.04989884793758392,
          0.08206427097320557,
          -0.3172033429145813,
          -0.4267997145652771,
          -0.21300587058067322,
          0.1530880630016327,
          0.11146034300327301,
          -0.4187886118888855,
          0.011693479493260384,
          0.06542785465717316,
          -0.38629645109176636,
          -0.2508946359157562,
          -0.2065110206604004,
          0.021888434886932373,
          -0.0162495207041502,
          -0.15811777114868164,
          -0.100861556828022,
          0.035501476377248764,
          0.16486504673957825,
          0.17865590751171112,
          -0.2720734477043152,
          0.5189402103424072,
          -0.04561084881424904,
          -0.015660760924220085,
          -0.20097725093364716,
          -0.3984760642051697,
          -0.1979764848947525,
          -0.44821998476982117,
          -0.27443358302116394,
          0.1581074595451355,
          -0.13809119164943695,
          0.19879554212093353,
          -0.4042949378490448,
          -0.0027856065426021814,
          -0.10330870002508163,
          0.3515664041042328,
          0.2601621150970459,
          -0.37094762921333313,
          0.10903722047805786,
          0.3110713064670563,
          -0.012172788381576538,
          -0.08715557307004929,
          -0.2445688247680664,
          -0.028798814862966537,
          0.5271559357643127,
          0.5030912756919861,
          -0.15438129007816315,
          -0.5114590525627136,
          0.33318594098091125,
          -0.32374823093414307,
          0.36236369609832764,
          -0.25412943959236145,
          0.07049328088760376,
          0.18268436193466187,
          -0.4930727183818817,
          -0.16502292454242706,
          0.6652109026908875,
          -0.025876212865114212,
          0.039950255304574966,
          0.524062991142273,
          0.2535803020000458,
          -0.43359375,
          0.22699101269245148,
          0.2944338619709015,
          0.21662741899490356,
          0.7724498510360718,
          -0.26136231422424316,
          -0.1546493023633957,
          -0.01828601583838463,
          -0.3753069043159485,
          -0.38654378056526184,
          -0.013467654585838318,
          0.20432209968566895,
          0.004411289934068918,
          -0.5537210702896118,
          0.22289878129959106,
          0.15010087192058563,
          0.27653664350509644,
          0.34397441148757935,
          0.34605908393859863,
          -0.027347030118107796,
          0.029161056503653526,
          -0.1310821771621704,
          -0.7686871290206909,
          -0.007712678983807564,
          0.26666998863220215,
          -0.30186334252357483,
          0.01627197116613388,
          0.32924339175224304,
          -0.051392100751399994,
          -0.12194965034723282,
          -0.2946135699748993,
          0.3493117690086365,
          -0.13670071959495544,
          -0.09645184874534607,
          -0.34791484475135803,
          0.5203883051872253,
          0.15664207935333252,
          -0.01384614035487175,
          -0.33601900935173035,
          -0.15311771631240845,
          0.13589483499526978,
          0.11399276554584503,
          0.035389531403779984,
          0.039328861981630325,
          0.019373392686247826,
          0.29380497336387634,
          0.05323560908436775,
          -0.5733599066734314,
          0.022615641355514526,
          0.040241919457912445,
          -0.3484705984592438,
          -0.2995586395263672,
          -0.18196606636047363,
          -0.03909015282988548,
          -0.2700195908546448,
          0.09531542658805847,
          -0.1418890804052353,
          0.024843042716383934,
          0.19734792411327362,
          0.3930232524871826,
          0.04308420419692993,
          0.11589261144399643,
          -0.24528823792934418,
          0.1730557382106781,
          -0.012435860931873322,
          -0.1514875292778015,
          0.3716251254081726,
          -0.2408926635980606,
          0.4462604820728302,
          -0.10591913014650345,
          0.10411810129880905,
          0.3199368119239807,
          -0.11932283639907837,
          -0.02381107583642006,
          -0.015220066532492638,
          0.24964405596256256,
          -0.4988926649093628,
          -0.2633909285068512,
          -0.26606258749961853,
          -0.0897594466805458,
          0.07175604999065399,
          0.10153218358755112,
          -0.1217312142252922,
          -0.1801399141550064,
          0.06821327656507492,
          0.07102257758378983,
          -0.11089108884334564,
          0.19717547297477722,
          0.0818740501999855,
          -0.18234676122665405,
          -0.4087679088115692,
          0.21754494309425354,
          -0.23604020476341248,
          -0.06724056601524353,
          -0.06692985445261002,
          -0.18489602208137512,
          0.10990222543478012,
          0.05478319153189659,
          0.08550678193569183,
          -0.1350298672914505,
          -0.662356436252594,
          0.011743811890482903,
          0.06295713037252426,
          0.10821360349655151,
          -0.008510824292898178,
          -0.08747541904449463,
          -0.08016341924667358,
          0.1308782994747162,
          0.30852210521698,
          -0.14015601575374603,
          0.45011594891548157,
          -0.346310555934906,
          -0.0061309621669352055,
          0.09354274719953537,
          -0.14361155033111572,
          0.5876522660255432,
          -0.07665714621543884,
          -0.11431580036878586,
          0.0992414653301239,
          0.1597074717283249,
          -0.09799599647521973,
          -0.12010292708873749,
          0.22715358436107635,
          -0.015629824250936508,
          0.0825994610786438,
          -0.17219439148902893,
          0.1886860728263855,
          -0.6301738619804382,
          -0.45592519640922546,
          0.07745606452226639,
          -0.2986540198326111,
          0.4527553915977478,
          -0.48082366585731506,
          0.3887046277523041,
          -0.20690004527568817,
          0.17777001857757568,
          -0.2114323526620865,
          0.15624476969242096,
          0.05042392387986183,
          0.12178660929203033,
          0.5154280662536621,
          -0.02146415039896965,
          -0.3811454772949219,
          0.20955631136894226,
          0.018823612481355667,
          -0.019298508763313293,
          0.31426897644996643,
          -0.011014707386493683,
          0.5560601353645325,
          0.12642893195152283,
          -0.08679201453924179,
          0.6730676889419556,
          -0.33134838938713074,
          -0.21588459610939026,
          0.16577796638011932,
          0.2932751178741455,
          -0.22339178621768951,
          0.03801798075437546,
          0.364164799451828,
          0.03355546295642853,
          0.3604314923286438,
          -0.18403425812721252,
          -0.12754550576210022,
          -0.19156908988952637,
          -0.1583111435174942,
          -0.3392486572265625,
          0.04371531680226326,
          -0.27899807691574097,
          -0.7678032517433167,
          0.24828286468982697,
          -0.18286554515361786,
          0.18485666811466217,
          0.12068911641836166,
          -0.15884628891944885,
          -0.22757643461227417,
          0.11276154220104218,
          0.20029066503047943,
          0.28296414017677307,
          0.3425893485546112,
          0.08153584599494934,
          -0.10993507504463196,
          0.33700716495513916,
          -0.2855719327926636,
          0.12654531002044678,
          0.27815887331962585,
          0.30611592531204224,
          0.1810789853334427,
          -0.2841816842556,
          -0.030042286962270737,
          -0.3097743093967438,
          0.2702828347682953,
          -0.3055076599121094,
          -0.12760037183761597,
          0.27931123971939087,
          -0.4416234791278839,
          0.31774118542671204,
          0.49616628885269165,
          0.15928272902965546,
          -0.5488471984863281,
          0.007068815641105175,
          -0.06499449163675308,
          -0.12507900595664978,
          0.1437620222568512,
          0.060698252171278,
          -0.20837754011154175,
          0.24217826128005981,
          0.11653738468885422,
          0.29286685585975647,
          -0.3002733290195465,
          0.1329248696565628,
          0.35525912046432495,
          -0.5512791872024536,
          -0.3409634232521057,
          0.1716085970401764,
          0.1521461457014084,
          0.45105648040771484,
          -0.010047489777207375,
          -0.23139813542366028,
          0.5451155304908752,
          -0.11417414247989655,
          0.14695662260055542,
          0.393311470746994,
          -0.014062443748116493,
          0.5306111574172974,
          0.41880667209625244,
          0.17317244410514832,
          0.2174566388130188,
          -0.5757761001586914,
          0.24660921096801758,
          0.5941381454467773,
          0.40136247873306274,
          0.11360885947942734,
          0.2559645473957062,
          0.4929715096950531,
          -0.08604541420936584,
          0.23506727814674377,
          0.21825367212295532,
          0.17026688158512115,
          0.4652819037437439,
          0.29120302200317383,
          -0.2953687608242035,
          -0.41208940744400024,
          -0.1020641177892685,
          -0.09015658497810364,
          -0.02045060321688652,
          0.03264889493584633,
          0.13530677556991577,
          -0.12739726901054382,
          -0.16868966817855835,
          0.06630631536245346,
          -0.23756098747253418,
          0.23092183470726013,
          -0.24210599064826965,
          -0.17452256381511688,
          0.1999259889125824,
          0.36757606267929077,
          0.20017214119434357,
          0.012119857594370842,
          -0.08325867354869843,
          -0.30416139960289,
          0.303762286901474,
          0.31264424324035645,
          0.115505151450634,
          0.15582925081253052,
          -0.04375731945037842,
          0.5032137036323547,
          0.1120532974600792,
          -0.0847344920039177,
          -0.06611236184835434,
          -0.11938805133104324,
          -0.08124691247940063,
          0.40411150455474854,
          -0.12918420135974884,
          -0.18305142223834991,
          0.03990946337580681,
          -0.27709299325942993,
          0.3040337860584259,
          0.11984581500291824,
          0.08011679351329803,
          -0.17653848230838776,
          -0.06368084996938705,
          -0.24866217374801636,
          0.06200004369020462,
          0.25987187027931213,
          -0.024396687746047974,
          0.04168933257460594,
          -0.21594072878360748,
          0.01483931951224804,
          -0.14453724026679993,
          0.0973316878080368,
          -0.3136245608329773,
          -0.24050919711589813,
          0.3947300314903259,
          0.06025319546461105,
          -0.3662288188934326,
          0.027457496151328087
        ]
      },
      "forgetHidden": {
        "rows": 20,
        "columns": 20,
        "weights": [
          0.1259971559047699,
          0.8377980589866638,
          0.47449520230293274,
          -0.2844253182411194,
          -0.14027924835681915,
          -0.5698484778404236,
          -0.1954018473625183,
          -0.3046930730342865,
          -0.05861600488424301,
          -0.03533584997057915,
          -0.6243348717689514,
          0.38202542066574097,
          -0.6150760054588318,
          -0.5333492755889893,
          1.2523833513259888,
          -0.3115842640399933,
          0.03737768158316612,
          0.0707617923617363,
          0.057028837502002716,
          -0.3459218144416809,
          -0.2534259557723999,
          -0.3274495005607605,
          -0.21722212433815002,
          -0.987057089805603,
          0.10024719685316086,
          0.5146311521530151,
          0.03684435784816742,
          0.3305574655532837,
          -0.38953515887260437,
          0.030957628041505814,
          -0.0530087985098362,
          -0.6219703555107117,
          0.33456656336784363,
          -0.3050478398799896,
          0.43021920323371887,
          0.04320294409990311,
          0.012781854718923569,
          0.07919363677501678,
          -0.7078418135643005,
          0.041149843484163284,
          0.998114287853241,
          0.41486024856567383,
          -0.342477023601532,
          -0.7635654807090759,
          -0.4705870747566223,
          -1.1493453979492188,
          -0.08099836111068726,
          0.1590539664030075,
          -0.03903781622648239,
          -0.2242119461297989,
          0.051212433725595474,
          -0.022733235731720924,
          -0.5440372824668884,
          0.3623104393482208,
          0.697749674320221,
          -0.25694888830184937,
          0.2722761332988739,
          0.5746655464172363,
          0.3144216239452362,
          -0.051034849137067795,
          0.007062767632305622,
          -0.04935998097062111,
          -0.054336126893758774,
          -0.28927505016326904,
          -0.47713568806648254,
          0.25577160716056824,
          0.4191558361053467,
          -0.40697091817855835,
          -0.08907483518123627,
          -0.5822818279266357,
          0.005898205563426018,
          0.6699900031089783,
          -0.4368969798088074,
          0.04270798712968826,
          -0.0041493806056678295,
          -0.35167476534843445,
          0.03444574773311615,
          -0.11256621032953262,
          0.12131812423467636,
          -0.09246531128883362,
          0.08087162673473358,
          0.43821853399276733,
          -0.6312671899795532,
          0.31672242283821106,
          0.23396864533424377,
          0.2647896409034729,
          0.13983401656150818,
          -0.5765631198883057,
          -0.09480955451726913,
          -0.7474250197410583,
          0.6413866877555847,
          -0.2974965274333954,
          -0.5712103843688965,
          0.34079158306121826,
          0.7376675009727478,
          -0.7415527701377869,
          -0.14794647693634033,
          0.9207337498664856,
          -0.09889709204435349,
          -0.08297555893659592,
          0.14232271909713745,
          -0.06455419957637787,
          -0.7096966505050659,
          0.5178053379058838,
          0.34640222787857056,
          0.17089463770389557,
          -0.5073493719100952,
          -0.016201118007302284,
          0.6579803824424744,
          0.7105810642242432,
          -0.5717046856880188,
          -0.34383776783943176,
          0.6353195905685425,
          0.18710574507713318,
          -0.44190093874931335,
          0.4536435902118683,
          -0.02899276465177536,
          -0.6260300874710083,
          0.2256103754043579,
          0.36500635743141174,
          0.5947251319885254,
          -0.3706161379814148,
          -0.48308151960372925,
          -0.579986035823822,
          -0.18648821115493774,
          0.23710061609745026,
          0.7337517738342285,
          0.4616958796977997,
          -0.3139941096305847,
          0.4487511217594147,
          0.008960464969277382,
          -0.5633161067962646,
          0.09477853029966354,
          0.8144426345825195,
          -0.029500488191843033,
          -0.0011315151350572705,
          -0.9087270498275757,
          -0.15778329968452454,
          0.029704635962843895,
          -0.22520074248313904,
          -0.5083009600639343,
          -0.07885716110467911,
          0.0068687982857227325,
          0.1583210527896881,
          -0.7447245121002197,
          -0.31659558415412903,
          0.02158595249056816,
          -0.5621945858001709,
          0.07322912663221359,
          -0.22379092872142792,
          0.0771428644657135,
          0.3758941888809204,
          -0.5935243368148804,
          -1.0764237642288208,
          -0.216488778591156,
          -0.15093131363391876,
          0.11145179718732834,
          0.06740423291921616,
          1.6153671741485596,
          -0.48456037044525146,
          -0.361286997795105,
          0.586075484752655,
          0.6841292381286621,
          -0.07439682632684708,
          -0.751870334148407,
          -0.5846638679504395,
          0.05094125121831894,
          0.1039753407239914,
          -0.76047682762146,
          0.6542230844497681,
          0.1860717236995697,
          -0.14404140412807465,
          0.09746187180280685,
          -0.4731907546520233,
          -0.6365299820899963,
          -0.7262668013572693,
          -0.41614556312561035,
          -0.10950357466936111,
          -0.093023881316185,
          -0.4973146617412567,
          -0.5204585194587708,
          0.4546310305595398,
          0.08723463118076324,
          -0.5297390818595886,
          -0.4979138672351837,
          -0.345049113035202,
          0.8549861907958984,
          0.368757963180542,
          0.2975147068500519,
          -0.352014422416687,
          0.041972335427999496,
          0.10181063413619995,
          -0.7445046305656433,
          -0.09716080129146576,
          -0.6812819242477417,
          0.257999986410141,
          0.728316605091095,
          0.1389542669057846,
          0.6882807612419128,
          -0.1495496779680252,
          -0.14875927567481995,
          -0.12917840480804443,
          -0.22121955454349518,
          0.6469789743423462,
          0.23863370716571808,
          -0.20740073919296265,
          0.6779335141181946,
          -0.20612451434135437,
          0.10968077182769775,
          -0.015380307100713253,
          0.2751506268978119,
          0.1812535971403122,
          0.16525764763355255,
          -0.19961479306221008,
          0.00605883589014411,
          -0.4289754629135132,
          -0.5068166255950928,
          -0.40974748134613037,
          -0.004005736205726862,
          0.18970467150211334,
          -0.2465636134147644,
          0.016951337456703186,
          0.13387785851955414,
          0.08852884918451309,
          -0.3885002136230469,
          0.32493048906326294,
          -0.11723858118057251,
          -0.5039631128311157,
          0.1131509318947792,
          -0.3557337522506714,
          0.3791990876197815,
          -0.08283054828643799,
          -0.18900899589061737,
          0.3643891215324402,
          0.5049222111701965,
          0.4814744293689728,
          -0.5915062427520752,
          -0.0017391142901033163,
          0.0030128571670502424,
          0.03920632600784302,
          0.4192344844341278,
          -0.026704169809818268,
          -0.21579043567180634,
          -0.26304927468299866,
          0.21270518004894257,
          -0.18801924586296082,
          0.012228124774992466,
          -0.3646409213542938,
          -0.6514740586280823,
          -0.09011614322662354,
          -0.2311144471168518,
          -0.20137172937393188,
          0.33457115292549133,
          0.6781526207923889,
          -0.4569561779499054,
          0.5220390558242798,
          0.0867614671587944,
          -0.5310726761817932,
          -0.321851909160614,
          -0.27201977372169495,
          -0.012482753023505211,
          0.26298147439956665,
          -0.06672316044569016,
          0.20883266627788544,
          0.5643097758293152,
          -0.33934861421585083,
          -0.10499636083841324,
          -0.48332443833351135,
          -0.0025222934782505035,
          -0.27259448170661926,
          -0.9028335213661194,
          0.37412214279174805,
          -0.022410007193684578,
          -0.5501894950866699,
          -0.19630855321884155,
          0.42606908082962036,
          0.3559873402118683,
          0.15485331416130066,
          0.15478633344173431,
          0.6103799939155579,
          0.05229105427861214,
          -0.15354813635349274,
          -0.5972932577133179,
          0.10714329034090042,
          0.10824320465326309,
          -0.029009860008955002,
          -0.4671933054924011,
          -0.3251335024833679,
          -0.3506367802619934,
          0.12108862400054932,
          -0.43196728825569153,
          -0.7596015930175781,
          0.4739890694618225,
          0.04956402629613876,
          -0.15380984544754028,
          -0.1794968992471695,
          -1.0621610879898071,
          -0.0923440158367157,
          -0.04568450525403023,
          0.0957854613661766,
          0.05154585465788841,
          -1.0075697898864746,
          -0.35012567043304443,
          0.2663387060165405,
          -0.2417415976524353,
          0.7085656523704529,
          0.32604992389678955,
          -0.3683750331401825,
          0.06174755468964577,
          -0.7479996681213379,
          -0.34933072328567505,
          0.7179840803146362,
          0.3458218574523926,
          -0.42130863666534424,
          0.14047695696353912,
          -0.7665323615074158,
          -0.3506174683570862,
          0.07453881204128265,
          -0.4697366952896118,
          -0.7482458353042603,
          0.10589040070772171,
          0.3073374927043915,
          -0.29881176352500916,
          0.06142866611480713,
          -0.4140036404132843,
          0.038992296904325485,
          -1.0694222450256348,
          0.053450025618076324,
          -0.3513270616531372,
          0.24664044380187988,
          -0.012883271090686321,
          0.09436866641044617,
          0.45671504735946655,
          -0.26397615671157837,
          0.05981040745973587,
          -0.08947601914405823,
          -0.2593374252319336,
          -0.9377319812774658,
          -0.826933741569519,
          0.5116930603981018,
          0.3787592351436615,
          0.1517912745475769,
          -0.48541659116744995,
          -0.714316725730896,
          0.19497354328632355,
          -0.1542682945728302,
          -0.9620062112808228,
          -0.745028018951416,
          -0.035982683300971985,
          -0.045483507215976715,
          0.2399243414402008,
          1.1827118396759033,
          -1.097066879272461,
          -0.7849507331848145,
          -0.5979111194610596,
          0.614060640335083,
          -0.45530375838279724,
          -0.4691845178604126,
          -0.3463139533996582,
          0.09483887255191803,
          0.05931800603866577,
          -0.6712238788604736,
          -0.21081717312335968,
          0.4680144488811493,
          -0.689976155757904,
          -0.22343938052654266,
          0.18954087793827057,
          0.17416474223136902,
          0.06649262458086014,
          -0.33098986744880676,
          0.3192453980445862,
          -0.0835447683930397,
          -0.5675656795501709,
          -0.46928393840789795,
          0.37856340408325195,
          0.11599835008382797,
          -0.16458860039710999,
          -0.7827720642089844,
          0.42755773663520813,
          0.0424698181450367,
          0.6415608525276184,
          -0.5598089694976807,
          0.5573941469192505,
          -0.6973525881767273,
          -0.22809478640556335,
          0.28638359904289246,
          -0.1025499776005745,
          0.3009529411792755,
          -0.24094842374324799,
          -0.21197208762168884,
          0.028415624052286148,
          0.4068543016910553,
          -0.0755106583237648,
          -0.2890487015247345,
          -0.052264682948589325,
          0.13525748252868652,
          0.362458735704422,
          0.5375723242759705,
          0.05743600055575371,
          -0.43131783604621887
        ]
      },
      "forgetBias": {
        "rows": 20,
        "columns": 1,
        "weights": [
          0,
          0,
          0,
          0,
          0,
          0,
          0,
          0,
          0,
          0,
          0,
          0,
          0,
          0,
          0,
          0,
          0,
          0,
          0,
          0
        ]
      },
      "outputMatrix": {
        "rows": 20,
        "columns": 26,
        "weights": [
          -0.17574535310268402,
          0.3276386559009552,
          0.5029624700546265,
          0.07613078504800797,
          0.17476852238178253,
          -0.028427695855498314,
          0.5517385601997375,
          -0.20120841264724731,
          -0.1753033548593521,
          -0.46393096446990967,
          0.4433828294277191,
          0.5393174886703491,
          0.5576068162918091,
          -0.06713337451219559,
          -0.3434112071990967,
          -0.6862408518791199,
          -0.07809803634881973,
          0.1733551174402237,
          -0.189562126994133,
          0.016974199563264847,
          -0.043196067214012146,
          -0.006318475119769573,
          -0.26484453678131104,
          -0.2938225567340851,
          -0.20359942317008972,
          -0.039130862802267075,
          0.8495981097221375,
          0.09267768263816833,
          -0.23736944794654846,
          0.2642662525177002,
          0.05707159265875816,
          0.4135105311870575,
          0.4744754731655121,
          0.02518710121512413,
          0.3662748336791992,
          -0.35069751739501953,
          0.37581706047058105,
          0.4432876706123352,
          0.34418055415153503,
          -0.48852285742759705,
          0.3878726065158844,
          0.15372012555599213,
          -0.5086351633071899,
          0.17750777304172516,
          0.2987237870693207,
          0.0038490514270961285,
          0.5423546433448792,
          -0.26006415486335754,
          -0.27279600501060486,
          -0.12793655693531036,
          -0.3241509199142456,
          -0.12556113302707672,
          -0.3149535655975342,
          -0.26615840196609497,
          0.041349247097969055,
          -0.19666200876235962,
          0.4711087942123413,
          -0.21933487057685852,
          -0.07536344230175018,
          0.24914701282978058,
          -0.12104547023773193,
          0.1959729939699173,
          -0.3363281488418579,
          -0.008248881436884403,
          -0.49925196170806885,
          -0.19515599310398102,
          -0.012601339258253574,
          -0.04786638170480728,
          0.11481501907110214,
          -0.10211222618818283,
          0.12707480788230896,
          -0.6069643497467041,
          0.2252577841281891,
          0.1928110122680664,
          0.14078886806964874,
          -0.26775676012039185,
          -0.12628662586212158,
          0.4435234069824219,
          -0.21572747826576233,
          -0.22928723692893982,
          -0.05816991627216339,
          -0.39649641513824463,
          0.3312028646469116,
          -0.5004270672798157,
          -0.3762100040912628,
          0.8408690094947815,
          -0.34261009097099304,
          -0.5037673115730286,
          0.08578139543533325,
          0.30739134550094604,
          0.03398489952087402,
          -0.1233418881893158,
          0.026607265695929527,
          -0.1960238367319107,
          0.21668505668640137,
          0.5743069648742676,
          0.4915207326412201,
          -0.22861161828041077,
          -0.2767748534679413,
          0.27839332818984985,
          0.23011748492717743,
          -0.21773047745227814,
          -0.2507600784301758,
          -0.03883707895874977,
          0.8065147995948792,
          -0.27001410722732544,
          0.4662826657295227,
          0.07988978922367096,
          0.1499611884355545,
          -0.10800515115261078,
          0.04684629291296005,
          0.13917630910873413,
          0.09153696894645691,
          -0.6269643902778625,
          0.0851781889796257,
          0.023029714822769165,
          0.4069814682006836,
          -0.9921593070030212,
          0.26428571343421936,
          0.08597486466169357,
          -0.12588554620742798,
          0.5084756016731262,
          0.04149874299764633,
          -0.10759274661540985,
          0.1754954606294632,
          -0.0026799440383911133,
          0.2093600630760193,
          0.11251305788755417,
          -0.9596590399742126,
          -0.05492895096540451,
          0.07250875234603882,
          0.37457776069641113,
          -0.04990752413868904,
          -0.20394515991210938,
          0.6375475525856018,
          0.34257903695106506,
          0.4125087559223175,
          -0.04822587966918945,
          0.025749552994966507,
          0.05765356868505478,
          0.22181685268878937,
          0.21058054268360138,
          0.42015448212623596,
          -0.4548143744468689,
          -0.4819446802139282,
          0.6104114651679993,
          0.06433888524770737,
          -0.23157161474227905,
          -0.1687217354774475,
          -0.4653008282184601,
          -0.36768102645874023,
          -0.017782095819711685,
          0.14253662526607513,
          -0.4065510034561157,
          0.11758996546268463,
          0.09451870620250702,
          0.47221240401268005,
          -0.03002096153795719,
          -0.5067254900932312,
          -0.28642380237579346,
          0.3673066198825836,
          -0.06830862909555435,
          0.05530000478029251,
          -0.4067210555076599,
          -0.4224954843521118,
          -0.1061520129442215,
          -0.0762152224779129,
          0.3484804034233093,
          0.23687800765037537,
          -0.06405574083328247,
          0.05553080514073372,
          -0.6768711805343628,
          -0.7945719361305237,
          -0.30704525113105774,
          -0.21344785392284393,
          -0.0797092616558075,
          -0.5570130348205566,
          -0.5314856767654419,
          -0.11608971655368805,
          -0.4260154068470001,
          0.06224987283349037,
          -0.07229039072990417,
          0.32078996300697327,
          0.6198339462280273,
          -0.03671279177069664,
          -0.21129253506660461,
          0.3294735550880432,
          0.1556457281112671,
          0.835936963558197,
          0.14765454828739166,
          0.23335745930671692,
          -0.22651205956935883,
          0.3764010965824127,
          0.035802703350782394,
          0.23588675260543823,
          -0.3257581889629364,
          -0.1543942391872406,
          -0.14373071491718292,
          0.08045349270105362,
          -0.13731424510478973,
          -0.10483885556459427,
          -0.0006081260507926345,
          -0.6470724940299988,
          -0.29714706540107727,
          0.12085545808076859,
          0.053304240107536316,
          -0.11698298901319504,
          -0.0866650640964508,
          0.20285136997699738,
          -0.2763947546482086,
          0.3828476667404175,
          0.304590106010437,
          -0.14264065027236938,
          -0.34963473677635193,
          0.1912672072649002,
          0.05778108909726143,
          -0.11737760901451111,
          -0.5809804797172546,
          0.05289718136191368,
          0.6208827495574951,
          0.5058121085166931,
          -0.1914810687303543,
          0.9041195511817932,
          0.10326246917247772,
          0.003745370777323842,
          0.08242574334144592,
          -0.3538077175617218,
          0.22328300774097443,
          -0.12496431916952133,
          -0.02933325245976448,
          -0.15384717285633087,
          -0.5108778476715088,
          -0.031677767634391785,
          -0.13876360654830933,
          -0.06681954115629196,
          0.8690637946128845,
          -0.6107221245765686,
          -0.274893581867218,
          0.5363034009933472,
          0.40495532751083374,
          0.03131459653377533,
          -0.08811840415000916,
          -0.5157381892204285,
          -0.06427665054798126,
          0.6204033493995667,
          0.0356888584792614,
          0.49600645899772644,
          -0.04487016797065735,
          -0.5017827153205872,
          -0.5834713578224182,
          -0.352857381105423,
          0.27053385972976685,
          0.24857142567634583,
          0.023310186341404915,
          0.37194955348968506,
          -0.09938864409923553,
          -0.36633241176605225,
          -0.13209767639636993,
          -0.45968523621559143,
          -0.2506070137023926,
          0.051004406064748764,
          0.042900849133729935,
          -0.21952547132968903,
          0.49047407507896423,
          0.04850045219063759,
          -0.3292641341686249,
          -0.08444681018590927,
          0.013872207142412663,
          -0.15653400123119354,
          -0.12952403724193573,
          0.40581589937210083,
          0.13125623762607574,
          0.434238076210022,
          -0.39842262864112854,
          0.07160311937332153,
          0.6160805225372314,
          -0.3227261006832123,
          -0.3672640025615692,
          -0.21123608946800232,
          -0.2264925241470337,
          -0.430666983127594,
          -0.9431909322738647,
          0.2617177665233612,
          -0.10680469125509262,
          0.21814598143100739,
          -0.09024115651845932,
          0.09765897691249847,
          -0.017268437892198563,
          -0.4413837790489197,
          0.04240794479846954,
          0.029458951205015182,
          -0.16351403295993805,
          0.31525588035583496,
          0.3645000457763672,
          0.38200604915618896,
          -0.23866930603981018,
          0.07651308923959732,
          -0.011192401871085167,
          -0.0793646052479744,
          -0.12447842210531235,
          0.6339262127876282,
          0.43874672055244446,
          -0.47254353761672974,
          -0.5595099925994873,
          0.2717733383178711,
          -0.7431297898292542,
          -0.034367695450782776,
          -0.36114802956581116,
          -0.09512481838464737,
          -0.3977651596069336,
          -0.031384557485580444,
          0.4463875889778137,
          -0.13286767899990082,
          0.24396944046020508,
          0.24850760400295258,
          0.059967041015625,
          0.5776888132095337,
          -0.09692725539207458,
          0.10387233644723892,
          -0.13930222392082214,
          -0.29957762360572815,
          -0.2903120815753937,
          0.6549019813537598,
          0.23679061233997345,
          0.3886381983757019,
          -0.05288344994187355,
          -0.03622439503669739,
          -1.0036274194717407,
          -0.16952623426914215,
          -0.18271155655384064,
          -0.18682105839252472,
          -0.2339337170124054,
          -0.1353198140859604,
          0.005408447235822678,
          -0.2956441342830658,
          0.11485127359628677,
          -0.19752968847751617,
          -0.09913736581802368,
          0.1968008428812027,
          -0.28615602850914,
          0.5086830258369446,
          0.2771029472351074,
          0.7453826665878296,
          -0.14719942212104797,
          0.30739855766296387,
          0.5278583765029907,
          -0.2611158788204193,
          -0.04316646605730057,
          -0.024861454963684082,
          0.5381839871406555,
          0.017889507114887238,
          -0.24329160153865814,
          0.23598530888557434,
          0.19760143756866455,
          -0.9112141728401184,
          -0.3483102321624756,
          0.09890718758106232,
          -1.0216755867004395,
          0.09975241124629974,
          -0.24695511162281036,
          0.13478948175907135,
          -0.456098347902298,
          -0.40388521552085876,
          0.31035178899765015,
          0.5905906558036804,
          0.5126965045928955,
          0.008002573624253273,
          -0.5707299113273621,
          0.022541102021932602,
          0.3082519471645355,
          -0.0961649939417839,
          -0.047727517783641815,
          0.05791868641972542,
          0.5303793549537659,
          -0.2599899470806122,
          0.40256446599960327,
          0.033987678587436676,
          -0.19151772558689117,
          -0.7304182648658752,
          -0.0013429522514343262,
          0.5355441570281982,
          -0.0762074813246727,
          -0.37644678354263306,
          -0.011861631646752357,
          -0.5637331008911133,
          -0.17853176593780518,
          -0.41958391666412354,
          0.02534840814769268,
          0.35407572984695435,
          0.1915939450263977,
          0.2995111346244812,
          -0.17105157673358917,
          0.42354047298431396,
          0.10133886337280273,
          0.5916615128517151,
          -0.5112786889076233,
          0.3493379056453705,
          0.058418046683073044,
          0.04003104567527771,
          -0.45937594771385193,
          0.20700982213020325,
          0.4400957226753235,
          -0.10876883566379547,
          -0.2978508174419403,
          0.16774317622184753,
          -0.42692428827285767,
          -0.6134318113327026,
          -0.11526929587125778,
          -0.04681306332349777,
          0.4050460159778595,
          -0.2662024199962616,
          -0.3709504306316376,
          -0.002241060370579362,
          0.17922909557819366,
          -0.25581228733062744,
          0.2804546058177948,
          -0.11101602762937546,
          0.08735357224941254,
          -0.13015230000019073,
          0.4372704327106476,
          -0.11438164860010147,
          0.01733163744211197,
          -0.20465528964996338,
          0.279568612575531,
          0.024324771016836166,
          -0.2862671911716461,
          0.19101794064044952,
          0.1127593070268631,
          0.49802976846694946,
          -0.45023617148399353,
          0.6331719756126404,
          0.4560811519622803,
          -0.32871362566947937,
          -0.13280817866325378,
          -0.08149370551109314,
          0.1552417129278183,
          -0.09167692065238953,
          -0.09533917903900146,
          0.030128546059131622,
          0.10078248381614685,
          0.1719353199005127,
          0.03775849938392639,
          0.3858013153076172,
          0.17913177609443665,
          0.42321842908859253,
          -0.5295373797416687,
          0.2960489094257355,
          -0.08915818482637405,
          -0.33227866888046265,
          0.42310723662376404,
          0.09317798912525177,
          -0.2805865406990051,
          -0.2299300730228424,
          0.48451870679855347,
          0.2273482233285904,
          -0.5540642142295837,
          -0.037231408059597015,
          -0.4078764021396637,
          0.18253445625305176,
          0.14189834892749786,
          0.18686456978321075,
          -0.01844419725239277,
          -0.2982543408870697,
          0.06615637242794037,
          -0.1660548895597458,
          -0.17929814755916595,
          -0.07261397689580917,
          0.07643596827983856,
          0.01974579505622387,
          -0.10973150283098221,
          -0.23047944903373718,
          -0.17992159724235535,
          0.1990257054567337,
          -0.1899343580007553,
          0.35590487718582153,
          -0.2906043529510498,
          -0.46855270862579346,
          -0.09567002207040787,
          -0.1651160567998886,
          0.5659963488578796,
          0.272337406873703,
          0.12240753322839737,
          0.143901988863945,
          -0.5234065651893616,
          -0.12629860639572144,
          -0.032282765954732895,
          0.13909737765789032,
          0.20565280318260193,
          -0.12192392349243164,
          -0.20155388116836548,
          -0.05520012602210045,
          -0.7096459865570068,
          0.28642842173576355,
          0.09510628134012222,
          0.018391035497188568,
          -0.0627191960811615,
          -0.1328096240758896,
          -0.4735548496246338,
          0.5718094110488892,
          -0.27242428064346313,
          -0.14705583453178406,
          0.40569260716438293,
          -0.5680642127990723,
          0.2992597222328186,
          0.08066265285015106,
          -0.10848578065633774,
          0.01819571480154991,
          0.10776423662900925,
          -0.24967296421527863,
          -0.20292562246322632,
          0.48961731791496277,
          0.42098483443260193,
          0.3458244502544403,
          0.08785135298967361,
          -0.34648042917251587,
          -0.17506426572799683,
          0.32414567470550537,
          -0.5290799736976624,
          0.14486902952194214,
          0.8016993403434753
        ]
      },
      "outputHidden": {
        "rows": 20,
        "columns": 20,
        "weights": [
          0.7072733640670776,
          -0.3966483473777771,
          -0.4662742018699646,
          -0.2708895206451416,
          0.1485467255115509,
          -0.8745829463005066,
          -0.2987818121910095,
          -0.24629999697208405,
          -0.42322367429733276,
          -0.33504217863082886,
          0.7255629301071167,
          -0.24894680082798004,
          0.43953952193260193,
          0.127163365483284,
          0.7209345102310181,
          -0.6829072833061218,
          1.1082024574279785,
          0.153309628367424,
          0.5802916884422302,
          -0.014633577316999435,
          -0.09630540758371353,
          -0.3280665874481201,
          -0.028831399977207184,
          -0.5717169642448425,
          -0.06548116356134415,
          0.7109081745147705,
          -0.11675345152616501,
          -1.0832874774932861,
          -0.5425141453742981,
          -1.2112001180648804,
          -0.00649438938125968,
          -0.25920578837394714,
          -0.2199021428823471,
          -0.9085168242454529,
          0.5763389468193054,
          -0.31121620535850525,
          -0.11581332981586456,
          0.1077076718211174,
          0.054628901183605194,
          -0.7747995853424072,
          -0.18963870406150818,
          -0.6292502880096436,
          -0.14906670153141022,
          -0.17747178673744202,
          0.23433372378349304,
          0.23279187083244324,
          0.7218794822692871,
          -0.12732352316379547,
          0.711345911026001,
          -1.1382920742034912,
          0.4927237331867218,
          0.03240227699279785,
          -0.1497393399477005,
          0.3656689524650574,
          0.8979706764221191,
          -1.3213506937026978,
          0.10311152786016464,
          -0.700985312461853,
          0.8690978288650513,
          -0.18454407155513763,
          0.08483350276947021,
          -0.23439617455005646,
          -1.7478221654891968,
          -0.4354526400566101,
          -1.2205207347869873,
          -0.1463223397731781,
          0.33005738258361816,
          -0.17579610645771027,
          -2.1800172328948975,
          -0.2235291749238968,
          -0.2404996007680893,
          -0.17367048561573029,
          0.6904387474060059,
          -0.4865792393684387,
          0.07480674982070923,
          -0.23951931297779083,
          0.6418861150741577,
          -0.9369259476661682,
          -0.47563251852989197,
          0.01946449652314186,
          0.6990056037902832,
          -0.6074612140655518,
          0.1314927190542221,
          0.7163327932357788,
          0.5365130305290222,
          -1.3791214227676392,
          -0.21137318015098572,
          -1.1926988363265991,
          -1.1997328996658325,
          -0.3314678370952606,
          -0.17811469733715057,
          -0.21267473697662354,
          0.9114123582839966,
          -0.7826652526855469,
          0.6598225831985474,
          -0.5171144008636475,
          1.0894360542297363,
          -0.18656712770462036,
          0.6311463117599487,
          -0.2671721279621124,
          -0.22385764122009277,
          -0.6560590267181396,
          -0.5132853388786316,
          0.17102062702178955,
          0.20074060559272766,
          -0.4566444456577301,
          0.15180720388889313,
          -0.3013068437576294,
          0.35826200246810913,
          0.20643866062164307,
          0.25806525349617004,
          0.3367534577846527,
          -0.32240167260169983,
          -0.43700236082077026,
          -0.028425689786672592,
          -1.271701693534851,
          -0.9223988652229309,
          -0.6168832778930664,
          -0.08817325532436371,
          0.02316199615597725,
          0.40219536423683167,
          0.06136162579059601,
          0.4422203004360199,
          -0.9523904919624329,
          -0.03623107820749283,
          -0.27837106585502625,
          0.5951330661773682,
          -0.6378059387207031,
          -0.44597315788269043,
          0.0048958249390125275,
          0.6776325702667236,
          -0.35263946652412415,
          0.5769190192222595,
          -0.169540673494339,
          -0.2896447479724884,
          -1.211346983909607,
          0.2834024429321289,
          -0.5090171694755554,
          0.23539762198925018,
          -0.3121877908706665,
          0.3212711215019226,
          -1.3430557250976562,
          0.27125024795532227,
          -0.060277339071035385,
          0.6095515489578247,
          0.028347942978143692,
          -0.7368173599243164,
          -0.1578340232372284,
          -0.1985015720129013,
          -1.2333712577819824,
          -0.8020555377006531,
          -0.9939709305763245,
          0.4138716161251068,
          -0.2721861004829407,
          0.6149832606315613,
          -0.5362234115600586,
          0.12188706547021866,
          0.10521049052476883,
          0.7043370008468628,
          -0.556682825088501,
          0.3141532242298126,
          -0.23969978094100952,
          -1.0597755908966064,
          -0.2118626832962036,
          0.1187731921672821,
          -0.37490400671958923,
          -0.3019556403160095,
          -1.785330057144165,
          -0.6326165795326233,
          -0.6786947846412659,
          0.4592476487159729,
          -0.08917375653982162,
          0.33626726269721985,
          0.06652971357107162,
          0.07358856499195099,
          -1.159865140914917,
          0.014578651636838913,
          -0.12795032560825348,
          0.3697289228439331,
          -1.1339659690856934,
          0.3129546344280243,
          -0.6507515907287598,
          -0.4348490536212921,
          0.07785025238990784,
          0.1497972309589386,
          -0.27263152599334717,
          -0.18219615519046783,
          -1.10122811794281,
          -0.7586029171943665,
          -0.36276936531066895,
          0.48578259348869324,
          0.5590729713439941,
          0.11011878401041031,
          -1.1764169931411743,
          -0.025157926604151726,
          -0.1402510702610016,
          0.8388950228691101,
          0.0727495476603508,
          0.1237308457493782,
          -0.4201062023639679,
          0.11279057711362839,
          -0.4325929880142212,
          -1.29688560962677,
          -0.593562126159668,
          -1.5824986696243286,
          -0.6066276431083679,
          -0.03969545289874077,
          -0.3672793507575989,
          0.07102957367897034,
          0.08840915560722351,
          0.14229416847229004,
          -0.9508163332939148,
          -0.784879744052887,
          -1.0728405714035034,
          0.5742176175117493,
          0.27507448196411133,
          -0.008997231721878052,
          0.06273984163999557,
          0.6221997141838074,
          -0.636200487613678,
          0.34443891048431396,
          -0.8071675300598145,
          0.24153496325016022,
          0.5117676854133606,
          -0.1939418911933899,
          -0.42401790618896484,
          -0.4566744863986969,
          -0.9460917711257935,
          0.002668301574885845,
          -0.06590282917022705,
          0.6980317831039429,
          -0.38034215569496155,
          1.0459104776382446,
          -1.0486563444137573,
          1.1685665845870972,
          -0.028054283931851387,
          1.0208877325057983,
          -0.7225521802902222,
          -0.00025136012118309736,
          -0.9343788623809814,
          0.6881297826766968,
          -0.35825344920158386,
          -1.948573112487793,
          -0.32495760917663574,
          0.00884267594665289,
          -0.023219017311930656,
          0.5365216732025146,
          -1.0118857622146606,
          0.17859086394309998,
          -0.09105899930000305,
          0.4449489712715149,
          -0.19832941889762878,
          -0.2443791925907135,
          -0.48482951521873474,
          0.08462021499872208,
          -1.0768847465515137,
          -1.0457767248153687,
          0.35172656178474426,
          0.19605496525764465,
          -0.5466564893722534,
          -0.33131176233291626,
          0.16651606559753418,
          -0.02298944629728794,
          -0.17377348244190216,
          0.014474338851869106,
          -1.1393791437149048,
          0.1882718801498413,
          -0.1716809719800949,
          0.08304209262132645,
          0.36560705304145813,
          -0.2047988325357437,
          -0.7870770692825317,
          0.9631178975105286,
          0.26370638608932495,
          0.1337728500366211,
          -1.0754601955413818,
          0.7201917767524719,
          -0.18532536923885345,
          0.29001083970069885,
          -0.5839610695838928,
          -0.013685569167137146,
          -0.8337421417236328,
          -0.993502140045166,
          0.4132205545902252,
          0.5405758023262024,
          -0.630524218082428,
          0.5700443983078003,
          -0.5605251789093018,
          0.5119661688804626,
          -0.1663564294576645,
          -0.09358133375644684,
          0.44229570031166077,
          0.6160278916358948,
          -0.6746575236320496,
          0.7503346800804138,
          0.26964879035949707,
          -0.5128798484802246,
          0.3816862404346466,
          0.42008501291275024,
          0.026439739391207695,
          0.07566064596176147,
          -0.15988466143608093,
          0.3065759837627411,
          0.42141062021255493,
          -0.6624329090118408,
          -0.3186603784561157,
          -0.3592863082885742,
          -1.2482153177261353,
          -0.21738865971565247,
          -0.1627577841281891,
          -0.021704142913222313,
          0.9950385093688965,
          0.17777925729751587,
          -0.7238540053367615,
          1.2227518558502197,
          -0.5952556729316711,
          0.4418177902698517,
          -0.11343938112258911,
          0.24771054089069366,
          -0.47023630142211914,
          -0.1622430384159088,
          -0.535628080368042,
          -0.3170606195926666,
          0.10215508937835693,
          0.06450717896223068,
          0.19032354652881622,
          -0.15574628114700317,
          -1.7536208629608154,
          -1.180469274520874,
          -0.4153532087802887,
          0.20713692903518677,
          0.7891930341720581,
          0.36179131269454956,
          -0.5296719074249268,
          0.8602991104125977,
          0.3670615255832672,
          0.23255638778209686,
          -0.7448247671127319,
          -0.28525310754776,
          -1.3430556058883667,
          0.2552909553050995,
          -0.8662546873092651,
          -0.7129871249198914,
          -0.6793461441993713,
          -0.22705470025539398,
          -0.03327161818742752,
          -0.12588177621364594,
          -0.5905998349189758,
          -1.126401662826538,
          -0.7018143534660339,
          -0.3646160662174225,
          0.10840894281864166,
          0.35396406054496765,
          0.041033703833818436,
          -0.7011634111404419,
          0.05060787871479988,
          0.2911158502101898,
          -0.1947818547487259,
          -0.27126291394233704,
          -0.4436797797679901,
          -0.14036986231803894,
          -1.2899863719940186,
          -0.24047382175922394,
          -0.24203179776668549,
          0.013439439237117767,
          -0.0685044601559639,
          0.3943392336368561,
          -1.1437971591949463,
          -0.060209970921278,
          -1.0894675254821777,
          0.6626714468002319,
          -0.29051560163497925,
          -0.05783749371767044,
          0.3582909107208252,
          0.053897399455308914,
          -0.5756205320358276,
          0.47327524423599243,
          0.4419935345649719,
          0.7304491996765137,
          -0.7133604288101196,
          0.09074743092060089,
          -0.5063085556030273,
          -0.4338412880897522,
          -0.05944843962788582,
          -0.07076724618673325,
          0.10918425768613815,
          0.3846234977245331,
          0.1022523045539856,
          -0.1870698779821396,
          -0.7967042922973633,
          -0.17993538081645966,
          -0.17440398037433624,
          0.2084767073392868,
          -0.8941952586174011,
          0.9161721467971802,
          -0.6523755192756653,
          -0.2567126154899597,
          -0.9941298365592957,
          0.011657379567623138,
          -0.5431278944015503
        ]
      },
      "outputBias": {
        "rows": 20,
        "columns": 1,
        "weights": [
          0.5107762217521667,
          -0.1327749490737915,
          -0.3901716470718384,
          0.835212230682373,
          0.21171873807907104,
          0.6564169526100159,
          0.1314011514186859,
          -0.14288467168807983,
          0.671581506729126,
          -0.07255963981151581,
          1.0994330644607544,
          0.24042484164237976,
          1.0585416555404663,
          1.072500228881836,
          0.7654592394828796,
          0.5477451682090759,
          0.19946901500225067,
          0.30901414155960083,
          0.8574889302253723,
          0.5039963126182556
        ]
      },
      "cellActivationMatrix": {
        "rows": 20,
        "columns": 26,
        "weights": [
          0.12150730937719345,
          0.19360493123531342,
          -0.01742739789187908,
          -0.13627541065216064,
          0.18164408206939697,
          0.19821201264858246,
          -0.03439894691109657,
          -0.0773857980966568,
          0.24191492795944214,
          -0.06490321457386017,
          -0.06603465974330902,
          0.30182579159736633,
          -0.11743266135454178,
          -0.38701072335243225,
          -0.029546614736318588,
          0.10572319477796555,
          -0.12604382634162903,
          0.194817915558815,
          -0.02941439300775528,
          -0.12494289875030518,
          -0.07649848610162735,
          -0.4808056354522705,
          -0.3311302661895752,
          -0.2821677625179291,
          0.18679752945899963,
          0.04957946389913559,
          -0.47791239619255066,
          -0.12398269772529602,
          0.408817857503891,
          0.1978999525308609,
          0.16807706654071808,
          -0.5400882959365845,
          -0.23153568804264069,
          0.1907845288515091,
          -0.4002377986907959,
          0.3043406903743744,
          0.2999565601348877,
          0.5591008067131042,
          -0.36779800057411194,
          0.22998927533626556,
          -0.14556486904621124,
          -0.05114881321787834,
          -0.2679345905780792,
          -0.7494493126869202,
          -0.09878833591938019,
          0.38415399193763733,
          -0.053462691605091095,
          0.14724047482013702,
          0.11710822582244873,
          0.18714766204357147,
          0.13956443965435028,
          -0.013286220841109753,
          0.3354801535606384,
          0.10490504652261734,
          0.2740379869937897,
          -0.3479767441749573,
          0.14336422085762024,
          0.08304473012685776,
          -0.03236483037471771,
          -0.048185672610998154,
          0.04872630909085274,
          -0.01821121945977211,
          0.2678445279598236,
          0.07526081800460815,
          -0.09091667085886002,
          0.04763711616396904,
          0.3623831570148468,
          0.23561885952949524,
          -0.3049622178077698,
          0.23306846618652344,
          0.07113467156887054,
          -0.4263380765914917,
          0.01876787096261978,
          -0.2444545030593872,
          -0.01881195791065693,
          0.056286122649908066,
          0.17698797583580017,
          0.34315863251686096,
          0.26631149649620056,
          -0.21675032377243042,
          0.00870032049715519,
          0.05956833064556122,
          -0.6409342288970947,
          -0.5116409063339233,
          0.9549566507339478,
          -0.058578766882419586,
          0.08246374875307083,
          -0.21582938730716705,
          -0.0675303116440773,
          0.47451072931289673,
          0.25293028354644775,
          -0.14724574983119965,
          -0.1872154325246811,
          0.22708339989185333,
          0.14636290073394775,
          0.13049562275409698,
          -0.21073290705680847,
          0.2924063801765442,
          0.21844179928302765,
          0.18175867199897766,
          0.3334544599056244,
          -0.27780038118362427,
          0.038989871740341187,
          -0.020894382148981094,
          0.012215476483106613,
          0.28321826457977295,
          -0.08031925559043884,
          -0.16282284259796143,
          0.5832281708717346,
          0.01602006144821644,
          -0.006329526659101248,
          -0.08395878970623016,
          -0.1642952710390091,
          0.00283840112388134,
          0.09301789849996567,
          -0.15640711784362793,
          -0.049786534160375595,
          -0.4547554850578308,
          -0.260699599981308,
          -0.012344119139015675,
          -0.07186882197856903,
          -0.073709636926651,
          -0.13562478125095367,
          0.27761244773864746,
          -0.006735504604876041,
          -0.16618676483631134,
          -0.07339676469564438,
          0.002263131318613887,
          0.3153785467147827,
          0.25456473231315613,
          0.02343735843896866,
          0.10959899425506592,
          0.42289093136787415,
          -0.03139824792742729,
          -0.30098140239715576,
          -0.269471138715744,
          -0.04503563791513443,
          -0.23167331516742706,
          -0.19044238328933716,
          0.1294388771057129,
          0.004551176447421312,
          0.18765096366405487,
          0.11246801912784576,
          0.40540099143981934,
          0.3232347071170807,
          0.08583969622850418,
          -0.007112768013030291,
          -0.35241034626960754,
          -0.2162294089794159,
          -0.14445240795612335,
          0.5608563423156738,
          0.3673979640007019,
          0.02037324383854866,
          0.48019930720329285,
          -0.20331263542175293,
          0.2495109736919403,
          0.26029056310653687,
          -0.1567598581314087,
          0.2345145344734192,
          -0.138594388961792,
          -0.03996532782912254,
          -0.08845363557338715,
          -0.211566761136055,
          0.3155699074268341,
          0.039686594158411026,
          -0.37975895404815674,
          -0.05587230622768402,
          -0.1475459188222885,
          -0.11626576632261276,
          -0.19038711488246918,
          0.23038499057292938,
          -0.19910107553005219,
          0.21097391843795776,
          0.19964911043643951,
          0.05298294499516487,
          0.0019984436221420765,
          -0.3437838554382324,
          -0.16409124433994293,
          0.0425538644194603,
          0.10333772748708725,
          -0.21454931795597076,
          0.4970458745956421,
          -0.193079873919487,
          -0.2812230885028839,
          -0.401039183139801,
          0.18660663068294525,
          0.07574954628944397,
          0.061926692724227905,
          0.0742373988032341,
          0.3414488434791565,
          0.212620809674263,
          -0.18090470135211945,
          0.1268007755279541,
          0.09411370009183884,
          -0.02822301536798477,
          -0.3972399830818176,
          0.4445083737373352,
          0.006142450962215662,
          0.476290225982666,
          0.3363473117351532,
          0.35297614336013794,
          -0.28297266364097595,
          -0.006223009899258614,
          -0.09045001864433289,
          0.15517449378967285,
          -0.22759419679641724,
          0.10850360989570618,
          -0.0041763014160096645,
          -0.3922809064388275,
          -0.06409309804439545,
          0.1865890920162201,
          0.19204354286193848,
          -0.06555425375699997,
          -0.2615184187889099,
          0.31238535046577454,
          0.10816211253404617,
          -0.1877649575471878,
          -0.0662418082356453,
          0.08613159507513046,
          -0.20509974658489227,
          0.19052112102508545,
          -0.20245066285133362,
          0.36677783727645874,
          -0.1957472562789917,
          0.20723265409469604,
          0.28533056378364563,
          -0.033473093062639236,
          0.00875848438590765,
          0.2559005320072174,
          0.4971058666706085,
          0.08673899620771408,
          -0.1288442313671112,
          -0.0366814024746418,
          0.28698021173477173,
          -0.05373700335621834,
          0.07437039911746979,
          -0.07017448544502258,
          -0.4847668409347534,
          -0.014277774840593338,
          0.20072180032730103,
          0.0381050705909729,
          -0.31398066878318787,
          0.22523616254329681,
          0.07545656710863113,
          -0.12304781377315521,
          -0.3734342157840729,
          -0.09401006996631622,
          0.10645677149295807,
          0.07466840744018555,
          -0.1926899254322052,
          0.007192485500127077,
          -0.13649307191371918,
          -0.34305742383003235,
          0.1037915050983429,
          0.13468942046165466,
          -0.228159099817276,
          -0.19836872816085815,
          0.18717309832572937,
          -0.09339532256126404,
          0.07749693095684052,
          -0.008364403620362282,
          -0.06337660551071167,
          0.33698946237564087,
          -0.13058336079120636,
          0.07187166064977646,
          -0.06210140138864517,
          0.3868158161640167,
          -0.3885381519794464,
          -0.4569781720638275,
          0.09338822215795517,
          0.17495271563529968,
          -0.05566072836518288,
          0.307239830493927,
          -0.2243591845035553,
          -0.33452358841896057,
          0.15851478278636932,
          -0.24030712246894836,
          -0.00784883089363575,
          -0.210114523768425,
          -0.14998897910118103,
          -0.2706332206726074,
          -0.1961389183998108,
          -0.10989804565906525,
          -0.28735876083374023,
          -0.18902596831321716,
          0.647249698638916,
          -0.35719621181488037,
          0.11187658458948135,
          -0.247369185090065,
          0.048402249813079834,
          0.2750009298324585,
          0.2736886143684387,
          -0.038339413702487946,
          0.10541599243879318,
          -0.41126981377601624,
          0.22667939960956573,
          -0.016421055421233177,
          -0.3995601534843445,
          0.4362141191959381,
          -0.10396910458803177,
          -0.2611689269542694,
          -0.5245946645736694,
          0.13923786580562592,
          0.674413800239563,
          0.3136765956878662,
          0.10193462669849396,
          -0.20460493862628937,
          0.544586181640625,
          0.23387274146080017,
          0.13246412575244904,
          -0.18070828914642334,
          0.011736394837498665,
          -0.1665315479040146,
          -0.06589516997337341,
          0.05439961701631546,
          0.3731899857521057,
          0.12056218087673187,
          -0.29953426122665405,
          0.15848679840564728,
          0.09865088760852814,
          0.1377955824136734,
          -0.061985116451978683,
          -0.3543637990951538,
          0.1809014528989792,
          -0.3015007972717285,
          0.43813204765319824,
          0.1928219497203827,
          0.1722041368484497,
          0.02315601520240307,
          0.14582546055316925,
          0.1689167469739914,
          0.18998251855373383,
          0.6048532724380493,
          0.3232758045196533,
          -0.264893114566803,
          0.04455132782459259,
          0.024818874895572662,
          -0.3888057768344879,
          0.06824561953544617,
          -0.1915680319070816,
          -0.2573936879634857,
          0.11410888284444809,
          0.28614097833633423,
          -0.08765143156051636,
          0.31628620624542236,
          0.004774435888975859,
          0.008111312985420227,
          0.2734558582305908,
          0.20563790202140808,
          -0.12330672889947891,
          -0.15528662502765656,
          -0.7505250573158264,
          0.0118295568972826,
          -0.26530224084854126,
          0.4262893795967102,
          0.33515483140945435,
          0.23137150704860687,
          -0.02936241216957569,
          0.20773327350616455,
          0.19785621762275696,
          0.049340881407260895,
          -0.3227078914642334,
          0.2824695110321045,
          0.321319580078125,
          -0.15847153961658478,
          -0.06234525889158249,
          -0.14324446022510529,
          -0.35099858045578003,
          -0.04578586667776108,
          0.38440752029418945,
          -0.2687857747077942,
          0.18802475929260254,
          0.7750419974327087,
          -0.21564331650733948,
          -0.21410487592220306,
          -0.18135222792625427,
          -0.12552198767662048,
          0.09063325077295303,
          0.653538167476654,
          0.08396514505147934,
          0.13617108762264252,
          0.14454326033592224,
          0.3273521065711975,
          -0.36062437295913696,
          0.1451129913330078,
          -0.210538849234581,
          -0.35511302947998047,
          0.4308219254016876,
          -0.10856632143259048,
          -0.32483798265457153,
          -0.023933045566082,
          -0.134719118475914,
          -0.05129610374569893,
          -0.3910774290561676,
          -0.01287537906318903,
          0.5091479420661926,
          0.19037814438343048,
          -0.2795356512069702,
          0.0010630543110892177,
          0.13078416883945465,
          -0.26588675379753113,
          -0.1754651814699173,
          0.039352815598249435,
          0.21774336695671082,
          0.1686437577009201,
          0.09119374305009842,
          -0.051357023417949677,
          0.03671049699187279,
          0.09515246748924255,
          -0.0964682325720787,
          0.06256844103336334,
          -0.04107670485973358,
          -0.26204046607017517,
          -0.11609413474798203,
          -0.13143254816532135,
          0.3376876711845398,
          0.4309205710887909,
          0.17513489723205566,
          -0.21857941150665283,
          0.25047433376312256,
          0.3139626681804657,
          0.09729959070682526,
          0.18188254535198212,
          -0.08165612816810608,
          -0.3758569657802582,
          -0.1412869542837143,
          0.007489476818591356,
          0.15544220805168152,
          0.3076305687427521,
          -0.17861245572566986,
          0.4351450800895691,
          0.1641790270805359,
          -0.08128956705331802,
          0.37171077728271484,
          0.257384717464447,
          0.6392531991004944,
          -0.25307807326316833,
          -0.3166189193725586,
          -0.19943355023860931,
          -0.2892371118068695,
          0.13876454532146454,
          -0.1828194260597229,
          0.09040592610836029,
          0.08266378939151764,
          -0.24890774488449097,
          0.20349234342575073,
          -0.07330595701932907,
          0.05499077960848808,
          -0.25052860379219055,
          0.18505766987800598,
          -0.26768434047698975,
          0.291818767786026,
          0.13252131640911102,
          -0.17010031640529633,
          -0.24477919936180115,
          -0.1325104832649231,
          0.1176118552684784,
          0.1861320286989212,
          -0.2213127315044403,
          -0.07502426952123642,
          0.28934410214424133,
          0.23481900990009308,
          -0.1407414674758911,
          -0.22106516361236572,
          -0.5144194960594177,
          0.2133563756942749,
          0.059321388602256775,
          0.3236587941646576,
          -0.0831601694226265,
          -0.060078833252191544,
          0.15427926182746887,
          -0.3576035797595978,
          0.16541175544261932,
          -0.13247321546077728,
          -0.08330242335796356,
          0.17795637249946594,
          0.21049490571022034,
          -0.1072850227355957,
          -0.02384873479604721,
          -0.2020193487405777,
          -0.0006582216010428965,
          -0.42728403210639954,
          -0.08987244218587875,
          -0.3511349856853485,
          0.08153902739286423,
          0.4022957980632782,
          0.08315693587064743,
          -0.11239812523126602,
          -0.1287660300731659,
          0.16054262220859528,
          0.07309312373399734,
          0.12204727530479431,
          0.07672744989395142,
          0.20563840866088867,
          0.2905154228210449,
          0.42302843928337097,
          -0.6431682705879211,
          -0.13721884787082672,
          0.20279426872730255,
          0.28869837522506714,
          -0.541507363319397,
          -0.006871146149933338,
          -0.16671349108219147,
          -0.11136961728334427,
          -0.09185522049665451,
          -0.2934362590312958,
          0.3688572943210602,
          0.017498360946774483,
          0.23781777918338776,
          0.33540967106819153,
          -0.2394588440656662,
          0.25187182426452637,
          -0.01545924972742796,
          0.11978080123662949,
          -0.17649449408054352,
          -0.15779946744441986,
          -0.21271899342536926,
          0.24767504632472992,
          0.4303913116455078,
          -0.16374081373214722
        ]
      },
      "cellActivationHidden": {
        "rows": 20,
        "columns": 20,
        "weights": [
          0.2851174473762512,
          0.9204288721084595,
          0.2465430498123169,
          0.25382232666015625,
          0.3287077248096466,
          -0.228318452835083,
          -0.7044328451156616,
          -0.11673614382743835,
          -0.18627598881721497,
          0.39060860872268677,
          -0.4822385013103485,
          0.23717139661312103,
          0.33723199367523193,
          -0.3142320215702057,
          0.3325450122356415,
          -0.11926855146884918,
          0.06306803226470947,
          -0.011096235364675522,
          -0.1292751580476761,
          0.3243294656276703,
          -0.31835687160491943,
          0.13887737691402435,
          -0.21484792232513428,
          -0.11782541126012802,
          -0.6217654943466187,
          0.09183351695537567,
          -0.24880509078502655,
          -0.6064283847808838,
          -0.5799314975738525,
          -0.40083402395248413,
          0.3239160180091858,
          0.14744514226913452,
          0.277712345123291,
          0.3336593508720398,
          -0.06148652359843254,
          0.03381040692329407,
          -0.032678622752428055,
          0.43277880549430847,
          0.4973122775554657,
          -0.07793039828538895,
          -0.19518837332725525,
          -0.49216005206108093,
          0.3347890079021454,
          0.36411166191101074,
          -0.12486335635185242,
          0.7225823402404785,
          0.008427409455180168,
          -0.3988872170448303,
          -0.5917259454727173,
          0.11855994164943695,
          0.26152992248535156,
          0.21836191415786743,
          -0.3209225833415985,
          0.180892676115036,
          -0.22638890147209167,
          -0.7419688105583191,
          -0.11838322132825851,
          -0.05488003417849541,
          -0.4883790612220764,
          -0.12411323189735413,
          -0.17667986452579498,
          -0.2045758217573166,
          0.054644204676151276,
          -0.10694476962089539,
          0.24882946908473969,
          0.20111083984375,
          0.7979075908660889,
          -0.39528337121009827,
          -0.07405707240104675,
          -0.25646984577178955,
          0.34632113575935364,
          -0.04423518851399422,
          0.32907065749168396,
          -0.5209152102470398,
          0.003785111475735903,
          -0.13814327120780945,
          -0.8547358512878418,
          -0.22731249034404755,
          0.25495612621307373,
          -0.22504296898841858,
          -0.0840177834033966,
          0.19804595410823822,
          0.40234798192977905,
          0.3741200268268585,
          0.7214000821113586,
          0.2941700518131256,
          0.34366971254348755,
          -0.011776146478950977,
          0.07437648624181747,
          -0.04945891350507736,
          -0.14861273765563965,
          0.16213272511959076,
          -0.23671580851078033,
          0.11752187460660934,
          0.21874216198921204,
          0.45146650075912476,
          -0.1971016675233841,
          0.39569544792175293,
          -0.33679184317588806,
          -0.31423649191856384,
          0.08029640465974808,
          -0.046749554574489594,
          -0.519966185092926,
          -0.5131946802139282,
          -0.25537076592445374,
          -0.39991483092308044,
          0.6077339053153992,
          0.10629279166460037,
          -0.45444685220718384,
          -0.24803200364112854,
          0.9465747475624084,
          0.033262960612773895,
          -0.4181544780731201,
          0.06938638538122177,
          0.08965304493904114,
          -0.7573803663253784,
          0.9786598682403564,
          0.3149317800998688,
          -0.006985617335885763,
          0.043991271406412125,
          0.420973002910614,
          -0.06585540622472763,
          0.8910565972328186,
          0.12088443338871002,
          -0.1740196943283081,
          -0.2626067101955414,
          0.030079049989581108,
          -0.3735911548137665,
          -0.43422484397888184,
          0.25219404697418213,
          0.3854553997516632,
          -0.18691107630729675,
          0.11117115616798401,
          -0.05937560647726059,
          -0.179340660572052,
          0.28412696719169617,
          0.10437184572219849,
          -0.05006329342722893,
          -0.140359029173851,
          -0.20314210653305054,
          -0.2926834523677826,
          0.20183433592319489,
          -0.10484844446182251,
          0.18346092104911804,
          -0.02419794350862503,
          0.20482434332370758,
          -0.45759862661361694,
          0.32779785990715027,
          0.2565270662307739,
          0.3694959580898285,
          -0.44228366017341614,
          0.2775017023086548,
          0.23607058823108673,
          0.5383262038230896,
          0.08954529464244843,
          0.09420891851186752,
          -0.43413016200065613,
          0.04149233177304268,
          -0.6868361830711365,
          0.10130900144577026,
          0.053297385573387146,
          0.18296489119529724,
          0.0708237737417221,
          -0.08151663094758987,
          -0.6268410682678223,
          0.2773354947566986,
          0.26041823625564575,
          -0.39795488119125366,
          -0.1677999347448349,
          -0.17246131598949432,
          -0.04666091129183769,
          0.2634403109550476,
          -0.09851885586977005,
          0.45114096999168396,
          0.0702463835477829,
          0.2095874398946762,
          0.21064351499080658,
          -1.030673861503601,
          0.11219895631074905,
          -0.02776407264173031,
          0.2567564845085144,
          0.13115328550338745,
          0.046615999191999435,
          0.3381015658378601,
          -0.22367507219314575,
          0.49509745836257935,
          -0.5586035847663879,
          -0.16398932039737701,
          0.42122772336006165,
          0.5073699951171875,
          -0.2121746987104416,
          0.03735331445932388,
          -0.039990298449993134,
          0.10615810006856918,
          0.4066331088542938,
          -0.3503498136997223,
          -0.5088276863098145,
          0.3153412342071533,
          -0.36991605162620544,
          0.5597096681594849,
          0.32231405377388,
          0.09062986820936203,
          0.2897641062736511,
          0.25068026781082153,
          0.31540647149086,
          -0.6709660291671753,
          0.5111499428749084,
          0.0019201189279556274,
          -0.5193167328834534,
          -0.15008875727653503,
          0.22134116291999817,
          0.29067450761795044,
          0.7354840636253357,
          -0.2517799735069275,
          -0.03228409215807915,
          -0.08280497044324875,
          -0.2095557153224945,
          -0.2262079268693924,
          0.5790346264839172,
          -0.26106199622154236,
          -0.6997793912887573,
          0.1339656561613083,
          0.043920498341321945,
          -0.10768496245145798,
          0.2670864164829254,
          -0.09048014134168625,
          0.3646929860115051,
          -0.37655746936798096,
          -0.299207478761673,
          0.1998613029718399,
          -0.35671788454055786,
          0.42279472947120667,
          -0.19146651029586792,
          -0.42152759432792664,
          -0.445585161447525,
          0.12183224409818649,
          0.13548631966114044,
          0.39696332812309265,
          -0.3419327437877655,
          0.36513790488243103,
          -0.029343532398343086,
          0.05804188922047615,
          0.7519427537918091,
          0.08445032685995102,
          0.45239323377609253,
          0.31197217106819153,
          0.0423269122838974,
          -0.48611152172088623,
          -0.2456248700618744,
          -0.2372322529554367,
          0.3431326746940613,
          -0.16316132247447968,
          0.22357533872127533,
          0.05736224353313446,
          -0.06303070485591888,
          0.2464001178741455,
          0.5251163840293884,
          0.47300875186920166,
          -0.29317355155944824,
          -0.08747831732034683,
          -0.01467696763575077,
          -0.08233501762151718,
          0.4937557578086853,
          0.2713967561721802,
          -0.5992939472198486,
          -0.09885244071483612,
          -0.20185263454914093,
          -0.06034102663397789,
          -0.30047211050987244,
          0.3729916512966156,
          -0.04321257770061493,
          0.45486584305763245,
          0.13915051519870758,
          0.3640516996383667,
          0.548833966255188,
          -0.013953096233308315,
          -0.26593562960624695,
          0.2934352159500122,
          -0.18067002296447754,
          -0.17405807971954346,
          -0.25336953997612,
          -0.046604134142398834,
          0.024381695315241814,
          0.37421512603759766,
          -0.05243371054530144,
          -0.22279280424118042,
          0.17359301447868347,
          -0.1457201987504959,
          0.1814209222793579,
          0.03276146948337555,
          0.09279824048280716,
          -0.18766804039478302,
          -0.40430834889411926,
          0.4639723598957062,
          0.2788478136062622,
          0.15354478359222412,
          -0.13645215332508087,
          -0.1930827498435974,
          -0.40426692366600037,
          0.1334276646375656,
          -0.24157533049583435,
          0.819165825843811,
          0.16732892394065857,
          0.2801666557788849,
          0.3577423691749573,
          0.04262496531009674,
          -0.5311498641967773,
          0.5693703889846802,
          0.12623342871665955,
          0.18417897820472717,
          0.5252048373222351,
          -0.07378309220075607,
          -0.15663547813892365,
          0.35334861278533936,
          0.06077942997217178,
          -0.32776939868927,
          0.09557860344648361,
          0.7099323272705078,
          -0.25936469435691833,
          1.1942530870437622,
          -0.6976427435874939,
          -0.12355098873376846,
          -0.243669793009758,
          0.7086330056190491,
          -0.8093962669372559,
          0.33498162031173706,
          -0.3503570854663849,
          0.9357250928878784,
          0.03241732344031334,
          0.5540333986282349,
          0.20423559844493866,
          0.055105116218328476,
          -0.011005855165421963,
          0.5482937097549438,
          0.10013684630393982,
          0.5900180339813232,
          -0.39017367362976074,
          -0.3000676929950714,
          -0.07102065533399582,
          0.5385718941688538,
          -0.08791874349117279,
          0.5224984884262085,
          0.38721203804016113,
          -0.022857801988720894,
          -0.2181648164987564,
          0.4434938132762909,
          0.19039668142795563,
          -0.14113450050354004,
          -0.23089158535003662,
          0.5578190684318542,
          -0.373703271150589,
          0.2027890682220459,
          0.5780894756317139,
          -0.13642245531082153,
          0.12310392409563065,
          0.26522326469421387,
          0.4698999226093292,
          -0.9236447811126709,
          -0.2796708941459656,
          0.1608230471611023,
          0.003232533112168312,
          -0.5076282620429993,
          0.08807666599750519,
          0.24803465604782104,
          -0.444731742143631,
          0.6543540358543396,
          -0.1135125681757927,
          -0.2461707592010498,
          0.1065152958035469,
          -0.06123044341802597,
          -0.7168216705322266,
          0.4052973687648773,
          -0.4895440936088562,
          0.14763705432415009,
          -0.7200122475624084,
          0.8123184442520142,
          -0.46911197900772095,
          -0.14971572160720825,
          0.13908253610134125,
          -0.026345957070589066,
          -0.3006967008113861,
          0.15604498982429504,
          0.2165103405714035,
          0.29776567220687866,
          -0.05152968317270279,
          -0.01516391895711422,
          0.28111112117767334,
          0.015454149805009365,
          0.2774066627025604,
          0.0005502533167600632,
          -0.49508213996887207,
          -0.018871182575821877,
          0.2684549391269684,
          0.26564180850982666,
          0.01620897836983204,
          -0.07329747080802917,
          0.13380391895771027,
          -0.09898577630519867,
          0.1465541124343872,
          0.17075523734092712
        ]
      },
      "cellActivationBias": {
        "rows": 20,
        "columns": 1,
        "weights": [
          0.5642218589782715,
          -0.2021091878414154,
          -0.46995365619659424,
          -0.7700332999229431,
          -0.2195032685995102,
          -0.6372806429862976,
          0.14873984456062317,
          -0.29072868824005127,
          -0.6763428449630737,
          0.02916182205080986,
          -1.157500147819519,
          -0.28073903918266296,
          1.054848313331604,
          -1.0708283185958862,
          0.7628003358840942,
          0.6208882331848145,
          0.2195555418729782,
          -0.34705454111099243,
          0.8617922067642212,
          -0.6325127482414246
        ]
      }
    },
    {
      "inputMatrix": {
        "rows": 20,
        "columns": 20,
        "weights": [
          0.2396116554737091,
          0.3261478543281555,
          0.024215586483478546,
          0.39316755533218384,
          -0.16401581466197968,
          0.08842245489358902,
          1.0753756761550903,
          0.7035541534423828,
          0.0737423524260521,
          -0.5240983366966248,
          0.24963872134685516,
          -0.7867785096168518,
          0.6969513893127441,
          0.22185249626636505,
          0.03587156534194946,
          -1.3268810510635376,
          0.19083939492702484,
          0.2703748047351837,
          -0.25003141164779663,
          -0.5129867196083069,
          -0.1349647343158722,
          -0.5302503705024719,
          -0.10572534054517746,
          -0.5165867209434509,
          -0.035267408937215805,
          -0.5762936472892761,
          0.0367889404296875,
          0.7217695713043213,
          0.899413526058197,
          0.12920917570590973,
          -0.42999762296676636,
          -0.11198710650205612,
          -0.5933603048324585,
          -0.8880711197853088,
          0.1370691955089569,
          0.8564019203186035,
          -1.6150099039077759,
          -0.0592246912419796,
          1.7751656770706177,
          0.2933366000652313,
          1.2976868152618408,
          0.24076855182647705,
          -0.02879483997821808,
          -1.0846692323684692,
          -0.0741841197013855,
          -1.0937544107437134,
          -0.14482879638671875,
          -0.1496364325284958,
          0.15243951976299286,
          -0.24117246270179749,
          0.6965699195861816,
          -0.0066249375231564045,
          -0.20844295620918274,
          -0.47425904870033264,
          1.3775042295455933,
          -1.1576236486434937,
          -0.33935657143592834,
          -0.3211284577846527,
          1.7668473720550537,
          0.12066309154033661,
          0.6647034287452698,
          -0.4239579737186432,
          0.1578548550605774,
          -0.03490174934267998,
          -0.20072059333324432,
          -0.5993924140930176,
          -0.3974604308605194,
          -0.45414289832115173,
          -0.8922858834266663,
          -0.2413775622844696,
          0.09228435903787613,
          0.8428452014923096,
          -0.47978857159614563,
          -0.7049166560173035,
          -0.42200717329978943,
          -0.7447752952575684,
          1.4523578882217407,
          0.2600457966327667,
          0.7462621927261353,
          -0.21340422332286835,
          -0.3837563991546631,
          -0.29887259006500244,
          0.4662446677684784,
          -0.6529620289802551,
          0.1970713585615158,
          -0.6159639358520508,
          0.5459755063056946,
          -0.4967615008354187,
          -0.7746267318725586,
          0.002051108982414007,
          0.33254116773605347,
          0.06998497247695923,
          -0.8229048252105713,
          -0.40449392795562744,
          1.6213083267211914,
          -0.9104557037353516,
          1.1791741847991943,
          -0.3006424903869629,
          0.8319471478462219,
          -0.28034910559654236,
          0.13548751175403595,
          0.5209608674049377,
          -0.8611432909965515,
          -0.05226117745041847,
          0.7658478021621704,
          -0.4400057792663574,
          -0.14192697405815125,
          -0.34061533212661743,
          -0.6478931903839111,
          -0.47551700472831726,
          -0.036298416554927826,
          -0.008474082686007023,
          0.19837479293346405,
          0.14114725589752197,
          -0.46567296981811523,
          -1.2096614837646484,
          0.15758009254932404,
          -0.021004321053624153,
          0.1947774589061737,
          -0.05261630564928055,
          0.21508553624153137,
          -0.5977186560630798,
          -1.191424012184143,
          -0.3498907685279846,
          -0.03355153650045395,
          -0.8066514730453491,
          0.4011399447917938,
          -0.03330596536397934,
          -0.15139010548591614,
          -0.3723960518836975,
          -0.015945378690958023,
          0.21993021667003632,
          0.41718342900276184,
          -0.06761956214904785,
          0.10623275488615036,
          -0.4016909897327423,
          0.44865649938583374,
          -0.37007251381874084,
          0.4282871186733246,
          -0.41833552718162537,
          0.33170264959335327,
          -0.10975381731987,
          -1.8497779369354248,
          -0.2465347796678543,
          0.4702063500881195,
          -0.6771462559700012,
          -0.005954680033028126,
          -0.4687719941139221,
          -0.30608463287353516,
          -1.5821396112442017,
          0.23384732007980347,
          -0.2604084014892578,
          -0.019075242802500725,
          -0.11647336930036545,
          -0.12092582881450653,
          -0.3013501763343811,
          -0.12790249288082123,
          -0.6844661831855774,
          0.5763742327690125,
          -0.11816280335187912,
          0.3291252553462982,
          -1.5890806913375854,
          -0.10273329168558121,
          0.27486300468444824,
          1.2296735048294067,
          -1.1018608808517456,
          0.5557069182395935,
          -0.21005596220493317,
          -0.3012794256210327,
          0.9790248870849609,
          0.500952422618866,
          -0.49208250641822815,
          0.5566169023513794,
          0.25525254011154175,
          0.2820397913455963,
          -0.17061544954776764,
          -0.2888203263282776,
          0.041701365262269974,
          0.7994847297668457,
          -0.9230362772941589,
          0.3792797029018402,
          0.5073210000991821,
          0.1885383576154709,
          -0.8255762457847595,
          0.4438534379005432,
          0.2356496900320053,
          0.055433474481105804,
          0.011891737580299377,
          -1.046251654624939,
          0.6316743493080139,
          0.6369600892066956,
          -0.5641619563102722,
          -0.2775925397872925,
          -1.0402127504348755,
          0.049806635826826096,
          0.4710862934589386,
          1.1028681993484497,
          -0.05993763729929924,
          0.47544512152671814,
          0.19138765335083008,
          0.5694907903671265,
          0.16313126683235168,
          -0.9486754536628723,
          -0.48382043838500977,
          0.8689860105514526,
          0.014995431527495384,
          0.18283286690711975,
          -0.18961699306964874,
          -0.1164035052061081,
          -0.8327566981315613,
          -0.08682671189308167,
          0.04592482000589371,
          0.19261275231838226,
          0.00922264065593481,
          0.5009301900863647,
          -0.6479747891426086,
          0.5896615982055664,
          -0.08250018209218979,
          -0.0780113935470581,
          -0.6647214889526367,
          0.3294505178928375,
          -0.28302961587905884,
          0.6303496956825256,
          -1.4986027479171753,
          -0.7230422496795654,
          -1.1420178413391113,
          0.6857451796531677,
          0.31080561876296997,
          0.09400280565023422,
          -0.14722339808940887,
          1.4001766443252563,
          -0.7899287939071655,
          -0.2519457936286926,
          -0.7168177962303162,
          -0.29856714606285095,
          0.04470250383019447,
          -0.8971013426780701,
          0.07204396277666092,
          -0.6745734810829163,
          -0.5242725014686584,
          0.10830096900463104,
          -0.28639012575149536,
          -0.5993344783782959,
          -0.1723817139863968,
          -0.7981156706809998,
          -0.6562153697013855,
          0.11285426467657089,
          -0.3467710018157959,
          -0.13841064274311066,
          -0.0007460609776899219,
          0.6451024413108826,
          -0.4808086156845093,
          -0.5449108481407166,
          0.41994160413742065,
          -0.5499011278152466,
          -1.1368602514266968,
          -0.07668456435203552,
          -0.44803789258003235,
          0.3121650218963623,
          -0.008249890059232712,
          0.2830951511859894,
          -0.35207560658454895,
          -0.02629023790359497,
          0.020355861634016037,
          0.25233277678489685,
          -0.14518122375011444,
          0.4599422812461853,
          -0.07804007083177567,
          0.12498112767934799,
          -0.6690773367881775,
          0.0383303165435791,
          0.13961634039878845,
          0.023780452087521553,
          0.06656400114297867,
          0.7572284936904907,
          -1.2233459949493408,
          0.2744000256061554,
          0.0289544016122818,
          0.24899668991565704,
          -1.4898320436477661,
          0.2433677315711975,
          -0.3513207733631134,
          -0.23113027215003967,
          -0.7414111495018005,
          -0.3047950863838196,
          -0.037462566047906876,
          0.21586912870407104,
          -0.011861775070428848,
          -0.13866150379180908,
          -1.1070040464401245,
          0.06566651910543442,
          0.31572359800338745,
          0.012517459690570831,
          -0.0719686970114708,
          -0.08006374537944794,
          0.38238969445228577,
          0.28359609842300415,
          -0.13297496736049652,
          -0.03997289761900902,
          -0.8970552086830139,
          -0.12301187217235565,
          0.6050837635993958,
          -0.1379571110010147,
          -0.03181200847029686,
          0.20561623573303223,
          -0.02928469516336918,
          0.22712776064872742,
          0.3349525034427643,
          -0.06417541950941086,
          -0.26678699254989624,
          -0.5860501527786255,
          0.1446903944015503,
          -0.09913354367017746,
          -0.3291761577129364,
          0.06692764163017273,
          -0.6891512274742126,
          0.6078968048095703,
          0.551172137260437,
          0.05905882269144058,
          -0.22474202513694763,
          0.5690516829490662,
          0.5647925734519958,
          -1.2754706144332886,
          -1.4871597290039062,
          0.22961828112602234,
          0.21191906929016113,
          -0.3161958158016205,
          0.12791606783866882,
          -0.28586867451667786,
          0.25351735949516296,
          -0.03139055147767067,
          -0.9374715089797974,
          -0.6247326135635376,
          -1.2351717948913574,
          1.111608862876892,
          0.05232527479529381,
          0.6489297747612,
          0.3130646049976349,
          -0.08170542865991592,
          -0.6020030379295349,
          -0.44215694069862366,
          0.38769444823265076,
          0.6259685158729553,
          0.362887978553772,
          0.46104544401168823,
          -0.4097057580947876,
          0.3578263819217682,
          -1.1071816682815552,
          0.06108446791768074,
          -0.14212261140346527,
          -0.9302526116371155,
          0.33531269431114197,
          -0.0700472891330719,
          -0.5112796425819397,
          0.359578937292099,
          -0.2952814996242523,
          0.13621564209461212,
          -0.46354982256889343,
          0.3625537157058716,
          -0.09285672754049301,
          -0.25351834297180176,
          0.3095029890537262,
          0.2314937859773636,
          -0.04853516072034836,
          0.1328956037759781,
          0.02279575541615486,
          0.14192424714565277,
          -0.02674413099884987,
          -0.36885061860084534,
          0.0713198110461235,
          0.08038114011287689,
          -0.21794885396957397,
          0.5058788657188416,
          -0.3549889326095581,
          -0.6786465048789978,
          0.05264727398753166,
          1.4851394891738892,
          -0.2836953103542328,
          -0.22409389913082123,
          -0.1705331653356552,
          0.1410856395959854,
          0.3495969772338867,
          0.6238355040550232,
          -0.33971044421195984,
          0.2737525701522827,
          -0.3686392605304718,
          0.1869453638792038,
          0.4239281713962555,
          -0.035501059144735336,
          0.30732470750808716,
          -0.3695967197418213,
          0.6876601576805115,
          0.5028413534164429,
          0.2554349899291992,
          0.09412690252065659,
          1.2215462923049927,
          0.00906930211931467,
          -0.07410124689340591,
          0.8188420534133911,
          0.09058044850826263
        ]
      },
      "inputHidden": {
        "rows": 20,
        "columns": 20,
        "weights": [
          0.2894274890422821,
          -0.26298418641090393,
          0.6776546835899353,
          -0.47711554169654846,
          -0.18101076781749725,
          -0.1077699065208435,
          0.0065629747696220875,
          -0.08079017698764801,
          0.4834173321723938,
          0.37911051511764526,
          -0.17760974168777466,
          0.3577248454093933,
          0.7608892321586609,
          0.7382045388221741,
          -0.16794399917125702,
          -0.20498192310333252,
          0.3036367893218994,
          0.39760443568229675,
          -0.4256005585193634,
          0.705273449420929,
          0.7974787354469299,
          0.2948096692562103,
          -0.2166065126657486,
          -0.3003160357475281,
          -1.2846760749816895,
          0.5509396195411682,
          0.0868513211607933,
          -0.05616885423660278,
          0.3399052619934082,
          0.08079791814088821,
          -0.4171479642391205,
          0.6068933606147766,
          -0.6024446487426758,
          0.5334928631782532,
          -0.1755146086215973,
          0.0769321620464325,
          -0.06126011162996292,
          -0.2010018676519394,
          -0.14191153645515442,
          -0.6542633175849915,
          1.1244938373565674,
          -0.7012330889701843,
          0.044550031423568726,
          -0.18888433277606964,
          -0.44257888197898865,
          0.3625037372112274,
          -0.568335235118866,
          0.11512292921543121,
          0.35851016640663147,
          0.13673429191112518,
          -0.3741839826107025,
          -0.019630923867225647,
          -0.5636429786682129,
          0.1898183375597,
          -0.29308176040649414,
          -0.1692623645067215,
          -0.45972922444343567,
          0.362851083278656,
          -0.5638442039489746,
          0.3702472150325775,
          0.34394389390945435,
          0.017169246450066566,
          -0.1250014752149582,
          -0.19350551068782806,
          -0.7251556515693665,
          0.5112099051475525,
          0.3650033473968506,
          0.30473634600639343,
          -0.2324635237455368,
          0.5572961568832397,
          0.22315643727779388,
          -0.6484909057617188,
          -0.26389044523239136,
          0.050947386771440506,
          0.03490952029824257,
          0.1938902735710144,
          0.07458555698394775,
          0.18581318855285645,
          -0.48162826895713806,
          0.21785816550254822,
          -0.18481992185115814,
          -0.35263964533805847,
          -0.8279931545257568,
          -0.5158176422119141,
          -0.4369136393070221,
          -0.596533477306366,
          0.3991258144378662,
          0.20822927355766296,
          -0.003978114575147629,
          -0.08473663032054901,
          -0.09793351590633392,
          0.20057006180286407,
          0.8994605541229248,
          -0.1493835300207138,
          -0.37998420000076294,
          0.016134653240442276,
          0.48909884691238403,
          0.402084618806839,
          -0.12678952515125275,
          0.08597949147224426,
          0.6257088780403137,
          0.7738859057426453,
          -0.02773808315396309,
          0.26648080348968506,
          -0.05007734149694443,
          -0.39192554354667664,
          0.7098997235298157,
          0.4461379945278168,
          0.3797171413898468,
          0.8002651929855347,
          -0.4618786573410034,
          0.4508007764816284,
          0.28242048621177673,
          0.2820787727832794,
          -1.607062578201294,
          -1.273980736732483,
          -0.2949546277523041,
          0.03589944541454315,
          -0.578765869140625,
          0.39628320932388306,
          -0.12986460328102112,
          0.7427024841308594,
          -0.47863999009132385,
          -0.04238157346844673,
          0.31537309288978577,
          -0.3059205710887909,
          -0.5062674283981323,
          -0.04759332910180092,
          1.7357773780822754,
          0.4659133553504944,
          -1.609047293663025,
          -0.10940119624137878,
          -1.0730727910995483,
          0.6371320486068726,
          -1.5759445428848267,
          -2.2787270545959473,
          -0.7168360352516174,
          0.23885829746723175,
          0.05077843368053436,
          0.25225090980529785,
          0.061997268348932266,
          0.800039529800415,
          0.6044325232505798,
          -0.4667029082775116,
          -0.03761450573801994,
          -0.7194671630859375,
          -0.2703602612018585,
          -0.43780893087387085,
          -0.1723242998123169,
          0.7478477358818054,
          -0.1195402666926384,
          -0.5593385100364685,
          -0.332157701253891,
          0.8245590925216675,
          -2.561671257019043,
          0.6423389315605164,
          -0.29166004061698914,
          0.23286770284175873,
          0.06469068676233292,
          0.14036042988300323,
          0.10753181576728821,
          0.24738183617591858,
          1.5237051248550415,
          -0.623444139957428,
          -0.006028810515999794,
          1.0811597108840942,
          -1.035028338432312,
          -0.4189927279949188,
          0.5216230750083923,
          0.5514657497406006,
          0.19575896859169006,
          -0.16639107465744019,
          -0.8591331243515015,
          0.8738890886306763,
          -0.2333972007036209,
          0.0870073214173317,
          -0.9859305620193481,
          0.29554852843284607,
          -0.04432589188218117,
          1.5348684787750244,
          0.32235443592071533,
          -0.41706523299217224,
          -0.71556556224823,
          0.2611464858055115,
          0.5218291878700256,
          0.2529847025871277,
          0.8197830319404602,
          -0.07053311169147491,
          0.1390448957681656,
          -0.24535349011421204,
          0.1696145385503769,
          0.47224488854408264,
          -0.8862042427062988,
          0.15763020515441895,
          -0.2927538752555847,
          -0.40622445940971375,
          0.07573146373033524,
          0.22796118259429932,
          -0.055978644639253616,
          0.1375507265329361,
          -0.06413381546735764,
          0.2529793679714203,
          0.3773282766342163,
          -0.17673271894454956,
          -0.18868578970432281,
          -0.35971590876579285,
          1.4511780738830566,
          -0.2690064311027527,
          -0.1409229040145874,
          0.5313587188720703,
          -0.10520116984844208,
          0.8518708944320679,
          1.027354121208191,
          1.3224540948867798,
          -0.44072186946868896,
          0.73380446434021,
          -0.36658960580825806,
          0.18771937489509583,
          0.10581313818693161,
          0.4469059407711029,
          0.6723724603652954,
          0.5057247877120972,
          -0.09053140878677368,
          0.08041448891162872,
          -0.5631765127182007,
          0.17978666722774506,
          0.10620425641536713,
          0.37563979625701904,
          0.041542671620845795,
          0.6828213930130005,
          0.08756686747074127,
          -0.3858683705329895,
          0.6670681834220886,
          0.28631892800331116,
          -0.2775498330593109,
          0.05205637961626053,
          -0.063208669424057,
          0.7359588742256165,
          -1.111374855041504,
          -0.30615556240081787,
          0.03668809309601784,
          0.16600966453552246,
          0.796945333480835,
          -0.6719798445701599,
          -0.13869282603263855,
          0.02544543892145157,
          -0.20721304416656494,
          -0.37155985832214355,
          0.15481214225292206,
          -0.10559725016355515,
          -0.8434032797813416,
          0.21963737905025482,
          0.12787918746471405,
          0.7041649222373962,
          -1.9493972063064575,
          -1.1549108028411865,
          -0.6346175074577332,
          0.5666213035583496,
          -0.38919249176979065,
          0.1851527988910675,
          0.39271706342697144,
          -0.2503587305545807,
          -0.002150345128029585,
          0.10750672966241837,
          0.08494780212640762,
          0.0924135372042656,
          0.9468737244606018,
          0.15347345173358917,
          0.4141460657119751,
          0.2361789047718048,
          -0.06506840139627457,
          0.2608638107776642,
          -0.23062698543071747,
          0.48424533009529114,
          -0.3619288206100464,
          0.010441220365464687,
          -0.3203601837158203,
          0.03875931724905968,
          0.33740225434303284,
          0.8589215278625488,
          1.654842734336853,
          -0.1446455866098404,
          0.09941709786653519,
          -0.2196269929409027,
          -0.19819259643554688,
          0.5159102082252502,
          0.6262590885162354,
          -0.19491823017597198,
          0.18172118067741394,
          0.641510009765625,
          -0.1564347892999649,
          0.07001479715108871,
          -0.3743378221988678,
          -0.03464653342962265,
          -0.11591489613056183,
          -0.15824368596076965,
          -0.27199557423591614,
          0.11813297122716904,
          -1.6422258615493774,
          0.8744857311248779,
          -0.4830459654331207,
          -0.28672167658805847,
          -0.3294968008995056,
          -0.31826773285865784,
          -0.04792771115899086,
          0.027670186012983322,
          0.4581819474697113,
          -2.6307945251464844,
          -0.09764043241739273,
          0.019734593108296394,
          -0.15801618993282318,
          2.9467573165893555,
          -0.6681582927703857,
          0.34210002422332764,
          -0.3334994316101074,
          -0.7737269997596741,
          -0.5153960585594177,
          0.26943734288215637,
          -0.2527375817298889,
          0.36232057213783264,
          -0.8902050852775574,
          -0.1462130844593048,
          -0.38420888781547546,
          -0.53190678358078,
          -0.7639629244804382,
          0.4745357930660248,
          0.21078109741210938,
          0.154433473944664,
          -0.3416227102279663,
          0.17816857993602753,
          0.05964824557304382,
          0.2693006098270416,
          0.05070757493376732,
          0.09036263823509216,
          -0.5066133737564087,
          -0.5912910103797913,
          -1.1107450723648071,
          1.517496943473816,
          0.12017843872308731,
          0.6552931070327759,
          1.0999376773834229,
          -0.3219836950302124,
          -0.40823638439178467,
          -0.182050421833992,
          -0.5571312308311462,
          0.41589322686195374,
          0.0046697878278791904,
          -0.6667233109474182,
          1.379723310470581,
          0.014567598700523376,
          -0.09596344083547592,
          0.4474920630455017,
          0.3450395166873932,
          0.38567760586738586,
          -0.2446499466896057,
          0.08909622579813004,
          0.0018023645970970392,
          0.11073163896799088,
          -0.02604268305003643,
          0.04884782060980797,
          0.2777112126350403,
          -0.29670974612236023,
          -0.45299533009529114,
          0.38016918301582336,
          0.48438480496406555,
          0.24685919284820557,
          0.5400944352149963,
          -0.29617682099342346,
          0.027529358863830566,
          -0.039571456611156464,
          -0.2230040282011032,
          0.18260356783866882,
          -1.0050545930862427,
          0.4960157871246338,
          -0.20507203042507172,
          -0.32131823897361755,
          -0.032937195152044296,
          0.209315687417984,
          -0.21859560906887054,
          0.4668296277523041,
          1.3475465774536133,
          -0.23939070105552673,
          -0.33759939670562744,
          -0.18505461513996124,
          -0.5952188372612,
          0.2602682411670685,
          -0.19128724932670593,
          -1.5734574794769287,
          2.589961290359497,
          0.11735615134239197,
          -0.4387624263763428,
          0.9229442477226257,
          -0.36298322677612305,
          0.7372601628303528,
          -0.6863709688186646,
          -0.05177251994609833,
          -0.5790312886238098,
          0.24037079513072968,
          -0.19689060747623444,
          0.05796385183930397
        ]
      },
      "inputBias": {
        "rows": 20,
        "columns": 1,
        "weights": [
          -0.47904542088508606,
          0.9050036668777466,
          0.09608680754899979,
          0.830416202545166,
          0.2635948061943054,
          0.40916967391967773,
          0.30026084184646606,
          -0.04339410364627838,
          -0.7522954344749451,
          0.8575254082679749,
          0.13080745935440063,
          0.3455987572669983,
          0.17386780679225922,
          0.19068768620491028,
          0.4511842429637909,
          0.20773173868656158,
          -0.029262902215123177,
          0.8521818518638611,
          0.5277420878410339,
          0.6464366316795349
        ]
      },
      "forgetMatrix": {
        "rows": 20,
        "columns": 20,
        "weights": [
          0.6075645089149475,
          -0.09395316243171692,
          -0.3327707052230835,
          -1.0809047222137451,
          -0.20915856957435608,
          0.014855075627565384,
          0.5381354093551636,
          0.16785785555839539,
          -0.17703890800476074,
          0.27476441860198975,
          -0.10539433360099792,
          0.0454368032515049,
          0.13837209343910217,
          -0.046733248978853226,
          -0.703147828578949,
          0.9529833197593689,
          -0.3416418433189392,
          -0.09767348319292068,
          -0.009923795238137245,
          0.08992548286914825,
          0.06556675583124161,
          -0.1462598741054535,
          0.1032748892903328,
          0.23339314758777618,
          0.06902288645505905,
          -0.48201441764831543,
          -0.5731872916221619,
          -0.3400326073169708,
          -0.6688757538795471,
          0.11390365660190582,
          0.2392701953649521,
          -0.720324695110321,
          -0.5344296097755432,
          0.6831866502761841,
          0.7969779372215271,
          -0.9416460394859314,
          0.729080080986023,
          -0.8525665402412415,
          -0.2504522204399109,
          0.10592125356197357,
          0.015449426136910915,
          -0.7268725633621216,
          0.7729784250259399,
          -0.5654349327087402,
          0.1338561773300171,
          0.08187589049339294,
          0.27196890115737915,
          -0.11140468716621399,
          -0.4079221785068512,
          0.21654726564884186,
          0.4066666066646576,
          0.03589669242501259,
          -0.41875600814819336,
          -0.5977932214736938,
          0.3002963066101074,
          0.7057371139526367,
          0.7887007594108582,
          0.2894861400127411,
          0.3955111801624298,
          0.20813418924808502,
          -0.059361476451158524,
          -0.24725070595741272,
          0.16468799114227295,
          0.7044386267662048,
          -0.6303513646125793,
          0.3768022656440735,
          -0.9616246223449707,
          -0.0855405405163765,
          0.3468235731124878,
          -0.6675708889961243,
          -0.08437658846378326,
          0.5744712948799133,
          0.15409258008003235,
          0.40286919474601746,
          -0.07009530067443848,
          -1.064131259918213,
          1.076493740081787,
          0.07472267746925354,
          -0.17261265218257904,
          0.09002460539340973,
          -0.29944998025894165,
          0.7836374044418335,
          0.46583762764930725,
          -0.2775859534740448,
          0.1956990510225296,
          0.7811524868011475,
          -0.08320947736501694,
          -0.9967089295387268,
          0.8004295229911804,
          0.8872537016868591,
          0.08586493879556656,
          -1.14164400100708,
          -0.5036880373954773,
          -0.7792177796363831,
          0.2852552533149719,
          0.6280663013458252,
          0.8802757263183594,
          -0.6859890818595886,
          -0.33822324872016907,
          0.09607985615730286,
          1.1708409786224365,
          -0.42432254552841187,
          -0.34615248441696167,
          -0.2103710174560547,
          -0.7266783118247986,
          -1.2651283740997314,
          -0.19245268404483795,
          0.4644244313240051,
          0.40858590602874756,
          0.09588595479726791,
          -0.46654212474823,
          -0.12207860499620438,
          0.7143584489822388,
          0.11472425609827042,
          1.2657926082611084,
          0.06796721369028091,
          -0.6989939212799072,
          0.37816765904426575,
          -0.1494513750076294,
          0.13593566417694092,
          0.9271508455276489,
          -0.556784451007843,
          0.43912553787231445,
          -0.5578555464744568,
          -0.2412605583667755,
          0.6100515723228455,
          0.49052947759628296,
          -0.026434648782014847,
          0.09660946577787399,
          0.045304618775844574,
          0.6354557871818542,
          -0.2795267403125763,
          0.03100559115409851,
          0.7606287598609924,
          -0.1728287637233734,
          0.23823189735412598,
          -0.0832904726266861,
          0.42905741930007935,
          0.7182640433311462,
          -0.2708810269832611,
          -0.8809834718704224,
          0.6588811278343201,
          1.2318319082260132,
          -0.12351412326097488,
          -0.5658392906188965,
          -0.28815340995788574,
          -0.39337027072906494,
          0.3182481825351715,
          -0.5686350464820862,
          0.5112107396125793,
          0.44012707471847534,
          -0.2066122442483902,
          0.6623319983482361,
          0.3915170729160309,
          -1.2537976503372192,
          -0.21537156403064728,
          0.06074763834476471,
          -0.32994410395622253,
          -1.1183544397354126,
          -0.722877562046051,
          0.18021497130393982,
          -0.12154888361692429,
          -0.14524589478969574,
          0.19058983027935028,
          0.5032735466957092,
          -0.3091955780982971,
          0.2482539862394333,
          -0.1338825821876526,
          0.6336783766746521,
          -0.01439317874610424,
          0.39340320229530334,
          -0.013467961922287941,
          -0.26473426818847656,
          0.1791476458311081,
          0.8262712955474854,
          0.1574840396642685,
          -0.24769562482833862,
          -0.3102458417415619,
          0.8050475716590881,
          0.037155233323574066,
          0.30454397201538086,
          0.6207476258277893,
          0.3656206727027893,
          -0.5899553298950195,
          0.5709535479545593,
          -0.17198629677295685,
          0.22785380482673645,
          -0.36975985765457153,
          -1.0904074907302856,
          -0.003481254680082202,
          0.7014867067337036,
          -0.4430525004863739,
          -0.14344900846481323,
          -0.7878775596618652,
          -0.44177794456481934,
          0.6811072826385498,
          1.4743365049362183,
          0.2258005142211914,
          0.22113151848316193,
          0.11608264595270157,
          -0.3326415419578552,
          -0.4668964147567749,
          0.13588616251945496,
          -0.40560880303382874,
          -0.2806031107902527,
          0.49253374338150024,
          0.5076619386672974,
          -0.04369132220745087,
          0.02840198576450348,
          -0.4529109001159668,
          0.28343838453292847,
          -0.1502808779478073,
          -0.25867974758148193,
          0.21554723381996155,
          -0.17489024996757507,
          -0.5330425500869751,
          -0.10344918817281723,
          0.3405107855796814,
          0.21889278292655945,
          -0.981250524520874,
          0.23582203686237335,
          -0.05130794271826744,
          0.09582128375768661,
          -1.4261935949325562,
          -0.2967832684516907,
          -0.19275660812854767,
          1.1790400743484497,
          0.16727085411548615,
          -0.06300780922174454,
          0.6896884441375732,
          -0.3221381902694702,
          -1.5420281887054443,
          -0.07843078672885895,
          -0.019180985167622566,
          1.2683182954788208,
          -0.44422581791877747,
          -0.0043812342919409275,
          -0.15849213302135468,
          -0.29969170689582825,
          -0.7423543930053711,
          -0.659217119216919,
          1.1308377981185913,
          -0.5083863139152527,
          -0.40034982562065125,
          -0.209696963429451,
          0.6153566241264343,
          0.20688356459140778,
          0.02034742198884487,
          0.1870906800031662,
          -0.015657242387533188,
          0.11485107243061066,
          0.24663512408733368,
          0.11799584329128265,
          0.16579118371009827,
          0.16712020337581635,
          -0.14225414395332336,
          -0.58694988489151,
          -0.7555414438247681,
          -0.49034130573272705,
          -0.3576270341873169,
          -0.12801116704940796,
          -0.0027839518152177334,
          0.14434294402599335,
          -0.41381046175956726,
          -0.18321534991264343,
          -1.0991040468215942,
          -0.00853711273521185,
          -0.0002657676814123988,
          -0.07405120134353638,
          -0.0625276267528534,
          0.1410825401544571,
          -0.28579986095428467,
          -0.45975568890571594,
          -0.15677647292613983,
          -0.262037068605423,
          -0.04135886952280998,
          0.4160674512386322,
          0.08278752863407135,
          0.06753450632095337,
          -0.588979959487915,
          0.20621131360530853,
          -1.2830191850662231,
          0.0741238072514534,
          -0.0481281578540802,
          -0.15329229831695557,
          -0.5547267198562622,
          0.747272789478302,
          0.16489680111408234,
          0.30854085087776184,
          -0.14729560911655426,
          -0.2284930795431137,
          -0.019788414239883423,
          -0.1356472373008728,
          0.15688985586166382,
          -0.4366064667701721,
          -0.6502943634986877,
          -0.35108667612075806,
          0.13049902021884918,
          0.1702599823474884,
          -1.1613909006118774,
          -0.07220287621021271,
          0.271660715341568,
          -0.4399047791957855,
          0.5864921808242798,
          1.4415314197540283,
          -0.3218501806259155,
          0.12247875332832336,
          0.4284685552120209,
          -0.18923257291316986,
          0.1405423879623413,
          0.15677280724048615,
          -1.0763967037200928,
          0.5093562602996826,
          0.5650851130485535,
          -0.056739985942840576,
          -0.7220644950866699,
          -0.18169602751731873,
          0.28898027539253235,
          -0.14246836304664612,
          -0.0027920117136090994,
          0.07096380740404129,
          0.3053356409072876,
          0.21038086712360382,
          -0.6267167925834656,
          -0.036835677921772,
          -0.5816985964775085,
          -0.5254008769989014,
          -0.15126556158065796,
          -0.31053662300109863,
          0.5923600792884827,
          -0.07357612997293472,
          1.210738182067871,
          0.5061579942703247,
          -0.42581263184547424,
          -0.007544832769781351,
          -0.16643013060092926,
          -0.17435289919376373,
          0.06470835953950882,
          0.42510831356048584,
          -0.47700661420822144,
          -0.7136942744255066,
          0.2241990864276886,
          -0.42529138922691345,
          -0.5943590402603149,
          -0.6365305781364441,
          -0.05182621255517006,
          -0.4716552197933197,
          -0.028463946655392647,
          1.040514349937439,
          0.5377189517021179,
          0.22178371250629425,
          0.8107556700706482,
          1.0086886882781982,
          -0.3840128779411316,
          0.8200656771659851,
          0.35868966579437256,
          0.5892196297645569,
          -0.49356287717819214,
          0.4460718631744385,
          -0.4332408905029297,
          -0.1304585188627243,
          0.11195716261863708,
          0.4605138599872589,
          -0.2823493182659149,
          0.2024170458316803,
          -0.3539148271083832,
          -0.14790938794612885,
          0.1853383630514145,
          -0.6826841235160828,
          0.028729310259222984,
          0.21733559668064117,
          0.2268754243850708,
          0.21607747673988342,
          0.2817222774028778,
          -0.4256068468093872,
          -0.21021433174610138,
          1.4078948497772217,
          -0.12320199608802795,
          -0.11034061014652252,
          0.12893792986869812,
          0.3806856870651245,
          0.48634183406829834,
          -1.1414620876312256,
          -0.6684215068817139,
          -0.062368471175432205,
          -0.016286637634038925,
          -0.01744542457163334,
          -0.05380869656801224,
          -0.8272806406021118,
          0.21070754528045654,
          -0.30324995517730713,
          0.9904593825340271,
          -0.08840120583772659,
          -0.48648613691329956,
          -0.8560711741447449,
          0.8596305251121521,
          -0.19415073096752167,
          0.18974757194519043,
          -0.051615577191114426,
          -0.6266241669654846
        ]
      },
      "forgetHidden": {
        "rows": 20,
        "columns": 20,
        "weights": [
          0.6353411674499512,
          0.46358153223991394,
          0.231046661734581,
          0.3021731972694397,
          0.12909789383411407,
          0.13917860388755798,
          -0.3831276595592499,
          0.17835092544555664,
          0.17137987911701202,
          0.23898780345916748,
          -0.27817779779434204,
          -0.004031602293252945,
          0.4939268231391907,
          0.22237104177474976,
          0.055699050426483154,
          0.10561942309141159,
          -0.08038634806871414,
          -0.11834733933210373,
          -0.5547695159912109,
          -0.1510346233844757,
          -1.396514654159546,
          -0.20387569069862366,
          -0.5659099221229553,
          0.422700434923172,
          -0.19784173369407654,
          0.2564784586429596,
          0.41430363059043884,
          0.34883686900138855,
          -0.05533856526017189,
          -0.18214483559131622,
          0.16771426796913147,
          0.2293033003807068,
          -0.038943734019994736,
          -0.38673216104507446,
          0.011245260946452618,
          -0.13371168076992035,
          -0.2964934706687927,
          -0.10326890647411346,
          0.11993304640054703,
          0.14082132279872894,
          -0.22440209984779358,
          -0.08798396587371826,
          -0.33691513538360596,
          -0.03183092921972275,
          0.31015679240226746,
          0.19439922273159027,
          -0.17854924499988556,
          0.30024898052215576,
          -0.23800905048847198,
          0.22096829116344452,
          -0.02042870968580246,
          0.1745682954788208,
          -0.24303275346755981,
          -0.06803461909294128,
          0.16597789525985718,
          0.01764202117919922,
          0.6069974303245544,
          0.13566219806671143,
          -0.1402471363544464,
          -0.4549516439437866,
          0.9354680776596069,
          -0.47618842124938965,
          0.028860704973340034,
          -0.2670717239379883,
          0.276843398809433,
          -0.033284060657024384,
          -0.30256351828575134,
          -0.14549028873443604,
          -0.620550811290741,
          -0.4601064622402191,
          -0.4299302399158478,
          -0.003539467230439186,
          -0.4580570161342621,
          0.5452520847320557,
          -0.4652447998523712,
          0.43291938304901123,
          -0.07731778919696808,
          0.16586187481880188,
          -0.12685726583003998,
          -0.17875345051288605,
          0.6454834938049316,
          0.2113773226737976,
          0.04736446216702461,
          -0.5378540754318237,
          -0.4980165958404541,
          0.0032624180894345045,
          0.3071686625480652,
          -0.7679084539413452,
          0.41081202030181885,
          0.03611384332180023,
          0.13558429479599,
          -0.23841841518878937,
          -0.15920838713645935,
          -0.047363732010126114,
          -0.19839687645435333,
          0.02383805252611637,
          -0.23276203870773315,
          -0.01310746744275093,
          0.02610945515334606,
          0.05642159655690193,
          -0.9813163876533508,
          -0.5474734306335449,
          0.5963234305381775,
          -0.4526481628417969,
          -0.54375159740448,
          0.17188230156898499,
          -0.6021457314491272,
          0.1842360645532608,
          -0.0683179721236229,
          -0.004065514076501131,
          0.4868600368499756,
          0.05526730418205261,
          0.5597472190856934,
          -0.03609929606318474,
          0.40609320998191833,
          0.11089446395635605,
          -0.021700095385313034,
          0.1826346218585968,
          0.17617902159690857,
          -0.30068108439445496,
          -0.7737942337989807,
          0.44832274317741394,
          0.17355477809906006,
          0.07698902487754822,
          1.186574935913086,
          0.0989115834236145,
          -0.19743001461029053,
          0.27443233132362366,
          -0.1490219533443451,
          -0.00021185931109357625,
          0.05415242537856102,
          -0.291878879070282,
          0.3051360547542572,
          -0.043491069227457047,
          0.08887630701065063,
          0.011042376980185509,
          -0.010629391297698021,
          0.036927781999111176,
          -0.034356266260147095,
          -0.05856173485517502,
          -0.2989598512649536,
          -0.4174050986766815,
          -0.20573042333126068,
          0.031007062643766403,
          -0.3696562647819519,
          0.500787615776062,
          -0.5472093224525452,
          -0.6088652610778809,
          0.19411855936050415,
          -0.16856026649475098,
          -0.8336644172668457,
          0.4607866406440735,
          0.08055300265550613,
          -0.060650359839200974,
          0.21670754253864288,
          -0.563068151473999,
          -0.16473308205604553,
          0.579439103603363,
          -0.12823358178138733,
          -0.1624375283718109,
          0.40820014476776123,
          -0.019894501194357872,
          -0.08001945167779922,
          -0.5775070786476135,
          -0.04708375781774521,
          0.2689012885093689,
          -0.6128024458885193,
          0.3817392885684967,
          0.13840168714523315,
          0.21755748987197876,
          -0.05844152718782425,
          -0.17667457461357117,
          -0.162307471036911,
          0.23263302445411682,
          -0.02429181896150112,
          -0.09629001468420029,
          0.022508472204208374,
          0.4086434245109558,
          -0.6037362217903137,
          -0.2982565760612488,
          0.558560848236084,
          -0.19644728302955627,
          -0.2818012237548828,
          0.4196350872516632,
          0.5835458040237427,
          0.06129459664225578,
          0.7089884877204895,
          -0.06392229348421097,
          -0.17592939734458923,
          0.11216738075017929,
          0.27458152174949646,
          0.4130292236804962,
          -0.7182121872901917,
          0.3727545440196991,
          0.07768836617469788,
          -0.1785511076450348,
          -0.1288686990737915,
          0.055213090032339096,
          0.013189387507736683,
          0.4128597676753998,
          0.38625091314315796,
          0.7926389575004578,
          0.7585200667381287,
          0.25678083300590515,
          -0.10565604269504547,
          0.1321483850479126,
          -1.3407559394836426,
          0.46519073843955994,
          -0.06296633183956146,
          0.2659321427345276,
          -0.4208829402923584,
          -0.13648690283298492,
          0.6705700159072876,
          0.4357129633426666,
          -0.5656937956809998,
          0.4586634933948517,
          -0.24170610308647156,
          0.06764636933803558,
          -0.4160640239715576,
          -0.3260025978088379,
          0.572665810585022,
          0.21871377527713776,
          0.4720434844493866,
          0.13158342242240906,
          -0.2640009820461273,
          -0.12202881276607513,
          -0.6092004179954529,
          -0.06619307398796082,
          0.28457313776016235,
          -0.07718424499034882,
          -0.20363260805606842,
          0.1263752579689026,
          1.2797259092330933,
          -0.06670594215393066,
          -0.15625527501106262,
          0.057053398340940475,
          0.038264788687229156,
          -0.6272017359733582,
          -0.011960223317146301,
          -0.09890830516815186,
          1.273450255393982,
          -0.4037289619445801,
          -0.2840625047683716,
          0.09775669872760773,
          -0.11687188595533371,
          -0.43535080552101135,
          0.8646246790885925,
          0.14613904058933258,
          0.15814189612865448,
          0.06966515630483627,
          -0.05624368414282799,
          -0.32212480902671814,
          0.34907791018486023,
          0.10844971984624863,
          0.2586686909198761,
          0.4853894114494324,
          0.24063719809055328,
          0.12368615716695786,
          0.2916772961616516,
          0.41312408447265625,
          0.3924889862537384,
          0.3727491497993469,
          -0.12010609358549118,
          0.21107764542102814,
          0.45602932572364807,
          0.04953933134675026,
          0.1742369830608368,
          -0.18168342113494873,
          0.19212661683559418,
          0.20019285380840302,
          -0.06615178287029266,
          0.2899395823478699,
          -0.2700248658657074,
          0.35787832736968994,
          -0.34903958439826965,
          -0.08320007473230362,
          0.0007046357495710254,
          0.1577695608139038,
          -0.06812100857496262,
          0.24082781374454498,
          -0.14119599759578705,
          0.5660980939865112,
          0.6706014275550842,
          0.17544369399547577,
          0.12318232655525208,
          -0.460340678691864,
          -0.3350928723812103,
          0.05891282111406326,
          0.34668901562690735,
          0.2765865623950958,
          -0.3447818458080292,
          0.01599029079079628,
          -0.42907723784446716,
          0.09760519862174988,
          -0.156474307179451,
          0.17386189103126526,
          -0.10005014389753342,
          -0.17161603271961212,
          0.1928161233663559,
          0.22046564519405365,
          1.2166804075241089,
          0.8321930766105652,
          -0.00039565269253216684,
          0.040845826268196106,
          -0.1520550549030304,
          -0.14852289855480194,
          -0.6074352860450745,
          -0.11433365195989609,
          0.12541928887367249,
          -0.16986487805843353,
          0.017805295065045357,
          -0.12632420659065247,
          0.11582205444574356,
          0.3149736225605011,
          -0.1451403796672821,
          -0.517749011516571,
          -0.14795787632465363,
          0.08392873406410217,
          -0.0032477863132953644,
          0.19531072676181793,
          -0.5024845600128174,
          -0.17386066913604736,
          -0.02032751403748989,
          0.3097072243690491,
          -0.6436710953712463,
          -0.0572645403444767,
          0.6291812658309937,
          0.08802715688943863,
          -0.3936147689819336,
          0.2716754972934723,
          0.3126699924468994,
          0.0028891467954963446,
          0.896115779876709,
          0.05058835819363594,
          -0.03079221397638321,
          -0.49542275071144104,
          -0.008425821550190449,
          0.1559491604566574,
          0.46006128191947937,
          -0.16258805990219116,
          0.057204704731702805,
          -0.12030823528766632,
          0.04630095139145851,
          0.2572100758552551,
          0.5302246809005737,
          0.049525242298841476,
          0.37840741872787476,
          0.2273714244365692,
          -0.40991905331611633,
          -0.1388317197561264,
          -0.09827727824449539,
          0.959080159664154,
          -0.012639076448976994,
          -0.12600265443325043,
          -0.0632161870598793,
          -0.36963704228401184,
          0.23272337019443512,
          0.05329126492142677,
          -0.16527804732322693,
          -0.03297651186585426,
          0.8087795972824097,
          0.007994595915079117,
          -0.27269425988197327,
          0.08571143448352814,
          0.7911339998245239,
          0.3388037383556366,
          0.5763948559761047,
          -0.02847609855234623,
          0.05551201477646828,
          0.050947196781635284,
          -0.0473528727889061,
          -0.019559621810913086,
          -0.44223111867904663,
          0.27272653579711914,
          -0.1370185911655426,
          -0.21425576508045197,
          -0.046665843576192856,
          0.3202235996723175,
          -0.29851382970809937,
          0.29210880398750305,
          0.0632004365324974,
          -0.378351092338562,
          -0.01490028016269207,
          0.07038456201553345,
          -0.4571194648742676,
          -1.2463306188583374,
          0.43369099497795105,
          0.2892879843711853,
          0.31719282269477844,
          0.32432445883750916,
          0.20978914201259613,
          -0.5367867350578308,
          -0.1630813479423523,
          -0.22294102609157562,
          -0.1522708535194397,
          -0.21911470592021942,
          0.676714301109314,
          0.490450382232666,
          -0.7060649394989014,
          0.4619375169277191
        ]
      },
      "forgetBias": {
        "rows": 20,
        "columns": 1,
        "weights": [
          0,
          0,
          0,
          0,
          0,
          0,
          0,
          0,
          0,
          0,
          0,
          0,
          0,
          0,
          0,
          0,
          0,
          0,
          0,
          0
        ]
      },
      "outputMatrix": {
        "rows": 20,
        "columns": 20,
        "weights": [
          0.1943141222000122,
          0.059937041252851486,
          0.015691569074988365,
          -0.052402857691049576,
          0.11586008965969086,
          -0.017806580290198326,
          0.16161368787288666,
          -0.39985689520835876,
          0.364664763212204,
          0.013991426676511765,
          0.0999397560954094,
          -0.3032533526420593,
          0.22263161838054657,
          -0.27433085441589355,
          0.4639699459075928,
          -0.38478443026542664,
          0.24470581114292145,
          -0.5061968564987183,
          0.1484294831752777,
          -0.343932569026947,
          0.6641061902046204,
          -0.6810895204544067,
          0.5988786816596985,
          -1.962613821029663,
          -0.5558933019638062,
          -2.4305131435394287,
          0.09260208904743195,
          0.2812483310699463,
          0.33951669931411743,
          0.025094300508499146,
          0.40795397758483887,
          -0.746651291847229,
          -0.9946278929710388,
          -0.17601332068443298,
          1.347907304763794,
          -0.11183694005012512,
          -0.20966613292694092,
          -0.12054762244224548,
          2.100996971130371,
          -0.08941849321126938,
          0.19073253870010376,
          0.7222447395324707,
          -0.265092134475708,
          -0.06779319792985916,
          0.16266870498657227,
          -0.19958311319351196,
          0.038082800805568695,
          -0.44528549909591675,
          -0.06697355955839157,
          -1.213250756263733,
          -0.06743600219488144,
          0.3525424301624298,
          0.28705155849456787,
          -0.08489697426557541,
          0.15027394890785217,
          -0.26656267046928406,
          0.2062300145626068,
          -0.3344936668872833,
          0.06212976947426796,
          -0.4035228192806244,
          0.33270204067230225,
          0.55837082862854,
          -0.17307671904563904,
          -2.2062888145446777,
          1.2254829406738281,
          1.1661429405212402,
          1.4737375974655151,
          -0.5878725051879883,
          -0.25693240761756897,
          -0.16967521607875824,
          0.23221933841705322,
          0.027550961822271347,
          0.8460425734519958,
          -1.8344144821166992,
          0.6412665843963623,
          0.5083150863647461,
          -0.440788596868515,
          0.30766886472702026,
          0.38461601734161377,
          -0.3496999442577362,
          0.1334162950515747,
          0.5880425572395325,
          0.8829613924026489,
          -1.925309419631958,
          0.306830495595932,
          0.5366241931915283,
          0.10257231444120407,
          -0.15122295916080475,
          -1.809719204902649,
          1.0069873332977295,
          -0.9901904463768005,
          -0.706364631652832,
          0.4923133850097656,
          -1.0791020393371582,
          0.8877796530723572,
          0.884221613407135,
          0.847083568572998,
          1.2776161432266235,
          -0.434993714094162,
          -1.343604326248169,
          0.17577700316905975,
          -0.43442338705062866,
          -1.0924590826034546,
          -0.33885684609413147,
          -0.9136044383049011,
          -0.20375418663024902,
          -0.4189724326133728,
          0.1887475550174713,
          -0.3617010712623596,
          -0.2636205554008484,
          -0.002218601293861866,
          1.3284395933151245,
          -0.1566586047410965,
          -0.303477019071579,
          -0.19151178002357483,
          0.36918434500694275,
          -0.8259039521217346,
          -0.1732218861579895,
          0.0269604679197073,
          -0.4322687089443207,
          0.10707110911607742,
          0.11920097470283508,
          -0.048474423587322235,
          0.2193298637866974,
          0.5674334168434143,
          -0.21987469494342804,
          0.16430887579917908,
          -1.2467515468597412,
          0.1484709084033966,
          -0.2996957302093506,
          -0.0701061263680458,
          0.16701215505599976,
          -0.35146456956863403,
          -1.064579963684082,
          0.4829704463481903,
          -0.8126270174980164,
          -0.3879553973674774,
          -0.12983466684818268,
          0.03623364865779877,
          -0.1935070902109146,
          0.33208608627319336,
          0.304547518491745,
          0.1489456295967102,
          -2.919802188873291,
          -0.684043288230896,
          -0.6859552264213562,
          1.0909255743026733,
          0.2372926026582718,
          -0.044120702892541885,
          -0.3270794153213501,
          0.7050774097442627,
          -0.9546664357185364,
          0.969761312007904,
          -0.7101284861564636,
          1.076928973197937,
          0.12834234535694122,
          -0.5039028525352478,
          -0.34674543142318726,
          1.2225885391235352,
          0.8244655728340149,
          0.6666311621665955,
          0.004241813439875841,
          -0.031118523329496384,
          0.40499842166900635,
          0.3643156588077545,
          -1.1787441968917847,
          0.5386017560958862,
          -0.21655745804309845,
          0.6782839894294739,
          -0.32974424958229065,
          -0.18215635418891907,
          -0.8943528532981873,
          1.9043372869491577,
          0.12431906163692474,
          -0.22459924221038818,
          0.0016165290726348758,
          -0.2362486869096756,
          -0.31403377652168274,
          1.5711522102355957,
          -0.4865776598453522,
          0.6406356692314148,
          -0.22476428747177124,
          -0.28574904799461365,
          -1.2864854335784912,
          0.787136971950531,
          -0.4760860800743103,
          1.102593183517456,
          -0.10986066609621048,
          -1.153050184249878,
          0.400874525308609,
          0.015663569793105125,
          -0.3696121871471405,
          -0.008045833557844162,
          -0.5753464698791504,
          0.2799385190010071,
          0.4859476387500763,
          0.7851222157478333,
          -0.7295175790786743,
          1.2179696559906006,
          -0.46174126863479614,
          0.8803162574768066,
          -0.8001313209533691,
          -0.3444472849369049,
          -1.0123474597930908,
          -0.28541436791419983,
          0.2645471692085266,
          -0.6262115836143494,
          -0.09801772981882095,
          -0.06521765142679214,
          -0.07529230415821075,
          -0.8868094682693481,
          -0.3000873625278473,
          0.6240549087524414,
          -0.5122541785240173,
          2.0294106006622314,
          -0.44013282656669617,
          0.2907748520374298,
          -0.42459747195243835,
          0.8478319048881531,
          -0.5624460577964783,
          0.683728814125061,
          0.8063985705375671,
          -0.007161519955843687,
          -0.8979160785675049,
          -0.06488179415464401,
          -0.6732773780822754,
          -0.6489350199699402,
          -0.08973962068557739,
          0.30534079670906067,
          -0.11280784755945206,
          0.03936728090047836,
          -1.1581165790557861,
          1.4012119770050049,
          0.06190463528037071,
          1.116301417350769,
          -0.18113914132118225,
          0.36132311820983887,
          -0.4949139356613159,
          2.7617950439453125,
          -0.011717398650944233,
          -0.06463044136762619,
          -0.848045825958252,
          0.17114970088005066,
          -0.44573020935058594,
          0.6466576457023621,
          -0.6758778095245361,
          0.7500715851783752,
          -0.7901841998100281,
          -0.019414251670241356,
          -0.3740100860595703,
          0.20223431289196014,
          0.020360857248306274,
          -0.5944267511367798,
          -0.2606987953186035,
          0.25700050592422485,
          -0.7565162181854248,
          0.45870906114578247,
          0.338844895362854,
          0.19230599701404572,
          -0.4149574637413025,
          0.78339684009552,
          -0.23166459798812866,
          -0.2081003040075302,
          -0.5701040029525757,
          0.7457107901573181,
          -0.19156505167484283,
          0.7178124189376831,
          -0.12153995037078857,
          -0.07926902174949646,
          -0.011016559787094593,
          0.07601485401391983,
          0.10263659060001373,
          -0.002591534284874797,
          -0.3616277575492859,
          0.5075496435165405,
          -1.0159918069839478,
          -0.27785131335258484,
          -0.14717210829257965,
          0.2989169657230377,
          -1.90524423122406,
          -0.005826771259307861,
          0.2494024932384491,
          -0.16141921281814575,
          -0.11560679227113724,
          0.13739752769470215,
          -0.11480741947889328,
          0.337703675031662,
          -0.09711632132530212,
          -0.0398239940404892,
          -0.16823454201221466,
          -0.012427562847733498,
          -0.22006462514400482,
          0.12476756423711777,
          -0.2396266758441925,
          -0.025937529280781746,
          -0.1440456062555313,
          -0.01153838261961937,
          0.04535211622714996,
          0.12124072760343552,
          -0.5910435914993286,
          0.2717440128326416,
          0.4625281095504761,
          0.2738826870918274,
          0.4249172508716583,
          -0.04236382618546486,
          -0.8131354451179504,
          -0.24451449513435364,
          -1.036027431488037,
          1.0548022985458374,
          -0.792188823223114,
          0.09923283755779266,
          -0.03659629821777344,
          1.7701873779296875,
          0.1473224014043808,
          0.510231614112854,
          -0.5697462558746338,
          0.6346593499183655,
          -0.25118738412857056,
          2.686691999435425,
          -0.22107848525047302,
          0.027854731306433678,
          -0.2358887940645218,
          -0.4434531629085541,
          0.037923019379377365,
          0.08838038891553879,
          0.008155924268066883,
          -0.13790097832679749,
          0.16922898590564728,
          0.17739558219909668,
          -0.000804313865955919,
          0.17041970789432526,
          -0.005957112181931734,
          0.025101756677031517,
          0.07745543122291565,
          0.06574806571006775,
          -0.2891386151313782,
          -0.016839267686009407,
          -0.28292202949523926,
          0.06908974796533585,
          0.1195208877325058,
          -0.06812532991170883,
          0.03249388188123703,
          0.29817482829093933,
          0.15006966888904572,
          -0.9099228382110596,
          -0.764451801776886,
          0.24636654555797577,
          -2.187960624694824,
          -1.1582244634628296,
          0.01484254002571106,
          -0.03305986523628235,
          -0.5359634757041931,
          -0.046929288655519485,
          -0.45207977294921875,
          0.11541862040758133,
          -0.5333409309387207,
          -0.11976652592420578,
          0.11411457508802414,
          1.2360974550247192,
          -0.13552804291248322,
          0.04646000266075134,
          0.23720324039459229,
          -0.33271706104278564,
          -0.9896512627601624,
          0.8440303802490234,
          0.18808075785636902,
          0.5308340787887573,
          0.11445047706365585,
          -0.28734076023101807,
          0.3686366677284241,
          -0.19391369819641113,
          -0.9166565537452698,
          -0.08519449830055237,
          -2.3583879470825195,
          -0.6408178806304932,
          1.2621395587921143,
          0.4847206473350525,
          0.1498977392911911,
          0.07798447459936142,
          0.15661752223968506,
          -0.23558934032917023,
          0.8366032242774963,
          0.4527119994163513,
          -0.47636666893959045,
          0.22746601700782776,
          -1.011855125427246,
          1.0179197788238525,
          0.5342084765434265,
          -0.724577009677887,
          0.1595982164144516,
          0.5554085969924927,
          -1.2808575630187988,
          -1.0511325597763062,
          -1.202796220779419,
          1.5419241189956665,
          -0.4613516330718994,
          0.006932883057743311,
          -0.7935834527015686,
          0.9399939775466919,
          -0.37954050302505493
        ]
      },
      "outputHidden": {
        "rows": 20,
        "columns": 20,
        "weights": [
          0.3477650284767151,
          -0.05976041406393051,
          -0.05564972385764122,
          -0.15971899032592773,
          -0.2804621458053589,
          0.30060166120529175,
          -0.1518707126379013,
          -0.8835859894752502,
          1.9534187316894531,
          0.13921363651752472,
          -0.20894959568977356,
          2.417081117630005,
          0.021090665832161903,
          0.5525298714637756,
          -0.3040790557861328,
          -0.10527580231428146,
          -0.4737855792045593,
          0.2659095823764801,
          -0.3622921407222748,
          0.22049777209758759,
          -0.7049695253372192,
          1.881692886352539,
          -0.2085873782634735,
          -0.5042518377304077,
          -0.7313486933708191,
          1.4299044609069824,
          -0.36801034212112427,
          0.1320195198059082,
          -0.362747460603714,
          0.42523902654647827,
          0.03001958690583706,
          -0.7053462862968445,
          -0.1619524359703064,
          0.24289757013320923,
          0.0037252134643495083,
          0.6354652047157288,
          -0.1601799875497818,
          -0.11625363677740097,
          -0.32870736718177795,
          -0.05934654548764229,
          -0.41459009051322937,
          1.4333055019378662,
          0.3830455541610718,
          -0.26261499524116516,
          0.3049856126308441,
          -0.6605826020240784,
          1.8320904970169067,
          0.24652929604053497,
          2.1848461627960205,
          1.3099089860916138,
          -0.38636159896850586,
          1.0778073072433472,
          1.1886714696884155,
          0.6611312627792358,
          -1.3721163272857666,
          -0.6665741205215454,
          0.11711189895868301,
          0.5408591032028198,
          -0.021419212222099304,
          1.0752127170562744,
          -0.6904263496398926,
          -0.3095519244670868,
          0.69692063331604,
          0.1269412487745285,
          -0.4093467891216278,
          0.1376231610774994,
          0.386929988861084,
          0.06344952434301376,
          0.47863343358039856,
          0.44153037667274475,
          0.08166901767253876,
          0.6167123317718506,
          -0.36591529846191406,
          0.07921437919139862,
          0.1261366307735443,
          -0.34084567427635193,
          0.2647987902164459,
          -0.27358734607696533,
          -0.5820600986480713,
          -0.05987832695245743,
          -0.8337608575820923,
          -0.073820099234581,
          -1.2234222888946533,
          -1.50562584400177,
          0.3445563316345215,
          -0.8083405494689941,
          -0.710960865020752,
          0.8506666421890259,
          0.14452293515205383,
          0.47337427735328674,
          -0.5431757569313049,
          0.33463674783706665,
          -0.651523768901825,
          -0.08124542236328125,
          -0.32257047295570374,
          -1.1921635866165161,
          -0.12334255874156952,
          0.8670209050178528,
          -0.6450121402740479,
          0.8284872770309448,
          0.3431496024131775,
          -0.014431261457502842,
          -0.05845460295677185,
          -0.07756128162145615,
          -0.23410576581954956,
          0.4108555316925049,
          -0.5066683888435364,
          -0.7641629576683044,
          2.5063319206237793,
          0.2125941812992096,
          -0.2761218547821045,
          2.3014423847198486,
          0.4100188910961151,
          0.16635142266750336,
          -0.15540215373039246,
          -0.38474729657173157,
          -0.24433191120624542,
          0.24623404443264008,
          -0.3869699239730835,
          0.2980039417743683,
          0.03724668174982071,
          0.1435132473707199,
          0.132378488779068,
          -0.329507976770401,
          0.0583210363984108,
          -0.29247260093688965,
          0.24800370633602142,
          -0.8718005418777466,
          1.6080032587051392,
          0.23626500368118286,
          -0.13906922936439514,
          3.1786038875579834,
          0.6717424988746643,
          0.5390722751617432,
          -0.34490081667900085,
          -0.7124074697494507,
          -0.28776124119758606,
          0.41892609000205994,
          -0.3232542872428894,
          0.35331252217292786,
          1.6165715456008911,
          0.915197491645813,
          0.3404621481895447,
          -0.18754245340824127,
          -0.030157092958688736,
          -0.636461079120636,
          -0.49427223205566406,
          -0.21859438717365265,
          0.42272499203681946,
          0.29651907086372375,
          -0.049868594855070114,
          0.3933234214782715,
          -0.20272725820541382,
          -0.07215679436922073,
          -0.44531771540641785,
          -0.16770978271961212,
          -0.38004422187805176,
          0.19640196859836578,
          -0.3876786231994629,
          0.20914015173912048,
          0.4365617334842682,
          -0.7673249244689941,
          -0.146589457988739,
          -0.35968977212905884,
          -0.3678227663040161,
          0.3224494159221649,
          0.24060645699501038,
          -0.19726873934268951,
          0.3484329879283905,
          0.40872815251350403,
          -0.20513588190078735,
          0.4272669553756714,
          -0.19949457049369812,
          0.680307149887085,
          -0.45138853788375854,
          -0.11661823093891144,
          -0.20150938630104065,
          0.7368581295013428,
          -0.7790257334709167,
          0.4666709899902344,
          -0.14540302753448486,
          -1.1319911479949951,
          -0.733222246170044,
          -0.42381948232650757,
          0.43631359934806824,
          -0.02142230235040188,
          0.9404526352882385,
          0.2332679182291031,
          0.2642839550971985,
          0.19334715604782104,
          -0.15405230224132538,
          -0.07230935990810394,
          0.2580108642578125,
          0.03738495334982872,
          -0.24168437719345093,
          -0.17275488376617432,
          0.18716537952423096,
          0.6594353318214417,
          -0.25809812545776367,
          0.0827152356505394,
          0.9070057272911072,
          -1.4599279165267944,
          -0.23021167516708374,
          -0.7929069399833679,
          0.23878619074821472,
          -0.061705511063337326,
          0.3270566463470459,
          0.0023793247528374195,
          -0.06901448220014572,
          -0.046959321945905685,
          -0.19766156375408173,
          -0.15410244464874268,
          0.49584054946899414,
          0.03475179523229599,
          -0.12038455158472061,
          0.2015320211648941,
          0.6784098148345947,
          0.28590214252471924,
          0.03762741759419441,
          0.33632922172546387,
          0.9361692070960999,
          -0.7299385666847229,
          -0.25096938014030457,
          -0.2315741926431656,
          0.477671355009079,
          -0.19221769273281097,
          -0.38923928141593933,
          -0.17773403227329254,
          0.7314218878746033,
          0.15614715218544006,
          -0.4858618974685669,
          0.10125772655010223,
          0.11467093229293823,
          -0.017121529206633568,
          -0.31552401185035706,
          -0.6334480047225952,
          -0.1455417275428772,
          0.6207599639892578,
          -0.5608803033828735,
          0.12074009329080582,
          0.15365852415561676,
          -0.16666139662265778,
          -0.2953934371471405,
          -0.7241085767745972,
          0.28428539633750916,
          -0.23874995112419128,
          -0.37412726879119873,
          0.384522408246994,
          2.3781347274780273,
          0.38860175013542175,
          -0.49968114495277405,
          -0.7709968686103821,
          -0.6062824130058289,
          1.220855712890625,
          -0.6930353045463562,
          -2.722991704940796,
          -1.541566014289856,
          0.5130698680877686,
          0.07414059340953827,
          0.057316794991493225,
          0.18131983280181885,
          -0.8564167022705078,
          -0.4128924012184143,
          -0.0877072885632515,
          -0.06977352499961853,
          0.12892480194568634,
          0.6606064438819885,
          0.11755309998989105,
          0.48652589321136475,
          0.170426145195961,
          -0.11603286862373352,
          0.5646065473556519,
          -0.24732372164726257,
          0.3019455075263977,
          -0.36283671855926514,
          -0.011421548202633858,
          -0.0984375923871994,
          0.13714484870433807,
          0.13577239215373993,
          0.5846526026725769,
          0.954877495765686,
          -0.029116574674844742,
          -0.1384647637605667,
          -0.35634422302246094,
          -0.2456064224243164,
          -0.22396010160446167,
          0.14733412861824036,
          -1.5613374710083008,
          1.534903645515442,
          0.07304620742797852,
          -0.10556852072477341,
          1.6869205236434937,
          0.13223561644554138,
          0.6286348104476929,
          -0.33263397216796875,
          -0.4036400616168976,
          -0.8460068106651306,
          0.3749122619628906,
          -0.3252851366996765,
          0.31957337260246277,
          0.5489767789840698,
          1.1270601749420166,
          -0.5221245288848877,
          0.595702052116394,
          -0.24526146054267883,
          0.11803052574396133,
          -0.019616369158029556,
          -0.24795757234096527,
          0.2073327600955963,
          0.32791829109191895,
          -0.2640613615512848,
          -0.12436073273420334,
          -0.7289141416549683,
          0.3001689612865448,
          -0.33835116028785706,
          -0.17753076553344727,
          -0.08591019362211227,
          1.058454155921936,
          -0.39700624346733093,
          0.3624593913555145,
          0.4625205099582672,
          0.6385674476623535,
          0.1849863976240158,
          -1.1012024879455566,
          -0.18939049541950226,
          0.15138579905033112,
          0.44302794337272644,
          -0.7445051670074463,
          1.4058353900909424,
          1.6929895877838135,
          -0.8737355470657349,
          1.1454592943191528,
          -0.3083774745464325,
          1.2778054475784302,
          -1.024026870727539,
          -1.469460129737854,
          -0.6640039682388306,
          1.266149878501892,
          -0.9315444827079773,
          1.298385739326477,
          0.33535751700401306,
          -0.2945059835910797,
          0.5820126533508301,
          0.16321483254432678,
          -0.38861602544784546,
          0.01354167889803648,
          -0.3784584701061249,
          0.14736945927143097,
          0.38932985067367554,
          0.24620109796524048,
          -0.49391162395477295,
          0.6260068416595459,
          0.3342830538749695,
          0.7673137187957764,
          -1.4244614839553833,
          -0.8943100571632385,
          -1.257448673248291,
          0.15728022158145905,
          0.6362583041191101,
          -0.052781201899051666,
          -0.7857130169868469,
          -0.26118406653404236,
          0.8093165755271912,
          -1.5014078617095947,
          0.28703680634498596,
          0.11460426449775696,
          -0.4299261271953583,
          -1.0798883438110352,
          0.6620950102806091,
          1.231623888015747,
          -0.49998489022254944,
          0.000036368284781929106,
          0.8653915524482727,
          0.3836957514286041,
          -0.13628198206424713,
          -0.9741101264953613,
          -0.3194969892501831,
          0.6439683437347412,
          -0.27661508321762085,
          0.7333731651306152,
          -0.09998955577611923,
          1.3590171337127686,
          -1.534699559211731,
          -0.9250222444534302,
          0.4981285035610199,
          0.315126895904541,
          0.056973591446876526,
          0.3244553804397583,
          -0.11691190302371979,
          0.29744064807891846,
          -0.07150203734636307,
          0.1225680485367775,
          -0.4413367211818695,
          0.31662020087242126,
          -0.5397124886512756,
          -0.20847493410110474,
          0.0168015006929636,
          0.39998573064804077,
          -0.27861133217811584,
          -0.25435870885849
        ]
      },
      "outputBias": {
        "rows": 20,
        "columns": 1,
        "weights": [
          -0.5013713836669922,
          0.9010629653930664,
          0.05268089845776558,
          0.8830522894859314,
          0.25679031014442444,
          0.44588232040405273,
          0.3138616383075714,
          0.015112558379769325,
          -0.7282193303108215,
          0.861108124256134,
          0.16441726684570312,
          0.4264986217021942,
          0.05565021559596062,
          0.1896524280309677,
          0.4553951919078827,
          0.09511430561542511,
          -0.13138672709465027,
          0.9213023781776428,
          0.6218453049659729,
          0.6506921648979187
        ]
      },
      "cellActivationMatrix": {
        "rows": 20,
        "columns": 20,
        "weights": [
          -0.38660162687301636,
          0.018596282228827477,
          0.10557997226715088,
          0.1027335524559021,
          0.11370999366044998,
          0.11128051578998566,
          -0.024138426408171654,
          -0.029778452590107918,
          -0.29765796661376953,
          0.058962609618902206,
          -0.02344023622572422,
          0.0807938426733017,
          -0.4365513324737549,
          0.11044996976852417,
          0.3917902410030365,
          -0.32836732268333435,
          0.12144845724105835,
          -0.35813912749290466,
          0.3906882107257843,
          0.3046404719352722,
          0.31979888677597046,
          -0.45650210976600647,
          0.3127562403678894,
          -0.4175083339214325,
          -0.15571987628936768,
          -0.22681476175785065,
          0.20058567821979523,
          -0.5449320673942566,
          0.37475359439849854,
          0.49386337399482727,
          -0.12567120790481567,
          -0.4166255593299866,
          -0.20207272469997406,
          0.9610522985458374,
          0.1378563642501831,
          0.5062440633773804,
          -0.5181512236595154,
          0.5427946448326111,
          0.19267487525939941,
          0.014123314991593361,
          0.5899531841278076,
          -0.103613942861557,
          0.18650095164775848,
          -0.894799530506134,
          0.35201436281204224,
          -0.1989791840314865,
          0.29627299308776855,
          0.07034388929605484,
          -0.031152112409472466,
          -0.11429212987422943,
          0.5423851013183594,
          -1.318597435951233,
          -0.4424794316291809,
          -0.3879668116569519,
          -0.2913361191749573,
          -0.4442973732948303,
          0.43759676814079285,
          0.3641063868999481,
          0.41338545083999634,
          -0.06127789616584778,
          -0.03912390023469925,
          -0.08502140641212463,
          0.5545057058334351,
          -0.8092859983444214,
          0.7732387781143188,
          -0.272072434425354,
          0.8101687431335449,
          -0.4380148649215698,
          -0.6091079711914062,
          0.5787211060523987,
          -0.11235648393630981,
          0.8414486050605774,
          -0.36444664001464844,
          0.02879323996603489,
          -0.5817601680755615,
          0.3226015269756317,
          -0.03150762617588043,
          0.2364935278892517,
          -0.06614559143781662,
          -0.191441610455513,
          0.04066988825798035,
          -0.19067229330539703,
          -0.009519537910819054,
          0.08867230266332626,
          -0.558837354183197,
          0.08596838265657425,
          0.19858713448047638,
          0.13152606785297394,
          -0.8862841129302979,
          -0.22410789132118225,
          -0.3443499803543091,
          -0.12754729390144348,
          0.304442822933197,
          0.7937087416648865,
          0.22544196248054504,
          0.2076191008090973,
          -0.5142401456832886,
          0.7011034488677979,
          -0.04544825479388237,
          -0.5629746317863464,
          -0.13290467858314514,
          -0.422064870595932,
          -0.43759942054748535,
          -0.06783568859100342,
          0.7843743562698364,
          1.648717999458313,
          0.1456066071987152,
          -0.5068939924240112,
          -0.3512725234031677,
          0.4249893128871918,
          -0.5763161182403564,
          -0.34965962171554565,
          -0.38394346833229065,
          0.23725517094135284,
          -0.9318667650222778,
          0.578242301940918,
          0.4554756283760071,
          -0.16680748760700226,
          0.3411222994327545,
          -0.0676538348197937,
          -0.9250160455703735,
          1.0206505060195923,
          -0.38868287205696106,
          0.10470965504646301,
          -0.10141552984714508,
          -0.8966706991195679,
          0.2785533368587494,
          -0.052351225167512894,
          -0.04767676070332527,
          -0.015090645290911198,
          -0.8599191308021545,
          0.833586573600769,
          -0.15493153035640717,
          -0.15156325697898865,
          0.6804717183113098,
          0.41473254561424255,
          -0.02272268570959568,
          0.004443171434104443,
          -0.663628339767456,
          0.4490216076374054,
          0.23277747631072998,
          -0.19168122112751007,
          -0.5934450030326843,
          0.06608199328184128,
          0.11002412438392639,
          0.5425143837928772,
          0.24397219717502594,
          0.03242027759552002,
          0.1338624507188797,
          0.2941797375679016,
          -0.11555907130241394,
          -0.0804193988442421,
          -0.2503986060619354,
          0.04225482791662216,
          0.4674929976463318,
          0.6798957586288452,
          -0.15428918600082397,
          -0.24481353163719177,
          0.27564483880996704,
          0.5584667921066284,
          0.0727139264345169,
          0.038553912192583084,
          -0.12913693487644196,
          0.08737584203481674,
          0.596079409122467,
          -0.20509296655654907,
          0.3318348228931427,
          0.2196839153766632,
          0.32540491223335266,
          -0.13856399059295654,
          0.1096331924200058,
          -0.3443395793437958,
          -0.2574644982814789,
          0.2844476103782654,
          0.5386136174201965,
          -0.16500736773014069,
          -0.1344875693321228,
          -0.07228817045688629,
          0.22534354031085968,
          -0.09372130781412125,
          0.18718183040618896,
          -0.43231886625289917,
          0.04925146698951721,
          0.21035563945770264,
          0.5253242254257202,
          0.04369229078292847,
          0.6933451294898987,
          0.01343466341495514,
          0.3824034333229065,
          -0.6943804025650024,
          0.54505854845047,
          -0.4391213655471802,
          0.2225620001554489,
          -0.4030225872993469,
          0.6885870695114136,
          0.32731565833091736,
          -0.08166330307722092,
          -0.032961949706077576,
          -0.0023713563568890095,
          0.07688659429550171,
          -0.07773330807685852,
          0.1708451211452484,
          -0.09922461956739426,
          0.5212367177009583,
          0.2670368552207947,
          -0.21404872834682465,
          -0.3832671344280243,
          -0.008985054679214954,
          -0.019829411059617996,
          -0.028597673401236534,
          -0.18015073239803314,
          0.14287924766540527,
          0.22546787559986115,
          -0.06118740141391754,
          -0.009416637942194939,
          -0.14066803455352783,
          -0.22185118496418,
          -0.20409135520458221,
          -0.09549003839492798,
          0.701603889465332,
          -0.009858197532594204,
          0.15518184006214142,
          0.5639460682868958,
          0.08195771276950836,
          0.5110460519790649,
          -0.397931307554245,
          0.23145601153373718,
          0.09365692734718323,
          -0.14039747416973114,
          -0.36747807264328003,
          0.1506388634443283,
          -0.16160911321640015,
          -0.032295890152454376,
          -0.1684349775314331,
          -0.15721319615840912,
          -0.11247418820858002,
          -0.40647056698799133,
          0.4056055247783661,
          -0.05593270808458328,
          0.16127167642116547,
          0.639259397983551,
          -0.16182969510555267,
          0.18665528297424316,
          -0.03154510632157326,
          -0.40003079175949097,
          0.07175640761852264,
          -0.7504698634147644,
          -0.1422002911567688,
          0.3676314353942871,
          -0.6323915123939514,
          0.7187333703041077,
          -0.32688093185424805,
          0.6119691133499146,
          0.00873149186372757,
          0.37317603826522827,
          -0.4649660289287567,
          -0.9173784852027893,
          -0.6943215727806091,
          -0.3406713008880615,
          0.24476543068885803,
          -0.19875454902648926,
          0.0198945514857769,
          0.23668937385082245,
          -0.2737906575202942,
          -0.27036020159721375,
          -0.4087259769439697,
          0.2087450623512268,
          -0.2165863960981369,
          -0.05798434466123581,
          0.40646085143089294,
          0.2653849422931671,
          -0.22626127302646637,
          -0.17159517109394073,
          -0.1190069243311882,
          -0.41005536913871765,
          0.05579293146729469,
          0.4937175512313843,
          -0.04637531936168671,
          0.33398911356925964,
          0.05227871984243393,
          -0.27438706159591675,
          0.7047163844108582,
          -0.12126041948795319,
          0.4573071599006653,
          0.18146398663520813,
          0.48841121792793274,
          -0.928292989730835,
          -0.13527525961399078,
          -0.20737728476524353,
          0.44591349363327026,
          0.07114241272211075,
          -0.13124611973762512,
          0.2291329950094223,
          -0.037689823657274246,
          0.3539113700389862,
          0.10823039710521698,
          0.12116716057062149,
          -0.0893116146326065,
          -0.20035971701145172,
          1.3255047798156738,
          -0.34814658761024475,
          0.22822532057762146,
          0.5372189283370972,
          -0.1376776546239853,
          -0.3172902762889862,
          0.4559133052825928,
          0.22339798510074615,
          -0.31915563344955444,
          0.24940212070941925,
          0.13921935856342316,
          -0.42457056045532227,
          0.6894485354423523,
          -0.4128483235836029,
          0.04413676634430885,
          -0.03985816240310669,
          0.41837161779403687,
          0.1759158819913864,
          0.10500461608171463,
          -0.1677609086036682,
          0.3132859170436859,
          0.09187085181474686,
          0.42212480306625366,
          0.037649303674697876,
          0.2610219717025757,
          -0.4312736690044403,
          0.74992835521698,
          0.025980398058891296,
          0.33830615878105164,
          -0.1098538190126419,
          -0.41130200028419495,
          -0.38059118390083313,
          -0.5604479312896729,
          -0.7332918643951416,
          -0.01331598311662674,
          -0.020532654598355293,
          0.5622653365135193,
          -0.08499293774366379,
          -0.1260039359331131,
          -0.5006710886955261,
          0.5292708873748779,
          -0.945514976978302,
          0.2533159852027893,
          -0.44282907247543335,
          -0.31119030714035034,
          -0.08254827558994293,
          0.19789986312389374,
          -0.6223406791687012,
          0.19428081810474396,
          0.413299560546875,
          0.148461252450943,
          -0.048769157379865646,
          0.555259108543396,
          0.5511181950569153,
          -0.6108958721160889,
          0.6186698079109192,
          0.6708865165710449,
          0.43816301226615906,
          -0.3158853352069855,
          0.22536957263946533,
          -0.03592737391591072,
          -0.5652559995651245,
          0.12788425385951996,
          -0.17673611640930176,
          0.12212646752595901,
          0.26224324107170105,
          0.3641132116317749,
          -0.3583739101886749,
          -0.08843517303466797,
          0.37297913432121277,
          -0.17241548001766205,
          0.28788328170776367,
          -0.32803815603256226,
          -0.11382069438695908,
          -0.2809920608997345,
          -0.16067948937416077,
          0.33631083369255066,
          -0.33787307143211365,
          0.1657046377658844,
          -0.31031402945518494,
          -0.06786320358514786,
          0.6204032897949219,
          0.6699309349060059,
          -0.9600101709365845,
          -0.47699791193008423,
          -0.10425544530153275,
          -0.4059799611568451,
          0.06927447766065598,
          -0.37196412682533264,
          -0.6670536994934082,
          -0.015241974964737892,
          -0.4606612026691437,
          0.776123046875,
          0.12720683217048645,
          -0.1312384158372879,
          -0.3715481758117676,
          0.10199163854122162,
          0.4273756444454193,
          0.6735756397247314,
          0.03247470781207085,
          -0.6939292550086975
        ]
      },
      "cellActivationHidden": {
        "rows": 20,
        "columns": 20,
        "weights": [
          0.2008354812860489,
          0.11111646145582199,
          -0.3764572739601135,
          -0.018974237143993378,
          -0.81598961353302,
          -0.056157391518354416,
          0.1496114581823349,
          -0.0822853073477745,
          0.1937631219625473,
          -0.16960301995277405,
          0.25650644302368164,
          0.2146446406841278,
          -0.16014721989631653,
          0.14092418551445007,
          0.11241622269153595,
          0.22658149898052216,
          0.1200103759765625,
          0.43961256742477417,
          -0.32560238242149353,
          -0.269030898809433,
          0.08630210161209106,
          -0.34854137897491455,
          -0.5038814544677734,
          0.1947186142206192,
          -0.6497108936309814,
          -0.435226708650589,
          0.41163918375968933,
          -0.2191452980041504,
          -0.4455074667930603,
          -0.1808815747499466,
          0.7302053570747375,
          -0.32438671588897705,
          -0.02662006765604019,
          -0.3618824779987335,
          0.2244015783071518,
          -0.02690199390053749,
          0.3724156618118286,
          -0.19631075859069824,
          0.23813395202159882,
          -0.29479503631591797,
          0.09764514118432999,
          0.01444956287741661,
          -0.08075723797082901,
          0.2180628478527069,
          -0.3894180357456207,
          -0.07778526842594147,
          0.397229939699173,
          0.20435482263565063,
          -0.2420865148305893,
          -0.3444036543369293,
          -0.2580426037311554,
          -0.0951930359005928,
          -0.648003101348877,
          -0.072057344019413,
          -0.14571896195411682,
          0.23867559432983398,
          0.3520178496837616,
          0.22555124759674072,
          0.21842728555202484,
          0.18639571964740753,
          0.09878285229206085,
          0.42204049229621887,
          0.3131619691848755,
          0.3453156352043152,
          -0.04813585430383682,
          -0.09503492712974548,
          1.1858603954315186,
          -0.3907743990421295,
          0.2219332903623581,
          0.0033048230689018965,
          0.7668190002441406,
          -0.12987537682056427,
          0.41545307636260986,
          -0.48632460832595825,
          0.06820530444383621,
          -0.00004714135866379365,
          -0.16807474195957184,
          0.3405134677886963,
          0.14266937971115112,
          0.19215913116931915,
          -0.20357416570186615,
          -0.1984458565711975,
          -0.49268943071365356,
          -0.06812620162963867,
          -0.23395363986492157,
          0.17725349962711334,
          -0.08084379881620407,
          0.6581873297691345,
          -0.2646351158618927,
          -0.21765416860580444,
          0.1291140466928482,
          0.3697255253791809,
          0.2584027647972107,
          -0.1762670874595642,
          0.14327099919319153,
          0.30988049507141113,
          0.1572830080986023,
          0.10840298235416412,
          0.22338555753231049,
          -0.3378693759441376,
          0.4060666561126709,
          0.05502726882696152,
          -0.7469943761825562,
          -0.24437271058559418,
          0.38834115862846375,
          -0.17407764494419098,
          0.5179855823516846,
          -0.02156379446387291,
          0.2909175455570221,
          -0.0019850076641887426,
          0.2889181077480316,
          0.46435269713401794,
          0.8427391052246094,
          0.09289611130952835,
          -0.15002059936523438,
          -0.10967019945383072,
          -0.1836351454257965,
          -0.08219975978136063,
          -0.17743106186389923,
          -0.12444085627794266,
          0.2664574980735779,
          0.043862681835889816,
          0.22126580774784088,
          -0.38961365818977356,
          0.03188630938529968,
          -0.15630128979682922,
          -0.4790584146976471,
          -0.17818081378936768,
          -0.17348197102546692,
          0.13958129286766052,
          0.1820048689842224,
          0.2443471997976303,
          0.15772688388824463,
          0.06606820970773697,
          -0.09879482537508011,
          -0.4755232334136963,
          -0.3092496693134308,
          -0.25219860672950745,
          -0.1555316001176834,
          0.23545831441879272,
          0.6970435380935669,
          -0.6807597875595093,
          -0.7606310248374939,
          -0.13269951939582825,
          -0.42484235763549805,
          0.04159526899456978,
          0.3494616746902466,
          -0.1856692135334015,
          -0.0012276971247047186,
          -0.02433287352323532,
          0.26250356435775757,
          -0.20375268161296844,
          0.5311586856842041,
          -0.18823733925819397,
          0.7061941623687744,
          0.16054335236549377,
          -0.26575523614883423,
          -0.6315324306488037,
          -0.0818718671798706,
          -0.1131168082356453,
          0.766302764415741,
          0.587734043598175,
          0.12413715571165085,
          -0.7179685235023499,
          0.17136742174625397,
          0.3814193308353424,
          0.04507903754711151,
          0.18748606741428375,
          0.28217488527297974,
          0.13412384688854218,
          0.025936497375369072,
          -0.24303771555423737,
          0.30571821331977844,
          0.2042396366596222,
          -0.1173483207821846,
          -0.1287255436182022,
          0.015267136506736279,
          0.4713120758533478,
          -0.39087727665901184,
          -0.12178527563810349,
          0.5650306344032288,
          0.001881518866866827,
          0.6367116570472717,
          0.24857380986213684,
          -0.12019216269254684,
          -0.3759714663028717,
          -0.5612215995788574,
          0.2862430214881897,
          -0.010468353517353535,
          1.0464237928390503,
          0.20317654311656952,
          0.04738740250468254,
          0.14343129098415375,
          0.5497626066207886,
          0.056022703647613525,
          -0.11016243696212769,
          -0.05909784883260727,
          -0.18114030361175537,
          0.42541322112083435,
          0.28493157029151917,
          -0.18394212424755096,
          -0.7367199659347534,
          0.25345179438591003,
          -0.016839129850268364,
          0.28082579374313354,
          -0.5183451175689697,
          0.8553153276443481,
          -0.22307981550693512,
          -0.10026302188634872,
          -0.4075479805469513,
          0.3799618184566498,
          0.12110976129770279,
          0.1718832403421402,
          -0.3943232595920563,
          -0.12538127601146698,
          -0.1997583508491516,
          0.5297899842262268,
          -0.04178880527615547,
          0.6036518812179565,
          0.060969218611717224,
          -0.23291704058647156,
          -0.140737846493721,
          0.4723885953426361,
          0.062475044280290604,
          -0.29998213052749634,
          0.16741646826267242,
          -0.05008453503251076,
          -0.33096984028816223,
          0.1513865888118744,
          -0.23545978963375092,
          -0.05872918292880058,
          -0.008556080050766468,
          0.9074848890304565,
          0.5375887751579285,
          -0.30506813526153564,
          0.07039012759923935,
          0.0041741980239748955,
          0.27945125102996826,
          -0.3480556011199951,
          0.011370018124580383,
          0.5155807733535767,
          -0.11766139417886734,
          0.4019291400909424,
          0.3448006808757782,
          0.03538959473371506,
          0.24100778996944427,
          0.5598189234733582,
          -0.02299213968217373,
          -0.20173479616641998,
          0.06184375658631325,
          0.1457919329404831,
          0.18749725818634033,
          -0.17885704338550568,
          -0.18965286016464233,
          0.5972874760627747,
          -0.21403247117996216,
          0.5979599952697754,
          0.002914745593443513,
          -0.2626856863498688,
          -0.2597981095314026,
          0.017840808257460594,
          0.4383697807788849,
          -0.047362178564071655,
          0.25053027272224426,
          0.3549904227256775,
          0.03977169841527939,
          -0.014571985229849815,
          0.1170782819390297,
          -0.10907294601202011,
          0.22403517365455627,
          -0.09411630034446716,
          -0.0002295620070071891,
          -0.043057557195425034,
          0.41829973459243774,
          -0.2616715431213379,
          0.03368622809648514,
          -0.16621576249599457,
          0.1383349746465683,
          -0.09902173280715942,
          -0.016037113964557648,
          -0.5491268038749695,
          -0.7188190817832947,
          -0.5248242020606995,
          -0.07071518898010254,
          0.12926343083381653,
          0.10209988057613373,
          0.13441649079322815,
          -0.12498313188552856,
          -0.23317080736160278,
          -0.5701063871383667,
          0.15697620809078217,
          0.1125277429819107,
          0.5873833298683167,
          -0.27043336629867554,
          -0.06496153026819229,
          -0.14399337768554688,
          0.3269163966178894,
          -0.12277287244796753,
          0.01015353575348854,
          -0.38235902786254883,
          -0.7451919913291931,
          -0.61644047498703,
          -0.10605809837579727,
          -0.22407156229019165,
          0.17857897281646729,
          -0.18684405088424683,
          0.936345100402832,
          -0.19679798185825348,
          0.030308037996292114,
          0.638741135597229,
          -0.1581651270389557,
          0.4809090793132782,
          -0.1356736421585083,
          -0.6411479711532593,
          0.4605652987957001,
          0.0267342422157526,
          -0.29442736506462097,
          -0.339310884475708,
          0.17778074741363525,
          -0.30292192101478577,
          0.11451926082372665,
          0.29239577054977417,
          -0.29362595081329346,
          -0.31538382172584534,
          -0.048029303550720215,
          0.012903008610010147,
          -0.3259873688220978,
          -0.30912691354751587,
          0.2089918851852417,
          -0.4104064106941223,
          -0.19798679649829865,
          -0.30433839559555054,
          -1.0076273679733276,
          0.014743959531188011,
          0.24346087872982025,
          -0.09731058776378632,
          -0.2141123265028,
          0.38067007064819336,
          -0.35974249243736267,
          0.026229461655020714,
          -0.004614777863025665,
          -0.3593231439590454,
          0.020934635773301125,
          0.010103985667228699,
          0.7373269200325012,
          0.1925944834947586,
          0.16859646141529083,
          0.11220848560333252,
          -0.19019678235054016,
          0.20227253437042236,
          -0.1872514933347702,
          0.3920949697494507,
          0.13359765708446503,
          -0.1946282684803009,
          -0.10127285867929459,
          -0.42298513650894165,
          0.012525263242423534,
          -0.44381338357925415,
          -0.2743948698043823,
          -0.01173815131187439,
          -0.5127065777778625,
          -0.10745827853679657,
          0.18663616478443146,
          0.22023683786392212,
          -0.6287558078765869,
          -0.19650693237781525,
          -0.26502329111099243,
          -0.010355466976761818,
          -0.0533195398747921,
          -0.04059695452451706,
          -0.009520113468170166,
          0.10387023538351059,
          -0.33090415596961975,
          0.0633169561624527,
          0.10111507773399353,
          0.10146678984165192,
          0.09584901481866837,
          -0.17042258381843567,
          0.385937362909317,
          -0.04811494052410126,
          0.2369145303964615,
          -1.2759016752243042,
          -0.16072192788124084,
          0.20501205325126648,
          -0.2674676775932312,
          -1.2458832263946533,
          0.29799801111221313,
          0.46772047877311707,
          0.5350386500358582,
          0.05596926063299179,
          0.1421700119972229,
          -0.28532105684280396,
          -0.04402286931872368,
          -0.3712712824344635,
          -0.11214940249919891,
          -0.38009899854660034,
          0.379770964384079,
          0.10985727608203888,
          -0.6266682744026184,
          -0.4741634428501129
        ]
      },
      "cellActivationBias": {
        "rows": 20,
        "columns": 1,
        "weights": [
          0.11313927173614502,
          1.0572510957717896,
          0.28425121307373047,
          -0.6409178972244263,
          0.3438868224620819,
          -0.5587329268455505,
          -0.3630213439464569,
          -0.0628708228468895,
          0.011240381747484207,
          0.8125039339065552,
          -0.13836511969566345,
          0.0911894366145134,
          0.6105310916900635,
          0.20280233025550842,
          -0.22368215024471283,
          0.02271445095539093,
          -0.20049984753131866,
          1.0639002323150635,
          -0.5262426137924194,
          0.7003505825996399
        ]
      }
    }
  ],
  "outputConnector": {
    "rows": 27,
    "columns": 20,
    "weights": [
      1.5065785646438599,
      1.1729680299758911,
      -2.5170674324035645,
      -1.0700173377990723,
      -1.419889211654663,
      5.898195743560791,
      1.516512155532837,
      -0.501457929611206,
      2.070683240890503,
      1.8174315690994263,
      -1.3390084505081177,
      1.7643183469772339,
      0.33612340688705444,
      1.38790762424469,
      -2.531581401824951,
      -0.34338992834091187,
      -0.46495410799980164,
      1.5773359537124634,
      -1.4999302625656128,
      1.3323979377746582,
      -0.583068311214447,
      -1.300812840461731,
      0.19500210881233215,
      1.7449443340301514,
      1.7969701290130615,
      0.32604876160621643,
      -2.1579747200012207,
      -0.22159594297409058,
      0.34889018535614014,
      -0.5837337374687195,
      0.05633915960788727,
      0.4269130825996399,
      2.65311336517334,
      0.11393970996141434,
      0.2117687165737152,
      -0.3739868998527527,
      0.09877466410398483,
      0.47565749287605286,
      -0.3273952305316925,
      -3.3668909072875977,
      0.5176938772201538,
      -4.669760704040527,
      2.734713077545166,
      -0.05918779596686363,
      -2.2069764137268066,
      -1.0163592100143433,
      -0.0832124799489975,
      -0.9663738012313843,
      1.040755033493042,
      1.3206713199615479,
      -1.0264976024627686,
      0.654903769493103,
      -0.7669554948806763,
      0.9957321286201477,
      -0.4739600419998169,
      -0.6635885238647461,
      -0.6382222771644592,
      1.4053313732147217,
      -1.324565052986145,
      2.208559513092041,
      0.32985255122184753,
      -1.0137046575546265,
      -0.49989625811576843,
      0.5065519213676453,
      -0.010485904291272163,
      -0.943904459476471,
      1.6752175092697144,
      1.2768399715423584,
      -0.7518888711929321,
      -0.16449715197086334,
      0.9433513879776001,
      -4.170360088348389,
      -0.05352720245718956,
      0.4291832745075226,
      -0.10393446683883667,
      -0.47699669003486633,
      2.3791871070861816,
      -0.3376692533493042,
      0.4311666786670685,
      -0.34968098998069763,
      -0.8781843185424805,
      1.8539814949035645,
      0.7829632759094238,
      -0.7640827894210815,
      -1.0206425189971924,
      -0.5850797891616821,
      -1.2405686378479004,
      -0.46584510803222656,
      0.1722279191017151,
      0.12302443385124207,
      0.09788770228624344,
      -0.24789153039455414,
      2.2545106410980225,
      0.03250863030552864,
      0.2983829081058502,
      0.2427217811346054,
      0.9472804665565491,
      -5.722315311431885,
      0.008732551708817482,
      -1.0039498805999756,
      0.13199655711650848,
      0.06035153567790985,
      -1.4165027141571045,
      -1.2338396310806274,
      -0.46716052293777466,
      1.3263013362884521,
      1.6889350414276123,
      1.251182198524475,
      -0.47007644176483154,
      0.6953619718551636,
      2.473283290863037,
      -1.9717787504196167,
      1.8824851512908936,
      -0.8120323419570923,
      4.509965896606445,
      0.141075000166893,
      -1.1256405115127563,
      0.2318972498178482,
      -0.5879326462745667,
      0.36958426237106323,
      0.02657049335539341,
      4.5317254066467285,
      0.9311813712120056,
      -2.418543815612793,
      -2.474705934524536,
      -2.1049094200134277,
      -0.7516984343528748,
      -1.84650719165802,
      1.258892297744751,
      1.5236021280288696,
      -1.8252809047698975,
      1.8599110841751099,
      1.1908375024795532,
      1.6011117696762085,
      -1.8232766389846802,
      -1.7620171308517456,
      -2.108130931854248,
      3.071307897567749,
      -1.530059576034546,
      1.7898569107055664,
      0.41790100932121277,
      -3.1881306171417236,
      -0.13920602202415466,
      0.019145334139466286,
      3.7434980869293213,
      -1.5484850406646729,
      -2.1075258255004883,
      -0.7016304135322571,
      0.5275526642799377,
      -1.1459296941757202,
      -0.013533908873796463,
      0.8348954319953918,
      0.5945261716842651,
      -0.5119106769561768,
      -0.2998753488063812,
      -0.45995476841926575,
      -0.1354096233844757,
      -1.902937412261963,
      2.0034286975860596,
      1.3618000745773315,
      -0.2568834125995636,
      -0.2131943553686142,
      -2.794431209564209,
      0.23714804649353027,
      0.907158613204956,
      -3.9497299194335938,
      5.088193416595459,
      -0.28633347153663635,
      0.05044633150100708,
      -2.14607310295105,
      -0.3784805238246918,
      0.26560258865356445,
      0.9931005239486694,
      -0.7028375267982483,
      0.2084469348192215,
      -0.34421321749687195,
      -0.2536885440349579,
      -0.6886575222015381,
      1.0886402130126953,
      -0.8019954562187195,
      -1.5747562646865845,
      0.016631638631224632,
      -0.32737424969673157,
      1.3410340547561646,
      0.14053566753864288,
      -0.5637096762657166,
      1.1650418043136597,
      -0.2821061909198761,
      -0.6034916043281555,
      -0.08453359454870224,
      0.5908685922622681,
      -3.9034206867218018,
      -0.5587131977081299,
      0.5180715322494507,
      0.4358503222465515,
      2.64853572845459,
      -0.5288745760917664,
      -0.1829424947500229,
      0.1427072286605835,
      0.8174447417259216,
      1.3140357732772827,
      1.8983352184295654,
      1.5965700149536133,
      1.0393407344818115,
      0.29129424691200256,
      0.8596015572547913,
      -0.3725663423538208,
      -0.7180745601654053,
      -0.9597277045249939,
      -0.2691758871078491,
      0.6437451839447021,
      -0.3761606216430664,
      -4.531094074249268,
      -0.2977132499217987,
      0.7419448494911194,
      0.4052966237068176,
      -0.3884499967098236,
      -2.6122279167175293,
      0.15724880993366241,
      -0.5668293833732605,
      -0.7258387804031372,
      0.9125487804412842,
      -0.36474913358688354,
      1.6174107789993286,
      0.5632230043411255,
      2.2271535396575928,
      1.3584856986999512,
      0.616537868976593,
      -0.6719204783439636,
      0.804979681968689,
      0.9825472235679626,
      -1.8914308547973633,
      -1.5877083539962769,
      -0.12660588324069977,
      0.206084206700325,
      -0.23636826872825623,
      0.2102964073419571,
      0.44930145144462585,
      0.8159316182136536,
      -0.07086005061864853,
      -0.863025963306427,
      0.1942991316318512,
      -0.2936229407787323,
      0.7446424961090088,
      0.6617735028266907,
      1.3713940382003784,
      0.7016550302505493,
      -0.6465662121772766,
      -3.6996424198150635,
      -0.42066287994384766,
      -0.571721076965332,
      -1.3031736612319946,
      0.5287114381790161,
      -1.5015579462051392,
      0.6090434193611145,
      2.2225208282470703,
      1.2634594440460205,
      -0.4862869083881378,
      0.1659516841173172,
      0.34427013993263245,
      -0.4836899936199188,
      -0.5842735171318054,
      -1.1764260530471802,
      1.1710889339447021,
      0.7671771049499512,
      0.37400269508361816,
      0.9536511898040771,
      3.4524548053741455,
      0.19777460396289825,
      -1.0435696840286255,
      1.9752165079116821,
      0.8376498818397522,
      -1.4093832969665527,
      -0.4719311594963074,
      -0.04903401806950569,
      1.6480464935302734,
      -0.15221445262432098,
      0.07794900983572006,
      0.11245843023061752,
      0.2962125837802887,
      -0.895526111125946,
      -0.010711505077779293,
      0.4317816495895386,
      0.4980587959289551,
      0.16328641772270203,
      1.1398388147354126,
      0.5807586908340454,
      2.4983608722686768,
      -1.9183613061904907,
      -0.7228867411613464,
      -0.7128998637199402,
      -0.31187647581100464,
      -0.299637109041214,
      -0.13666580617427826,
      0.39513739943504333,
      0.6606925129890442,
      -1.275052547454834,
      0.3240736424922943,
      1.1443367004394531,
      -0.5224654674530029,
      0.30478546023368835,
      -0.3668768107891083,
      -0.2430325150489807,
      0.6365770697593689,
      -0.20724216103553772,
      1.0454721450805664,
      0.12293028831481934,
      1.8464741706848145,
      -3.327547311782837,
      0.5659865736961365,
      -0.733201265335083,
      0.3124179542064667,
      -1.3804590702056885,
      -0.9637311100959778,
      -0.3372926414012909,
      1.3929108381271362,
      0.8025352358818054,
      -0.12192562967538834,
      0.41520485281944275,
      -1.1398524045944214,
      -0.08435099571943283,
      -0.3800279498100281,
      -0.03880683705210686,
      0.13814042508602142,
      0.3174780011177063,
      1.3376127481460571,
      -0.40560898184776306,
      2.855767250061035,
      -0.5671302080154419,
      -1.463605523109436,
      -0.5449444055557251,
      0.6394672989845276,
      1.0759979486465454,
      -1.7260401248931885,
      0.328795462846756,
      -0.8664155006408691,
      2.518026113510132,
      -1.0595988035202026,
      1.6590911149978638,
      0.28651902079582214,
      -0.5154881477355957,
      0.24393494427204132,
      -0.6534061431884766,
      0.5487000346183777,
      0.0646008774638176,
      1.1652917861938477,
      -2.772139310836792,
      1.5214301347732544,
      -0.8342317938804626,
      -0.0631491094827652,
      1.369687795639038,
      -2.0333831310272217,
      -2.2009973526000977,
      -0.3116123676300049,
      0.23540031909942627,
      -0.15226809680461884,
      1.6162315607070923,
      -0.5313008427619934,
      0.7055487632751465,
      -0.23191311955451965,
      -0.45062577724456787,
      0.02515343204140663,
      -1.9360747337341309,
      0.2396877408027649,
      0.13400770723819733,
      -1.0013331174850464,
      -0.3077515661716461,
      0.8148952722549438,
      -0.7796148657798767,
      0.4792334735393524,
      1.3494616746902466,
      -0.2818428575992584,
      -0.57245272397995,
      -1.9233072996139526,
      1.3568209409713745,
      1.19330894947052,
      2.3092215061187744,
      -0.16979636251926422,
      -0.1513163447380066,
      0.6271361708641052,
      -0.8451944589614868,
      -0.02528584748506546,
      -0.24656274914741516,
      -0.5476272702217102,
      0.49494481086730957,
      0.557918131351471,
      -0.9224876761436462,
      0.09537617117166519,
      -1.4022313356399536,
      -0.8765047788619995,
      0.0765104666352272,
      -3.0707345008850098,
      -0.8913711309432983,
      0.1601298302412033,
      0.7402006983757019,
      2.967600107192993,
      1.2944369316101074,
      -0.24059535562992096,
      0.012866123579442501,
      -0.29800963401794434,
      0.687271237373352,
      0.49660784006118774,
      0.03373177722096443,
      -0.9414697885513306,
      0.13197526335716248,
      0.5290344953536987,
      -1.1261838674545288,
      0.08665163815021515,
      -2.759416341781616,
      -0.15074528753757477,
      1.7980904579162598,
      -1.4906611442565918,
      -0.03169754520058632,
      -1.1162889003753662,
      -0.6399989128112793,
      1.0621979236602783,
      1.5468083620071411,
      0.5439279675483704,
      0.5493491291999817,
      -2.4989070892333984,
      0.8218401670455933,
      -0.5776852369308472,
      -0.6036016941070557,
      -1.4113290309906006,
      -0.4122152030467987,
      0.7408419251441956,
      1.506716251373291,
      3.5868046283721924,
      0.38131996989250183,
      -1.4628750085830688,
      0.10969517379999161,
      -4.2389984130859375,
      -1.5813088417053223,
      0.26854726672172546,
      0.7802769541740417,
      -0.6798769235610962,
      -0.37088313698768616,
      -0.02647429332137108,
      0.4795913100242615,
      -0.6854768991470337,
      -0.4498242735862732,
      1.1296871900558472,
      -0.40282201766967773,
      0.5693104863166809,
      -0.4824847877025604,
      0.7480157017707825,
      0.5753281116485596,
      -0.33194178342819214,
      -0.1620902419090271,
      -1.981108546257019,
      0.40409064292907715,
      -0.8626824617385864,
      -2.0042002201080322,
      -3.445838212966919,
      0.5020776987075806,
      -0.8698732256889343,
      2.1865174770355225,
      0.39169391989707947,
      0.06432235240936279,
      -0.7298204302787781,
      -0.4688589870929718,
      0.19802851974964142,
      -0.4782620966434479,
      0.9965270757675171,
      0.0015027319313958287,
      -0.8989039659500122,
      3.159959554672241,
      1.016804575920105,
      -2.650822877883911,
      -0.20730365812778473,
      1.0138083696365356,
      -0.9822830557823181,
      -2.3147964477539062,
      -0.5551005005836487,
      0.57979816198349,
      -0.7477340698242188,
      -0.4233055114746094,
      -0.39092954993247986,
      -0.031185833737254143,
      -1.2469048500061035,
      -0.06249001622200012,
      -0.03469054028391838,
      0.6678675413131714,
      -0.6237335205078125,
      -0.5409364104270935,
      -0.7201608419418335,
      3.685551881790161,
      1.6624655723571777,
      -1.638128638267517,
      0.10763179510831833,
      1.476892113685608,
      -0.38897189497947693,
      0.09440567344427109,
      -0.393124520778656,
      0.06765677034854889,
      1.867154836654663,
      1.3084098100662231,
      -0.27235686779022217,
      0.7143909335136414,
      -1.0023279190063477,
      -0.5761370062828064,
      -1.46440851688385,
      -0.3865525424480438,
      1.298684000968933,
      0.7041558623313904,
      0.23229072988033295,
      0.24724245071411133,
      2.058516502380371,
      -0.8384934067726135,
      -2.2833259105682373,
      -0.5407765507698059,
      -1.416091799736023,
      -2.1980643272399902,
      -0.07298876345157623,
      0.8310931324958801,
      0.6415098905563354,
      0.2575244903564453,
      -0.011500975117087364,
      -0.1822170466184616,
      -1.562254786491394,
      -0.42046594619750977,
      -1.0061366558074951,
      -0.4918971359729767,
      1.9608820676803589,
      -0.028006698936223984,
      0.12314372509717941,
      0.38718128204345703,
      0.7770152688026428,
      -0.8696448802947998,
      -2.3150522708892822,
      1.6873199939727783,
      -0.8646056652069092,
      -0.041573185473680496,
      -1.5369101762771606,
      2.4035849571228027,
      1.157482624053955,
      1.1986472606658936,
      -2.6503000259399414,
      2.226963758468628,
      -2.3206002712249756
    ]
  },
  "output": {
    "rows": 27,
    "columns": 1,
    "weights": [
      -13.898873329162598,
      -1.3186370134353638,
      -12.635129928588867,
      -0.4713937044143677,
      -1.9303693771362305,
      0.049383632838726044,
      -20.35137939453125,
      -3.562093734741211,
      -0.5611208081245422,
      -0.504859447479248,
      0.31779029965400696,
      -0.6511481404304504,
      -0.14705614745616913,
      0.27986395359039307,
      -0.38900497555732727,
      -0.5712897777557373,
      -0.20236718654632568,
      -0.13467292487621307,
      0.1412149965763092,
      0.35106417536735535,
      0.10026159882545471,
      -0.8790280818939209,
      -0.49838945269584656,
      -0.33393150568008423,
      -0.6428576111793518,
      -0.17114602029323578,
      -2.2365825176239014
    ]
  }
}