{
  "type": "LSTM",
  "options": {
    "inputSize": 28,
    "inputRange": 28,
    "hiddenLayers": [
      20,
      20
    ],
    "outputSize": 28,
    "decayRate": 0.999,
    "smoothEps": 1e-8,
    "regc": 0.000001,
    "clipval": 5,
    "maxPredictionLength": 100,
    "dataFormatter": {
      "indexTable": {
        "a": 0,
        "k": 1,
        "h": 2,
        "o": 3,
        "n": 4,
        "l": 5,
        "e": 6,
        "m": 7,
        "g": 8,
        "t": 9,
        "i": 10,
        "d": 11,
        "s": 12,
        "u": 13,
        "y": 14,
        "w": 15,
        "z": 16,
        "b": 17,
        "-": 18,
        "c": 19,
        "q": 20,
        "f": 21,
        "p": 22,
        "v": 23,
        "j": 24,
        "r": 25,
        "x": 26,
        "unrecognized": 27
      },
      "characterTable": {
        "0": "a",
        "1": "k",
        "2": "h",
        "3": "o",
        "4": "n",
        "5": "l",
        "6": "e",
        "7": "m",
        "8": "g",
        "9": "t",
        "10": "i",
        "11": "d",
        "12": "s",
        "13": "u",
        "14": "y",
        "15": "w",
        "16": "z",
        "17": "b",
        "18": "-",
        "19": "c",
        "20": "q",
        "21": "f",
        "22": "p",
        "23": "v",
        "24": "j",
        "25": "r",
        "26": "x",
        "27": null
      },
      "values": [
        "akhona",
        "alakhe",
        "amohelang",
        "anathi",
        "andile",
        "angile",
        "anisha",
        "anuiyelewa",
        "autshumao",
        "ayanda",
        "ayele",
        "ayzize",
        "bagindawo",
        "bambata",
        "banbakhe",
        "bandile",
        "banga",
        "bangizwe",
        "bekitemba",
        "bheka",
        "bhekabantu",
        "bhekani",
        "bhekimuzi",
        "bhekinkosi",
        "bhekisisa",
        "bhekizizwe",
        "bhekokwakhe",
        "bikitsha",
        "bobang",
        "bomani",
        "bongani",
        "bongi-nkosi",
        "cestshwayo",
        "chaka",
        "dabulamanzi",
        "dalibunga",
        "daligqili",
        "dalindyebo",
        "dayisile",
        "diboko",
        "dimi",
        "dingane",
        "dinizulu",
        "dliza",
        "duma",
        "dumisani",
        "fanyana",
        "fikile",
        "gadla",
        "gaika",
        "gamba",
        "ganya",
        "gatsha",
        "hluphizwe",
        "homaleni",
        "hondo",
        "inaani",
        "isivile",
        "jomo",
        "jongilanga",
        "jongilizwe",
        "joyi",
        "kabelo",
        "kananelo",
        "kanelo",
        "katiza",
        "kazandu",
        "kealeboga",
        "kekeletso",
        "kerefese",
        "ketso",
        "khalipa",
        "khaya",
        "khulekani",
        "kokayi",
        "krune",
        "landuleni",
        "langalibalele",
        "langelihle",
        "lebona",
        "lelethu",
        "lenka",
        "lepoqo",
        "lewanika",
        "likhaya",
        "lindani",
        "lisolethu",
        "liwa",
        "londisizwe",
        "lunga",
        "lungani",
        "lungelo",
        "lungile",
        "luthuli",
        "luyanda",
        "luzuko",
        "lwandile",
        "lwazi",
        "lyanda",
        "madiba",
        "madira",
        "mahluli",
        "makalo",
        "makanna",
        "makgatho",
        "makhanda",
        "makhaya",
        "malibongwe",
        "malusi",
        "mandla",
        "mandlakhe",
        "mandle-nkosi",
        "mangaliso",
        "mangosuthu",
        "mangwiro",
        "manqoba",
        "mapfumo",
        "maphikelela",
        "maphumulo",
        "mapogo",
        "maqoma",
        "mashudu",
        "masibulele",
        "masopha",
        "matshana",
        "matsimela",
        "mazamo",
        "mbongeni",
        "mbonisi",
        "mbulelo",
        "mbuyiselo",
        "mcebisi",
        "mdingi",
        "meligqili",
        "melithafa",
        "mendi",
        "mfanafuthi",
        "mfuneko",
        "mgwazeni",
        "mhambi",
        "mihlali",
        "minenhle",
        "misumzi",
        "mlahwa",
        "mlungisi",
        "mncedisi",
        "mndeni",
        "mnqobi",
        "modisana",
        "moeketsi",
        "mohapi",
        "mohlomi",
        "mokete",
        "molapo",
        "molefi",
        "momar",
        "monaheng",
        "mondlie",
        "moreri",
        "mosemodi",
        "mothusi",
        "moyo",
        "mpendulo",
        "mphafane",
        "mphikeleli",
        "mpilo",
        "mpinkulu",
        "mpondombini",
        "mshengu",
        "msunguli",
        "mthandeni",
        "mtheto",
        "mthikraka",
        "mthinklulu",
        "mthokozisi",
        "mthunzi",
        "mthuthuzele",
        "muata",
        "muileki",
        "mulalo",
        "musa",
        "musawenkosi",
        "mxali",
        "mxolisi",
        "mzikayise",
        "mzingisi",
        "mzwandile",
        "najbulo",
        "nameni",
        "nandiphe",
        "nbomani",
        "ncelebana",
        "ndabeexinhle",
        "ndleleni",
        "ndoro",
        "ndumiso",
        "nealo",
        "ngubengcuka",
        "nhlanhla",
        "njabulo",
        "nkedama",
        "nkhangweleni",
        "nkhokheli",
        "nkosana",
        "nkosenye",
        "nkosi",
        "nkosinathi",
        "nkosinhle",
        "nkululeko",
        "nodathembu",
        "nqabeni",
        "nqobizitha",
        "nsizwa",
        "ntlonipho",
        "ntsikelelo",
        "ntsu",
        "ntuthuko",
        "nxeko",
        "nxele",
        "nyandoro",
        "nyathi",
        "nyenyedzi",
        "nyikadzino",
        "odwa",
        "olwethu",
        "oupa",
        "owethu",
        "paki",
        "paseka",
        "phahamo",
        "phethisi",
        "phetoho",
        "phetuxolo",
        "philani",
        "phiwokwakhe",
        "phumzile",
        "potlako",
        "realeboha",
        "rethabile",
        "rikondja",
        "rolihlahla",
        "sabata",
        "samkelo",
        "sandile",
        "sandla",
        "sefako",
        "selope",
        "senkatana",
        "seperepere",
        "sibonelo",
        "sibongakonke",
        "sibusiso",
        "sifiso",
        "sigidi",
        "sihawukele",
        "sikumbuzo",
        "simakade",
        "simangaliso",
        "simphiwe",
        "simphiweyi-nkosi",
        "simthembele",
        "sinenhlanhla",
        "sinethemba",
        "sinoxolo",
        "siphesihle",
        "siphiwe",
        "sipho",
        "sithembiso",
        "siyabonga",
        "siyabulela",
        "siyabulele",
        "siyamthanda",
        "siyolo",
        "solwazi",
        "sondai",
        "sondisa",
        "sphiwe",
        "tagulani",
        "takadiyi",
        "tangeni",
        "tapfuma",
        "taruvinga",
        "tebogo",
        "thabani",
        "thabo",
        "thalente",
        "thami",
        "thamsanqa",
        "thandanani",
        "thandeka",
        "thandi",
        "thandiswa",
        "thandiwe",
        "thando",
        "thapeli",
        "themba",
        "thembekile",
        "thembinkos",
        "thoibo",
        "thoko",
        "thulani",
        "thuthuka",
        "thuto",
        "tichawoma",
        "tlhokomelo",
        "tselane",
        "tsepo",
        "tshediso",
        "tshepo",
        "tshifhiwa",
        "tumelo",
        "tumisang",
        "tyumzashe",
        "velaphi",
        "vusumuzi",
        "vuyo",
        "xola",
        "xolani",
        "xolelwa",
        "yera",
        "zakhele",
        "zanemvula",
        "zenani",
        "zenzele",
        "zibonele",
        "zilindlova",
        "zithulele",
        "zolilie",
        "zukisa",
        "zwelakhe",
        "zwelibanzi",
        "zwelibhangile",
        "zwide"
      ],
      "characters": [
        "a",
        "k",
        "h",
        "o",
        "n",
        "l",
        "e",
        "m",
        "g",
        "t",
        "i",
        "d",
        "s",
        "u",
        "y",
        "w",
        "z",
        "b",
        "-",
        "c",
        "q",
        "f",
        "p",
        "v",
        "j",
        "r",
        "x",
        "unrecognized"
      ],
      "specialIndexes": [
        27
      ]
    }
  },
  "trainOpts": {
    "iterations": "10000",
    "errorThresh": "0.04",
    "log": false,
    "logPeriod": 1,
    "learningRate": "0.0001",
    "callbackPeriod": 1,
    "timeout": "Infinity",
    "activation": "tanh"
  },
  "input": {
    "rows": 29,
    "columns": 28,
    "weights": [
      -0.3949875831604004,
      -0.23793770372867584,
      0.27324697375297546,
      -0.422732949256897,
      -0.07452264428138733,
      0.10326336324214935,
      -0.7376984357833862,
      -0.23213529586791992,
      -0.1279107630252838,
      0.1511596143245697,
      -0.3627510070800781,
      -0.2714950740337372,
      -0.09199356287717819,
      0.3232908546924591,
      0.3466320037841797,
      0.33160409331321716,
      -0.3590828776359558,
      0.7268286943435669,
      0.8958736062049866,
      -0.46654874086380005,
      0.9069166779518127,
      -0.358349084854126,
      -0.3359481692314148,
      0.9075416326522827,
      0.20047692954540253,
      0.05400505289435387,
      -0.29920509457588196,
      0.020585136488080025,
      1.3553717136383057,
      0.16993604600429535,
      1.0272247791290283,
      -0.7220490574836731,
      -1.9534046649932861,
      -1.3872179985046387,
      -1.2419286966323853,
      -0.9314690232276917,
      0.698466956615448,
      -1.341525673866272,
      0.698746919631958,
      0.12947839498519897,
      1.2813178300857544,
      -0.3073543906211853,
      0.3860471546649933,
      1.5696072578430176,
      -0.03537179157137871,
      -1.7738395929336548,
      0.6766769289970398,
      0.14005611836910248,
      -0.29494717717170715,
      -0.24570240080356598,
      1.3754228353500366,
      -0.9566677808761597,
      -0.19303937256336212,
      0.9255147576332092,
      0.5514201521873474,
      0.8397374153137207,
      1.310048222541809,
      0.2514740824699402,
      -1.0706809759140015,
      -0.07974587380886078,
      -1.2523895502090454,
      0.7506336569786072,
      0.7444535493850708,
      -0.38653984665870667,
      2.3667805194854736,
      -0.7114392518997192,
      0.33287689089775085,
      -1.7913109064102173,
      0.055506445467472076,
      1.5561397075653076,
      0.8416593670845032,
      -0.16554145514965057,
      -0.318811297416687,
      1.0344809293746948,
      3.3222496509552,
      0.10156918317079544,
      2.245129108428955,
      0.14372693002223969,
      0.21732240915298462,
      0.09505955129861832,
      -0.8432857990264893,
      1.897932529449463,
      -0.38673314452171326,
      -0.8687441945075989,
      1.2650400400161743,
      0.527875542640686,
      -0.7886349558830261,
      -0.15700609982013702,
      -1.9129009246826172,
      0.9400265216827393,
      -2.6070501804351807,
      -0.7014515995979309,
      2.4764134883880615,
      -0.7033615708351135,
      -0.3040832281112671,
      0.8770179748535156,
      -0.28251180052757263,
      0.25266510248184204,
      -0.08937803655862808,
      1.5337610244750977,
      -1.0061298608779907,
      2.320610761642456,
      2.567842960357666,
      0.06911932677030563,
      -0.6068511605262756,
      -0.16956785321235657,
      -0.14416956901550293,
      0.27015072107315063,
      -1.0929393768310547,
      1.9427130222320557,
      -0.21896684169769287,
      -1.209548830986023,
      -1.2493363618850708,
      -0.04554238170385361,
      -0.7704662680625916,
      -0.34448689222335815,
      -0.7253527641296387,
      1.5422629117965698,
      0.2601679265499115,
      0.32689225673675537,
      1.4114024639129639,
      -1.2287304401397705,
      0.5329328775405884,
      -0.45296937227249146,
      0.732310950756073,
      -0.2821498215198517,
      -0.6242363452911377,
      -1.9237680435180664,
      0.6311650276184082,
      1.2834243774414062,
      0.9331346750259399,
      1.2462297677993774,
      0.25040388107299805,
      -0.5207574963569641,
      -1.1485919952392578,
      0.9319800138473511,
      0.5017498135566711,
      0.4558924436569214,
      0.1929692029953003,
      0.128567174077034,
      2.0369932651519775,
      -0.0030041057616472244,
      -0.5536164045333862,
      -1.6199105978012085,
      -0.8239617347717285,
      0.0406690388917923,
      1.4731028079986572,
      0.4576135277748108,
      1.3987202644348145,
      -0.5166875123977661,
      0.5458744168281555,
      0.4263339042663574,
      1.5549836158752441,
      0.8421550393104553,
      0.8680118918418884,
      -0.6123331189155579,
      0.45350322127342224,
      -0.04073615372180939,
      -0.7252938747406006,
      -1.1811699867248535,
      0.799842357635498,
      0.7506555914878845,
      -1.1522094011306763,
      -0.6746698617935181,
      -0.15212476253509521,
      1.9564666748046875,
      -0.9419047832489014,
      -0.3397565484046936,
      -0.7225115895271301,
      -1.2216176986694336,
      -0.8344575762748718,
      0.2578047513961792,
      0.18567603826522827,
      0.9745950698852539,
      -0.48054030537605286,
      -0.266328901052475,
      1.0887314081192017,
      -0.33310407400131226,
      -1.1357344388961792,
      -1.8634788990020752,
      -0.1276448369026184,
      1.3415509462356567,
      -0.2711876630783081,
      0.2499641627073288,
      -0.35712555050849915,
      -0.46555057168006897,
      0.389152854681015,
      -0.7623826861381531,
      -0.11328528076410294,
      0.31157347559928894,
      -0.5955261588096619,
      0.8667097687721252,
      -0.5225383043289185,
      1.712172031402588,
      2.5316827297210693,
      -1.1453006267547607,
      -0.829876184463501,
      -0.24189253151416779,
      0.2688739001750946,
      -0.0697498619556427,
      -0.819191575050354,
      0.15227684378623962,
      -0.19730544090270996,
      -0.8942678570747375,
      -0.09599126875400543,
      -1.0923532247543335,
      0.17465290427207947,
      -1.1265212297439575,
      1.9543192386627197,
      1.6476759910583496,
      -1.5681195259094238,
      -1.4444074630737305,
      0.5361488461494446,
      -0.16108256578445435,
      0.0474073626101017,
      1.4266455173492432,
      0.16141638159751892,
      -0.07926106452941895,
      0.26568806171417236,
      0.37689098715782166,
      -0.15001200139522552,
      -0.479500949382782,
      0.6238760352134705,
      -0.054406944662332535,
      0.14486771821975708,
      -0.38158100843429565,
      -0.2899734377861023,
      -0.9640234112739563,
      -2.6419575214385986,
      0.06904920190572739,
      0.9634678959846497,
      0.6235688328742981,
      1.099036455154419,
      -0.6082619428634644,
      -0.409936785697937,
      -0.07865995913743973,
      1.159960389137268,
      -0.20762941241264343,
      0.6192012429237366,
      1.1191200017929077,
      0.20652922987937927,
      -1.147002100944519,
      -1.1101254224777222,
      -1.9630749225616455,
      0.7336880564689636,
      0.12931442260742188,
      1.3547279834747314,
      -0.7079359889030457,
      0.29580917954444885,
      2.269350290298462,
      1.6074581146240234,
      0.2324233055114746,
      -2.5853474140167236,
      -4.35173225402832,
      -0.0978025421500206,
      -3.391223669052124,
      -2.265373706817627,
      0.14978338778018951,
      -1.0448901653289795,
      -1.647712230682373,
      1.474630355834961,
      -0.8191259503364563,
      -1.3951886892318726,
      0.40095776319503784,
      -0.5223969221115112,
      1.2958087921142578,
      -0.11299443244934082,
      -0.2656220495700836,
      -0.7884560823440552,
      3.8362462520599365,
      2.09157395362854,
      0.9307834506034851,
      0.5892502665519714,
      -2.000020742416382,
      -0.5825517177581787,
      1.6163729429244995,
      -1.8925498723983765,
      0.9729506373405457,
      -0.9175991415977478,
      -0.8580575585365295,
      0.6887310743331909,
      0.0013337688287720084,
      0.853682279586792,
      -0.33223390579223633,
      -0.9529496431350708,
      0.1956075131893158,
      0.24557508528232574,
      -0.19984528422355652,
      -0.07800759375095367,
      0.17791393399238586,
      0.1695868968963623,
      -1.0366466045379639,
      1.4825161695480347,
      -0.05827977508306503,
      1.2252781391143799,
      -0.8942965865135193,
      0.8260656595230103,
      -0.11481935530900955,
      1.4436602592468262,
      -0.03844093158841133,
      0.12631534039974213,
      -1.3021931648254395,
      -0.09983357787132263,
      0.10029613226652145,
      -2.4916586875915527,
      0.021939730271697044,
      0.48781880736351013,
      1.6736358404159546,
      1.156885027885437,
      -0.8191278576850891,
      0.5908286571502686,
      -0.3844391107559204,
      0.21144625544548035,
      0.354225218296051,
      -0.04361996799707413,
      -0.41146862506866455,
      -0.11390074342489243,
      -0.8671992421150208,
      -0.06309027224779129,
      -1.0596344470977783,
      0.47395941615104675,
      1.2442963123321533,
      1.2849080562591553,
      -0.7333008646965027,
      0.9523734450340271,
      0.40217870473861694,
      0.4903469979763031,
      0.06657899171113968,
      1.2184566259384155,
      0.3667496144771576,
      -1.5670150518417358,
      0.1837628334760666,
      -0.3031974732875824,
      1.0460513830184937,
      -0.6079740524291992,
      0.08125358074903488,
      1.5856270790100098,
      0.12812408804893494,
      0.12281303852796555,
      -1.089309573173523,
      -2.1165103912353516,
      2.419311761856079,
      -3.3096845149993896,
      -0.11234781891107559,
      2.237840175628662,
      -2.021840810775757,
      -0.5531739592552185,
      0.12069682776927948,
      -1.1936428546905518,
      1.1804161071777344,
      0.16544674336910248,
      -0.9417774677276611,
      -0.5593452453613281,
      2.1147220134735107,
      3.363065242767334,
      -0.054822392761707306,
      0.3035815954208374,
      0.5292635560035706,
      1.1253479719161987,
      0.8533306121826172,
      -1.8984955549240112,
      3.4345128536224365,
      0.5011132955551147,
      -1.6693141460418701,
      0.2605230510234833,
      -0.8307718634605408,
      0.007279357872903347,
      -0.49223682284355164,
      -3.3664910793304443,
      0.27905943989753723,
      -3.42270565032959,
      -0.7944104075431824,
      1.72520911693573,
      -0.32046642899513245,
      0.7175604104995728,
      -0.44396087527275085,
      0.12779781222343445,
      1.8021609783172607,
      0.14395186305046082,
      -0.7017965316772461,
      0.6066500544548035,
      2.724799156188965,
      3.2598347663879395,
      0.7637708783149719,
      -0.06868741661310196,
      -0.8607223629951477,
      0.6742933392524719,
      0.31960752606391907,
      -1.592874526977539,
      0.6514933109283447,
      -0.23431482911109924,
      -0.47557350993156433,
      1.4528474807739258,
      0.5777978301048279,
      0.31828734278678894,
      -0.5074787735939026,
      -0.01718457229435444,
      1.3949066400527954,
      -1.1663349866867065,
      1.014679193496704,
      -0.6903747320175171,
      -0.2730486989021301,
      1.5693024396896362,
      0.017387451604008675,
      0.7146323323249817,
      0.18963566422462463,
      0.5632470846176147,
      -2.8630385398864746,
      0.8487112522125244,
      1.7543696165084839,
      1.4531948566436768,
      1.3790227174758911,
      -0.09827492386102676,
      -0.3398750424385071,
      -0.4845743775367737,
      0.520600438117981,
      -1.002534031867981,
      -0.9352329969406128,
      -0.595720648765564,
      -1.0318604707717896,
      0.8930423259735107,
      -5.24906063079834,
      -0.703811526298523,
      -3.718092918395996,
      2.0822737216949463,
      -1.7161589860916138,
      -0.1256280243396759,
      0.19161757826805115,
      0.4988100528717041,
      -1.0893423557281494,
      1.1592016220092773,
      3.5790963172912598,
      -4.782766819000244,
      -2.2883052825927734,
      0.5848693251609802,
      2.732630491256714,
      1.36380934715271,
      0.7934491038322449,
      -8.560340881347656,
      0.13134624063968658,
      -1.712157130241394,
      0.7813158631324768,
      2.294163703918457,
      0.12959250807762146,
      2.332892656326294,
      3.2440195083618164,
      -0.5847000479698181,
      -5.557837963104248,
      -0.6285912990570068,
      0.3037993609905243,
      -0.33561763167381287,
      -2.6792664527893066,
      -0.7808950543403625,
      0.8559003472328186,
      -2.8793396949768066,
      -1.2939473390579224,
      1.088321328163147,
      -0.9082938432693481,
      -1.7089040279388428,
      -0.3271108865737915,
      -2.082258939743042,
      -0.38215798139572144,
      0.6648864150047302,
      -0.7857503890991211,
      -0.42281296849250793,
      0.19278781116008759,
      2.2203023433685303,
      2.729656934738159,
      -1.1681216955184937,
      1.1919898986816406,
      -0.20594888925552368,
      -1.8148932456970215,
      1.2946665287017822,
      -2.580324411392212,
      2.762406349182129,
      0.03416004031896591,
      -2.587782382965088,
      -3.712078809738159,
      1.2451821565628052,
      -4.114598751068115,
      -2.4876041412353516,
      -2.037018060684204,
      -1.577899694442749,
      -1.355493426322937,
      1.802139163017273,
      -0.9352161884307861,
      -0.5050032734870911,
      -0.2546495497226715,
      -0.1972699612379074,
      0.0994841456413269,
      0.860034167766571,
      0.7515401840209961,
      0.2160431295633316,
      1.8885180950164795,
      3.206998109817505,
      2.9699907302856445,
      -1.567514419555664,
      -2.2311294078826904,
      1.517645001411438,
      0.9236961007118225,
      -1.8152769804000854,
      3.6229629516601562,
      -0.6054987907409668,
      -1.24775230884552,
      -1.505859136581421,
      -0.907555878162384,
      0.17000167071819305,
      -1.9057632684707642,
      0.31525304913520813,
      1.2179172039031982,
      -0.36503177881240845,
      -0.8375378847122192,
      0.35768187046051025,
      -0.9099448323249817,
      -2.411461114883423,
      1.4760593175888062,
      -1.080557942390442,
      -0.6391156315803528,
      -1.0120247602462769,
      0.13645172119140625,
      -0.09544269740581512,
      0.08175230771303177,
      -1.216658353805542,
      -0.9181479215621948,
      0.3161238133907318,
      0.18250232934951782,
      0.3049311637878418,
      0.9696690440177917,
      0.8055840134620667,
      1.1575374603271484,
      -0.6499343514442444,
      -3.3382251262664795,
      3.3931097984313965,
      2.1547420024871826,
      -2.0393617153167725,
      -1.0971062183380127,
      -4.503046035766602,
      -0.14216594398021698,
      -9.333724975585938,
      -1.8544310331344604,
      6.861815452575684,
      -4.0220136642456055,
      0.650865375995636,
      2.5842928886413574,
      -0.605586051940918,
      6.3643951416015625,
      1.3650356531143188,
      -4.253328323364258,
      2.226545572280884,
      -0.43997031450271606,
      -5.274418830871582,
      2.293867826461792,
      6.072697162628174,
      3.016655683517456,
      2.4602551460266113,
      3.1739723682403564,
      0.4177505373954773,
      -4.827163219451904,
      3.8032608032226562,
      -0.07751050591468811,
      2.0129780769348145,
      1.537183165550232,
      0.6423467993736267,
      -0.4806613028049469,
      -0.8942531943321228,
      0.8536586761474609,
      -3.0884292125701904,
      -0.3925589323043823,
      -0.7497262358665466,
      2.3253917694091797,
      1.8151956796646118,
      -3.2240636348724365,
      -0.5790824890136719,
      1.8871251344680786,
      0.4236210584640503,
      -2.1375529766082764,
      -0.8056672215461731,
      -0.019405635073781013,
      1.4066253900527954,
      -3.3583340644836426,
      2.9751222133636475,
      1.2096960544586182,
      -0.8311504125595093,
      0.6484010815620422,
      -1.221740484237671,
      2.3380815982818604,
      1.379779577255249,
      0.6698501110076904,
      1.3540750741958618,
      -1.1031620502471924,
      0.2540738582611084,
      -4.0071001052856445,
      -1.128220558166504,
      0.40340614318847656,
      -0.08254193514585495,
      3.6699490547180176,
      2.182971477508545,
      0.9199890494346619,
      -1.9758511781692505,
      1.297526240348816,
      1.3597233295440674,
      -1.9447849988937378,
      2.7337310314178467,
      3.245950698852539,
      3.5415639877319336,
      1.7346409559249878,
      3.421915292739868,
      1.4026111364364624,
      -0.2432871311903,
      -0.6170496344566345,
      0.2944782078266144,
      1.4136426448822021,
      0.7017895579338074,
      0.28655174374580383,
      -1.0790691375732422,
      -0.04620600864291191,
      -2.1966934204101562,
      -1.9668596982955933,
      0.6369076371192932,
      -2.524906873703003,
      -3.7996954917907715,
      3.0374269485473633,
      3.3347835540771484,
      -1.1869444847106934,
      1.7696492671966553,
      0.5515127182006836,
      1.9365657567977905,
      -2.8270516395568848,
      -0.8368279337882996,
      0.5560539960861206,
      0.7250508069992065,
      0.04000009968876839,
      -0.0520528182387352,
      2.4688313007354736,
      3.881171226501465,
      -0.8497462272644043,
      -1.1896209716796875,
      -0.9357252717018127,
      0.9062007069587708,
      -1.0972750186920166,
      -2.4190218448638916,
      -0.25832152366638184,
      1.5830460786819458,
      -0.8638997077941895,
      2.243751287460327,
      1.706416130065918,
      1.0560485124588013,
      -1.0246708393096924,
      1.849222183227539,
      -1.4709651470184326,
      -2.4747135639190674,
      -0.35375624895095825,
      -0.5997357368469238,
      0.3604814410209656,
      -0.18054594099521637,
      1.9260023832321167,
      1.4905048608779907,
      -0.45720887184143066,
      4.430126190185547,
      -0.39171046018600464,
      -0.9990799427032471,
      0.9432042837142944,
      5.989847660064697,
      0.09767920523881912,
      2.63698673248291,
      -0.4842164218425751,
      0.15292362868785858,
      -0.6818410158157349,
      -2.02616548538208,
      5.259191989898682,
      0.1895928829908371,
      -2.1070938110351562,
      -0.705473780632019,
      -3.1042709350585938,
      0.49976617097854614,
      -2.4085440635681152,
      -5.611433506011963,
      1.3717447519302368,
      -0.02518565021455288,
      -1.2073320150375366,
      3.613769292831421,
      -2.4010848999023438,
      2.3872039318084717,
      -2.950624942779541,
      -0.0038129352033138275,
      4.192101001739502,
      -0.250855952501297,
      3.493908166885376,
      -1.9391183853149414,
      3.6721861362457275,
      4.7583842277526855,
      1.0245022773742676,
      0.25379931926727295,
      2.620936155319214,
      1.732825517654419,
      2.527249574661255,
      -2.079374313354492,
      7.459386825561523,
      3.1955208778381348,
      -1.3702174425125122,
      -2.7441813945770264,
      -0.4293648302555084,
      1.3440109491348267,
      0.37191468477249146,
      -1.041459083557129,
      0.9959607720375061,
      2.5031418800354004,
      -3.882377862930298,
      0.8679510354995728,
      0.7621930241584778,
      -0.9748326539993286,
      -3.621474266052246,
      1.0998655557632446,
      1.8405671119689941,
      -6.68391752243042,
      -0.6286649703979492,
      -7.689241409301758,
      3.584040403366089,
      -2.2675414085388184,
      -3.6526377201080322,
      3.741429090499878,
      -3.001101493835449,
      3.103085994720459,
      1.3309507369995117,
      1.6025464534759521,
      0.9492608308792114,
      -1.0624202489852905,
      -2.7388694286346436,
      -0.020772645249962807,
      -1.8580482006072998,
      1.6413462162017822,
      -3.1384217739105225,
      2.293382167816162,
      1.740017056465149,
      2.9044177532196045,
      -1.3764996528625488,
      1.080890417098999,
      -1.990424633026123,
      -2.4994258880615234,
      -0.7088316679000854,
      -1.0206443071365356,
      1.1067076921463013,
      -2.067258358001709,
      -0.14431720972061157,
      -3.583932399749756,
      0.1140662282705307,
      1.064682960510254,
      0.0667729377746582,
      3.3329811096191406,
      -0.33428749442100525,
      2.21994948387146,
      0.6408900022506714,
      2.0680346488952637,
      1.1781716346740723,
      1.1692585945129395,
      -1.9657660722732544,
      1.8215099573135376,
      -2.1470069885253906,
      -0.4708781838417053,
      -3.323125123977661,
      -4.61363410949707,
      0.019129745662212372,
      -2.0372354984283447,
      3.143298625946045,
      3.0698583126068115,
      -1.480741024017334,
      2.4972152709960938,
      -2.7086095809936523,
      0.3334644138813019,
      1.2618671655654907,
      -0.029464663937687874,
      0.28829893469810486,
      -0.5132372975349426,
      1.4005295038223267,
      3.0142102241516113,
      0.6206508278846741,
      0.23320728540420532,
      1.1500331163406372,
      0.0679907277226448,
      2.507775068283081,
      0.008981687016785145,
      7.27974796295166,
      -0.3122589886188507,
      0.28757143020629883,
      0.007261701859533787,
      0.004207423888146877,
      -0.004050633404403925,
      -0.007005099207162857,
      0.0010209575993940234,
      0.007306886836886406,
      0.006285986863076687,
      0.00030718339257873595,
      -0.005636454094201326,
      -0.004826071672141552,
      -0.002203059382736683,
      0.005829714238643646,
      0.0014585340395569801,
      0.0032167970202863216,
      -0.00793598685413599,
      0.004761099349707365,
      0.0028474098071455956,
      0.004179446958005428,
      -0.0013377921422943473,
      -0.0068291183561086655,
      0.005875361151993275,
      0.000512158963829279,
      0.004373224917799234,
      0.005658314097672701,
      0.0021867535542696714,
      0.0031646923162043095,
      -0.0013357982970774174,
      -0.0014512701891362667
    ]
  },
  "hiddenLayers": [
    {
      "inputMatrix": {
        "rows": 20,
        "columns": 28,
        "weights": [
          0.03039112128317356,
          -0.024844940751791,
          0.31795549392700195,
          -0.10218202322721481,
          -0.37683191895484924,
          -0.06392072886228561,
          0.01142234355211258,
          0.031019454821944237,
          -0.30868273973464966,
          0.33609941601753235,
          0.03600586578249931,
          -0.08465703576803207,
          0.4172188639640808,
          0.2949775457382202,
          0.7445478439331055,
          0.20995986461639404,
          0.06104367598891258,
          -0.0389162078499794,
          -0.09260588139295578,
          -0.20405636727809906,
          0.7662009596824646,
          -0.3911774456501007,
          0.04336785897612572,
          -0.18961192667484283,
          -0.08464021980762482,
          0.057618968188762665,
          0.1392422318458557,
          -0.46662768721580505,
          0.05982239916920662,
          0.541395366191864,
          0.1341637820005417,
          -0.16600115597248077,
          -0.05938564985990524,
          0.07560580968856812,
          0.1688338816165924,
          0.009361324831843376,
          0.06170430779457092,
          -0.08682316541671753,
          0.020159997045993805,
          0.037479598075151443,
          0.11417964100837708,
          0.3849596381187439,
          0.4283834397792816,
          0.040938831865787506,
          0.010051172226667404,
          0.13257667422294617,
          0.007298892829567194,
          0.3245452344417572,
          0.5896567106246948,
          0.0381709486246109,
          -0.019015057012438774,
          -0.06012216955423355,
          0.27215108275413513,
          -0.36870479583740234,
          0.33147841691970825,
          -0.0017342856153845787,
          0.5231268405914307,
          -0.49044692516326904,
          0.24568966031074524,
          -0.07539644837379456,
          0.3750314712524414,
          0.06266577541828156,
          -0.04978782311081886,
          -0.12961596250534058,
          0.247754767537117,
          0.30392763018608093,
          -0.14687299728393555,
          0.2200128585100174,
          -0.3365035355091095,
          -0.5004943013191223,
          -0.17005415260791779,
          -0.1423870027065277,
          0.24313539266586304,
          0.0023289076052606106,
          0.3133586347103119,
          -0.19651444256305695,
          0.6437993049621582,
          0.32656118273735046,
          -0.19733263552188873,
          0.49770817160606384,
          -0.7587440609931946,
          0.4368431270122528,
          0.08447008579969406,
          -0.08326035737991333,
          -0.1775248646736145,
          0.41598212718963623,
          -0.06848397105932236,
          0.03410990163683891,
          -0.03645126149058342,
          0.16475653648376465,
          -0.16390113532543182,
          -0.09704726189374924,
          0.1577293425798416,
          0.3709375262260437,
          0.2261870950460434,
          0.011782841756939888,
          0.0652194619178772,
          -0.26084548234939575,
          0.15329521894454956,
          0.14881832897663116,
          -0.35810303688049316,
          -0.3526628911495209,
          -0.2407003492116928,
          0.08313433825969696,
          0.0985579639673233,
          -0.4283328950405121,
          0.2025660276412964,
          0.0027716190088540316,
          -0.3849259614944458,
          -0.01588895358145237,
          0.011851019226014614,
          -0.1700129359960556,
          -0.12436799705028534,
          0.09385416656732559,
          0.4010315239429474,
          0.2285165935754776,
          0.5077831745147705,
          0.041163429617881775,
          0.12954358756542206,
          -0.3546917140483856,
          1.1202335357666016,
          0.030224213376641273,
          -0.39153632521629333,
          0.09034733474254608,
          -0.010842831805348396,
          -0.4780317544937134,
          -0.3418607711791992,
          0.19439974427223206,
          0.03535319119691849,
          0.21264904737472534,
          0.014625252224504948,
          -0.4949491620063782,
          0.26912373304367065,
          -0.16015824675559998,
          -0.027825724333524704,
          0.5622255206108093,
          -0.03831971809267998,
          -0.00990564189851284,
          -0.36258846521377563,
          -0.21318188309669495,
          -0.17462050914764404,
          -0.6223532557487488,
          0.6236063838005066,
          0.21732015907764435,
          -0.14288143813610077,
          0.5344006419181824,
          -0.4410446882247925,
          -0.22966592013835907,
          -0.28053271770477295,
          -0.12168522924184799,
          -0.0413471944630146,
          -0.10406612604856491,
          -0.1553279310464859,
          0.40507423877716064,
          0.1082841157913208,
          0.03722331300377846,
          -0.13990451395511627,
          0.4914760887622833,
          0.34659358859062195,
          -0.0943683460354805,
          0.3486466705799103,
          0.11198876798152924,
          0.19759973883628845,
          0.41751763224601746,
          -0.537129819393158,
          0.06869767606258392,
          0.31540173292160034,
          -0.34579089283943176,
          -0.423953115940094,
          -0.3242601156234741,
          -0.21432915329933167,
          -0.05402233451604843,
          0.2404245287179947,
          0.05370175838470459,
          0.21596521139144897,
          -0.3167128264904022,
          0.4518589973449707,
          0.03197881951928139,
          -0.1569727063179016,
          0.007539139129221439,
          0.07782678306102753,
          0.29665058851242065,
          -0.2573360502719879,
          0.07841790467500687,
          -0.15161864459514618,
          0.47765862941741943,
          0.20123007893562317,
          -0.09036390483379364,
          0.07445511966943741,
          0.3230506181716919,
          -0.19254817068576813,
          -0.042208898812532425,
          0.18695765733718872,
          -0.1877315491437912,
          -0.2191869169473648,
          -0.38900116086006165,
          0.09578216820955276,
          -0.3534729480743408,
          0.577947199344635,
          0.08606091141700745,
          0.6106435060501099,
          -0.35581180453300476,
          -0.11666403710842133,
          -0.20265443623065948,
          0.5179696083068848,
          0.16411153972148895,
          0.14179639518260956,
          0.3156625032424927,
          0.013637860305607319,
          -0.6054766774177551,
          0.4698543846607208,
          0.1925993710756302,
          0.2975938320159912,
          0.23470710217952728,
          0.5443764328956604,
          -0.28457435965538025,
          0.3730694651603699,
          -0.13439056277275085,
          0.042006947100162506,
          -0.028330866247415543,
          0.28284403681755066,
          0.25924035906791687,
          -0.01532706618309021,
          -0.1605101376771927,
          0.304361492395401,
          -0.25814738869667053,
          0.058165792375802994,
          -0.11636573076248169,
          -0.044061075896024704,
          0.14465326070785522,
          -0.03111071139574051,
          0.06604325771331787,
          -0.04161004722118378,
          0.5547153353691101,
          0.4593477249145508,
          0.0031493743881583214,
          -0.03927050903439522,
          0.2794705033302307,
          0.6613361239433289,
          0.19156579673290253,
          -0.6803800463676453,
          -0.120951808989048,
          0.29404887557029724,
          -0.24857819080352783,
          0.6794681549072266,
          -0.143770232796669,
          0.28640216588974,
          -0.1319909244775772,
          -0.12478920072317123,
          -0.1488340198993683,
          -0.10516539216041565,
          -0.2752828001976013,
          -0.3946186602115631,
          -0.04997687041759491,
          0.32683172821998596,
          -0.21220092475414276,
          0.0019529028795659542,
          0.09247676283121109,
          -0.32082805037498474,
          -0.3222547173500061,
          0.25133755803108215,
          0.04654217138886452,
          0.006613416131585836,
          -0.28791099786758423,
          -0.16281910240650177,
          -0.15590980648994446,
          0.03428175672888756,
          -0.08961450308561325,
          0.0015322057297453284,
          0.15232503414154053,
          0.3372915983200073,
          -0.24527588486671448,
          -0.07635004818439484,
          -0.29469630122184753,
          -0.5413458347320557,
          0.460547536611557,
          -0.031028952449560165,
          -0.2719757556915283,
          0.422306627035141,
          -0.18373998999595642,
          0.38781318068504333,
          0.01581132411956787,
          0.2736026346683502,
          0.44223490357398987,
          -0.2578471601009369,
          -0.5244916677474976,
          -0.13260646164417267,
          0.24128322303295135,
          -0.16491810977458954,
          0.02147694118320942,
          -0.0026230905205011368,
          0.11621984839439392,
          0.34994152188301086,
          0.045235954225063324,
          0.33089563250541687,
          0.5475717186927795,
          -0.3477310836315155,
          0.44431036710739136,
          -0.18382826447486877,
          -0.10547325015068054,
          0.5341837406158447,
          -0.4861083924770355,
          -0.10567265748977661,
          0.11418426781892776,
          0.21924680471420288,
          -0.1350383460521698,
          0.042605750262737274,
          -0.18452584743499756,
          -0.15276768803596497,
          0.22036510705947876,
          0.18640920519828796,
          -0.10948213189840317,
          -0.25501933693885803,
          0.0703478753566742,
          0.12408418953418732,
          0.14988753199577332,
          -0.03552655130624771,
          -0.10811983793973923,
          -0.17315426468849182,
          0.17975331842899323,
          -0.06047041341662407,
          0.36312317848205566,
          0.4980993866920471,
          -0.1967412233352661,
          0.17372986674308777,
          -0.08840085566043854,
          0.3784783184528351,
          -0.06617722660303116,
          0.5607830882072449,
          -0.0997592881321907,
          -0.4002123177051544,
          0.17059022188186646,
          0.4414467215538025,
          -0.18536166846752167,
          0.2321927547454834,
          -0.11230585724115372,
          0.35516437888145447,
          0.3345434367656708,
          -0.5402064323425293,
          0.11735118180513382,
          -0.38670775294303894,
          -0.14900700747966766,
          0.14916382730007172,
          -0.10949741303920746,
          -0.011453636921942234,
          0.4257556200027466,
          -0.171151801943779,
          0.16124887764453888,
          0.4975639879703522,
          -0.4750560522079468,
          0.4230814576148987,
          0.4212583899497986,
          0.8909408450126648,
          -0.24915504455566406,
          -0.1827169805765152,
          0.13894468545913696,
          -0.451596736907959,
          -0.37965941429138184,
          0.17520838975906372,
          -0.2482018768787384,
          0.1587400585412979,
          0.08826177567243576,
          -0.11674593389034271,
          -0.08871819823980331,
          -0.5312055349349976,
          -0.4735933244228363,
          0.4209316372871399,
          -0.23874793946743011,
          0.7148967981338501,
          0.557647168636322,
          -0.31777551770210266,
          -0.04543285816907883,
          -0.4208504259586334,
          0.06681131571531296,
          -0.7602735161781311,
          -0.2801685929298401,
          -0.5060442686080933,
          0.1754644513130188,
          0.011658438481390476,
          0.055431049317121506,
          -0.008547481149435043,
          -0.21444587409496307,
          0.7609789967536926,
          -0.007324379403144121,
          0.31750839948654175,
          -0.2932802438735962,
          -0.2888275682926178,
          0.13905726373195648,
          -0.12436633557081223,
          -0.2354058474302292,
          0.19893380999565125,
          0.5508906841278076,
          0.6251220107078552,
          -0.07949043065309525,
          -0.06426636874675751,
          -0.618305504322052,
          -0.14468714594841003,
          -0.2585516571998596,
          -0.009485062211751938,
          -1.1422725915908813,
          0.34261244535446167,
          -0.525763750076294,
          -0.2321472465991974,
          -0.06489413976669312,
          0.3126068115234375,
          -0.06442160159349442,
          -0.22182509303092957,
          -0.2983787953853607,
          0.3667553961277008,
          0.5044625997543335,
          -0.07214633375406265,
          0.651677131652832,
          0.2822994887828827,
          0.6207935214042664,
          0.4680093228816986,
          0.4848383665084839,
          0.1677975356578827,
          -0.2538139820098877,
          -0.2837734818458557,
          -0.4552917182445526,
          0.26001229882240295,
          0.6807066202163696,
          0.46510833501815796,
          -0.31181231141090393,
          -0.09083230793476105,
          0.14680169522762299,
          -0.4177112579345703,
          0.22221311926841736,
          -0.24067242443561554,
          -0.4787668287754059,
          -0.01371925137937069,
          -0.36539438366889954,
          -0.2500315010547638,
          0.20637832581996918,
          -0.19324298202991486,
          -0.49402838945388794,
          0.19766128063201904,
          -0.21080799400806427,
          -0.04382122680544853,
          -0.21579593420028687,
          -0.008968166075646877,
          0.03279225900769234,
          -0.07573039829730988,
          0.18721996247768402,
          0.2295098751783371,
          0.3436501622200012,
          -0.43082839250564575,
          0.3488331437110901,
          -0.12907540798187256,
          0.3693491220474243,
          0.3377476632595062,
          -0.10364676266908646,
          -0.46808502078056335,
          0.2811243236064911,
          -0.15761291980743408,
          0.4934171140193939,
          0.13021016120910645,
          0.24719572067260742,
          0.5247246623039246,
          0.32143813371658325,
          0.024890389293432236,
          -0.2613440752029419,
          -0.028241129592061043,
          0.05844423919916153,
          0.06766697764396667,
          -0.09257045388221741,
          0.01862783171236515,
          -0.06259359419345856,
          0.5986988544464111,
          -0.08128143101930618,
          0.6293671727180481,
          -0.3707639276981354,
          0.6711404919624329,
          -0.05688248947262764,
          -0.5397246479988098,
          0.5211302042007446,
          0.2241923213005066,
          -0.13731510937213898,
          0.009544162079691887,
          0.14092527329921722,
          0.07586178183555603,
          0.23581787943840027,
          0.0508681945502758,
          0.11444354802370071,
          -0.41410860419273376,
          -0.18286871910095215,
          -0.3873256742954254,
          -0.3837333023548126,
          0.10210930556058884,
          0.38923919200897217,
          0.039826106280088425,
          0.05061347782611847,
          0.23660774528980255,
          -0.055652011185884476,
          -0.07396343350410461,
          0.5659447312355042,
          0.18244634568691254,
          -0.20618776977062225,
          0.2148372232913971,
          0.5906659960746765,
          0.03967119753360748,
          0.1201581135392189,
          0.2548704743385315,
          0.18702749907970428,
          -0.4090857207775116,
          -0.23513559997081757,
          -0.05460383743047714,
          0.1520678848028183,
          -0.1527615785598755,
          -0.00041656545363366604,
          0.31816157698631287,
          -0.07982992380857468,
          -0.12193410098552704,
          -0.01116968598216772,
          0.31170570850372314,
          0.1308683305978775,
          -0.05083625763654709,
          0.0006576842861250043,
          0.0019865676295012236,
          0.017941579222679138,
          -0.37562426924705505,
          0.24734219908714294,
          -0.013853084295988083,
          0.1823347955942154,
          0.7674965858459473,
          -0.5058702826499939,
          -0.0591549351811409,
          -0.6879027485847473,
          -0.12495457381010056,
          -0.39876535534858704,
          0.27906402945518494,
          0.11501366645097733,
          -0.32806965708732605,
          -1.277321219444275,
          0.4425482749938965,
          0.06494895368814468,
          0.8262441754341125,
          0.258565753698349,
          -0.028229987248778343,
          -0.1601043939590454,
          0.3524966239929199,
          -0.451950341463089,
          -0.6133861541748047,
          -0.213828444480896,
          -0.22572818398475647,
          0.07540614902973175,
          -0.5963289737701416,
          -0.22616085410118103,
          -0.14884568750858307,
          0.6611315608024597,
          0.40120959281921387,
          -0.0017451567109674215,
          0.11606377363204956,
          -0.09394245594739914,
          -0.31243035197257996,
          0.7766870856285095,
          0.3021705746650696,
          -0.11706992238759995,
          -0.4176986515522003,
          -0.4347163736820221
        ]
      },
      "inputHidden": {
        "rows": 20,
        "columns": 20,
        "weights": [
          0.010270444676280022,
          0.14778226613998413,
          -1.8593615293502808,
          0.5551649332046509,
          0.6677707433700562,
          -0.31672438979148865,
          0.29614686965942383,
          0.9804602861404419,
          -0.3264884054660797,
          0.2523687481880188,
          0.24955983459949493,
          0.3205426037311554,
          0.8519967198371887,
          -0.47634416818618774,
          0.09501393884420395,
          -0.7797446250915527,
          0.007939634844660759,
          -0.14615747332572937,
          0.036086555570364,
          0.5924230813980103,
          -0.930237889289856,
          -0.5247759222984314,
          -0.6978262066841125,
          0.6148248910903931,
          0.7018774747848511,
          -0.6620691418647766,
          1.1505327224731445,
          -0.6140803694725037,
          -0.016784897074103355,
          0.39820438623428345,
          1.095237135887146,
          -1.5605124235153198,
          0.31060048937797546,
          -0.910505473613739,
          -0.045678604394197464,
          0.1756797432899475,
          -0.5015934705734253,
          -0.010111838579177856,
          -0.22605496644973755,
          0.14215539395809174,
          0.5042751431465149,
          0.3964896500110626,
          -0.8596803545951843,
          0.40829893946647644,
          -0.36237630248069763,
          0.4897330105304718,
          0.335940957069397,
          0.09825462847948074,
          -1.216713786125183,
          0.5693551301956177,
          0.32415497303009033,
          -0.6958857774734497,
          -0.4605138897895813,
          0.6853737831115723,
          0.4103311002254486,
          0.036734893918037415,
          -0.19991132616996765,
          -0.1858360916376114,
          -0.022624284029006958,
          0.01678375154733658,
          0.6137151718139648,
          -0.41317370533943176,
          -0.8855218291282654,
          2.915841817855835,
          0.9204850792884827,
          0.029434872791171074,
          -0.17062775790691376,
          0.8506327271461487,
          0.5987436175346375,
          0.2500119209289551,
          1.815980076789856,
          1.316056489944458,
          -0.839743435382843,
          -0.5110183954238892,
          -0.26306402683258057,
          -0.02119298279285431,
          -0.36005544662475586,
          -0.4645995497703552,
          -0.15218649804592133,
          0.38667961955070496,
          1.343560814857483,
          0.1870427429676056,
          -0.47632500529289246,
          0.15804122388362885,
          0.4551822543144226,
          0.7200140953063965,
          0.5296965837478638,
          0.5997970700263977,
          0.4273921847343445,
          -0.927070140838623,
          0.6637796759605408,
          -0.15000255405902863,
          0.6544539332389832,
          0.03591243177652359,
          -0.28939303755760193,
          -1.1260944604873657,
          -0.24618583917617798,
          0.31691622734069824,
          0.5698010921478271,
          -0.2889198958873749,
          0.5299233794212341,
          0.43008992075920105,
          -0.2863045036792755,
          1.2912880182266235,
          0.48764345049858093,
          -0.8292191028594971,
          0.41298553347587585,
          0.12941263616085052,
          -0.6595646142959595,
          -0.5605725646018982,
          -0.9339191913604736,
          -0.8690500855445862,
          0.053502921015024185,
          -0.10902969539165497,
          0.21299371123313904,
          0.7719758749008179,
          0.6345498561859131,
          -2.1473333835601807,
          0.9237912893295288,
          -0.2611403465270996,
          1.2946443557739258,
          0.33580806851387024,
          -0.010374310426414013,
          0.6308366060256958,
          -0.42099693417549133,
          0.09680343419313431,
          0.12214777618646622,
          -0.754893958568573,
          0.36780980229377747,
          -0.6899951696395874,
          1.183685064315796,
          -0.08472592383623123,
          -0.1574992686510086,
          0.8794475197792053,
          0.396629273891449,
          -0.9729846715927124,
          0.6766592860221863,
          -0.012884060852229595,
          0.681909441947937,
          -0.3204609751701355,
          0.47405436635017395,
          0.756161093711853,
          -0.8596904277801514,
          0.2633141875267029,
          -0.4542819559574127,
          0.1597885936498642,
          0.3992021381855011,
          0.2706984281539917,
          -0.10070537775754929,
          0.6885437369346619,
          -0.2278852015733719,
          -0.2309780716896057,
          -1.7282086610794067,
          -0.513131856918335,
          -0.6667639017105103,
          -0.24402491748332977,
          0.4946957528591156,
          -0.1470232456922531,
          -0.9612622261047363,
          0.22191222012043,
          0.6307697892189026,
          0.20045797526836395,
          -0.3277454972267151,
          -0.5872243046760559,
          0.05954737961292267,
          -0.37252163887023926,
          -0.17222604155540466,
          0.5516681671142578,
          -1.7069345712661743,
          0.8784127831459045,
          0.49833840131759644,
          0.29074352979660034,
          0.49953147768974304,
          -0.6540420651435852,
          0.26474517583847046,
          -0.23146650195121765,
          -0.3191310465335846,
          -0.7614527344703674,
          0.38877859711647034,
          0.44537702202796936,
          1.2589091062545776,
          0.29509609937667847,
          -0.6153583526611328,
          -0.947546124458313,
          0.1926679015159607,
          -0.07856276631355286,
          0.7852467894554138,
          0.6570713520050049,
          0.5036914944648743,
          -0.7038738131523132,
          0.5748454332351685,
          0.7742658257484436,
          0.8391985893249512,
          -0.9941338896751404,
          -0.19539307057857513,
          -0.13144566118717194,
          0.09432236850261688,
          -0.46052029728889465,
          1.0053515434265137,
          0.7960315942764282,
          0.043318044394254684,
          0.5349397659301758,
          -1.4582659006118774,
          -0.9079620242118835,
          0.36982253193855286,
          0.33669036626815796,
          -0.18718591332435608,
          -0.3294794261455536,
          -0.3849284052848816,
          -0.8650716543197632,
          0.6678667068481445,
          0.17830663919448853,
          -0.46629831194877625,
          0.017496319487690926,
          -0.8620219826698303,
          -1.5343316793441772,
          -0.8613199591636658,
          0.39668703079223633,
          0.4261558949947357,
          -0.21980147063732147,
          0.057121384888887405,
          -0.2188863903284073,
          -1.076082468032837,
          0.7200398445129395,
          0.3112456202507019,
          -0.3517649471759796,
          0.6905167102813721,
          -0.08076692372560501,
          -0.7974222898483276,
          -0.43989846110343933,
          0.01482150238007307,
          -0.8027837872505188,
          0.7530794739723206,
          -0.5721254348754883,
          0.7450465559959412,
          -0.3211205005645752,
          0.08595108240842819,
          0.12123455852270126,
          1.673170804977417,
          0.8904430866241455,
          -0.04887034744024277,
          0.7298860549926758,
          0.3078947365283966,
          -0.5631197690963745,
          0.40739765763282776,
          -0.5469880104064941,
          -0.12986038625240326,
          0.29445016384124756,
          0.4995959997177124,
          -1.315441608428955,
          0.009318375028669834,
          0.0022464836947619915,
          0.3027479350566864,
          -0.6694256067276001,
          -0.6317061185836792,
          -0.4413546919822693,
          -0.8213931322097778,
          0.13062596321105957,
          1.1240015029907227,
          1.1346508264541626,
          0.06434639543294907,
          0.4571666121482849,
          0.20222699642181396,
          1.463787317276001,
          -0.49501585960388184,
          0.15251512825489044,
          -0.5107439160346985,
          -0.3579563498497009,
          0.26130807399749756,
          -0.6972625255584717,
          0.028352733701467514,
          0.5251790881156921,
          -0.020816713571548462,
          0.21107348799705505,
          -1.0233718156814575,
          -0.35605573654174805,
          -0.3513619899749756,
          0.19117197394371033,
          -0.49967047572135925,
          -0.746647298336029,
          -0.17044368386268616,
          -0.7988014221191406,
          -0.32015708088874817,
          0.7758452892303467,
          0.9723798632621765,
          -0.6155105829238892,
          0.11347346752882004,
          0.30185866355895996,
          -0.02169792726635933,
          -0.09160593897104263,
          0.1000659167766571,
          -0.47671014070510864,
          -1.14369797706604,
          -0.1580880880355835,
          0.2011018991470337,
          1.0511595010757446,
          -0.5688003301620483,
          0.795113742351532,
          -0.2682027816772461,
          -0.008059421554207802,
          0.6686780452728271,
          0.14975953102111816,
          -0.8786786198616028,
          0.4891188144683838,
          0.9308376312255859,
          -0.5535781979560852,
          0.5804882645606995,
          0.3046303689479828,
          -0.35770025849342346,
          0.2666809558868408,
          0.7298334240913391,
          0.3851414918899536,
          -0.005871860776096582,
          -0.11465422809123993,
          -1.8272876739501953,
          0.5366597771644592,
          -1.3932396173477173,
          0.42241159081459045,
          0.05046457052230835,
          -0.2542131841182709,
          0.07346248626708984,
          0.41515544056892395,
          -1.0089608430862427,
          0.437968373298645,
          0.2377641648054123,
          0.008261054754257202,
          0.23708190023899078,
          0.7453235387802124,
          -0.3474596440792084,
          -0.21453344821929932,
          0.4080256521701813,
          0.21369381248950958,
          -0.5242521166801453,
          0.27727776765823364,
          -0.5931082963943481,
          -0.05682896822690964,
          -0.7910314202308655,
          -0.11812698841094971,
          0.055036772042512894,
          -0.19003957509994507,
          0.7315410375595093,
          -1.4000017642974854,
          -0.3654704988002777,
          0.07743790000677109,
          0.19246149063110352,
          -0.5490081906318665,
          -0.3697396218776703,
          0.06823200732469559,
          -0.7597028613090515,
          0.7165750861167908,
          0.17982332408428192,
          0.1638527810573578,
          1.1261897087097168,
          -1.4504061937332153,
          -1.2455768585205078,
          0.2684582471847534,
          -0.7024884223937988,
          -0.06483271718025208,
          0.26363900303840637,
          0.2224242091178894,
          0.027015093713998795,
          0.6811855435371399,
          0.33549177646636963,
          1.076935887336731,
          0.12074282020330429,
          -0.3215872645378113,
          0.809573233127594,
          -0.0011857467470690608,
          -1.3669489622116089,
          0.15066799521446228,
          0.02454964444041252,
          -0.9588772654533386,
          -0.12763607501983643,
          -0.7725133299827576,
          -0.21171492338180542,
          0.36805132031440735,
          0.2490793913602829,
          -0.613361120223999,
          0.21805928647518158,
          1.1915233135223389,
          0.08845037966966629,
          -0.9615331292152405,
          0.26976239681243896,
          -0.20904405415058136,
          -0.20152071118354797,
          1.4843710660934448,
          -0.3330727219581604,
          -0.14255188405513763,
          0.691779375076294,
          -0.33666446805000305,
          -0.6384285092353821,
          0.27707791328430176,
          0.700019121170044,
          -0.015737341716885567,
          -0.29920825362205505,
          0.36560550332069397,
          0.3942068815231323,
          0.1916668713092804,
          -0.6276369094848633,
          -0.23704342544078827
        ]
      },
      "inputBias": {
        "rows": 20,
        "columns": 1,
        "weights": [
          0.1609942466020584,
          0.18737268447875977,
          0.041850846260786057,
          -0.2659602761268616,
          0.6316097974777222,
          0.4868781268596649,
          0.8652147650718689,
          0.23746009171009064,
          0.48224741220474243,
          -0.01424152497202158,
          0.24287229776382446,
          -0.6187776327133179,
          -0.20648185908794403,
          1.0355409383773804,
          0.10872393846511841,
          0.3038855493068695,
          0.44658902287483215,
          1.36824369430542,
          1.0520720481872559,
          1.070595145225525
        ]
      },
      "forgetMatrix": {
        "rows": 20,
        "columns": 28,
        "weights": [
          0.07823605090379715,
          -0.31219661235809326,
          -0.24863582849502563,
          -0.20942258834838867,
          -0.29583197832107544,
          -0.23949463665485382,
          -0.5264535546302795,
          0.2002275437116623,
          0.4463021159172058,
          -0.05280572548508644,
          0.12803198397159576,
          0.007968076504766941,
          -0.03804253786802292,
          -0.6404539346694946,
          -0.27973806858062744,
          -0.1473899632692337,
          -0.2654649019241333,
          -0.31862539052963257,
          -0.1265660673379898,
          -0.4522758424282074,
          -0.13095301389694214,
          0.36875519156455994,
          0.37733393907546997,
          0.4586668312549591,
          0.3835267424583435,
          0.25667116045951843,
          0.1948772668838501,
          0.3397240936756134,
          0.20397576689720154,
          -0.016683325171470642,
          0.12848059833049774,
          0.125618115067482,
          0.41570034623146057,
          0.20240521430969238,
          0.4363839030265808,
          0.2855699956417084,
          -0.043400898575782776,
          -0.28909197449684143,
          -0.06774898618459702,
          -0.48406681418418884,
          0.32141584157943726,
          0.0384179912507534,
          -0.20560316741466522,
          -0.25751355290412903,
          0.32888007164001465,
          0.11042216420173645,
          -0.19879767298698425,
          0.1812644749879837,
          -0.06956548243761063,
          -0.22541673481464386,
          0.3583390414714813,
          -0.6461265683174133,
          -0.7042199373245239,
          0.4319395124912262,
          0.30445805191993713,
          0.3084588944911957,
          0.40748921036720276,
          0.5194064974784851,
          0.20891611278057098,
          0.2997267246246338,
          -0.14635953307151794,
          0.18331927061080933,
          0.44904205203056335,
          -0.24028098583221436,
          -0.014965258538722992,
          -0.4493612051010132,
          -0.12156301736831665,
          -0.1350748986005783,
          0.1255766749382019,
          -0.27854153513908386,
          0.11030115932226181,
          0.18512985110282898,
          0.7497768998146057,
          0.1324962079524994,
          0.3630785644054413,
          0.22762280702590942,
          0.20317108929157257,
          -0.24814042448997498,
          0.1595795750617981,
          -0.054514773190021515,
          -0.20592187345027924,
          0.008920996449887753,
          -0.6286607384681702,
          0.06523329019546509,
          0.1467059701681137,
          -0.10704285651445389,
          -0.920619010925293,
          -0.22914919257164001,
          -0.15711411833763123,
          -0.3545163571834564,
          0.6242267489433289,
          -0.18844164907932281,
          0.34128862619400024,
          -0.22349902987480164,
          -0.14577455818653107,
          0.11616015434265137,
          0.7692437171936035,
          -0.2643766701221466,
          -0.7377018332481384,
          -0.24795301258563995,
          0.26436153054237366,
          -0.1151881068944931,
          -0.2877802550792694,
          0.5350842475891113,
          -0.33981868624687195,
          0.273668497800827,
          0.31767138838768005,
          0.004942507017403841,
          0.3862265348434448,
          0.1747623085975647,
          -0.4546036124229431,
          0.16710324585437775,
          -0.10792344063520432,
          0.3873137831687927,
          0.7096008062362671,
          0.09250999987125397,
          0.2541930377483368,
          -0.037666402757167816,
          0.2562201917171478,
          -0.3283297121524811,
          -0.0707504153251648,
          -0.10106337070465088,
          0.31040045619010925,
          0.2722285985946655,
          -0.3136051595211029,
          0.22712114453315735,
          -0.23144887387752533,
          -0.4847973585128784,
          0.5713783502578735,
          0.17337042093276978,
          -0.12099166959524155,
          0.022127211093902588,
          0.15622209012508392,
          0.17079633474349976,
          -0.305801659822464,
          -0.5975889563560486,
          0.2119797021150589,
          0.32050809264183044,
          -0.4466722905635834,
          0.14139355719089508,
          -0.5989996790885925,
          -0.23945432901382446,
          0.7168866991996765,
          0.21809273958206177,
          -0.27208223938941956,
          0.1747642308473587,
          -0.41650086641311646,
          -0.2616497278213501,
          0.11243961751461029,
          0.3102833330631256,
          -0.2531440556049347,
          0.7860646843910217,
          -0.32669198513031006,
          0.17727409303188324,
          0.25074130296707153,
          0.2210938185453415,
          0.3264358937740326,
          -0.1876641809940338,
          0.282135933637619,
          -0.292807936668396,
          0.06199069321155548,
          -0.13174240291118622,
          0.1952541470527649,
          0.3844824433326721,
          0.6210041642189026,
          0.1540231704711914,
          -0.23316791653633118,
          0.256619393825531,
          -0.32173600792884827,
          -0.342450886964798,
          -0.11163026094436646,
          -0.42193254828453064,
          0.3591711223125458,
          -0.04813612997531891,
          -0.3717538118362427,
          -0.13233640789985657,
          0.21497729420661926,
          -0.27953454852104187,
          -0.334861159324646,
          -0.2600124180316925,
          0.1355856955051422,
          -0.1459660828113556,
          -0.17789098620414734,
          -0.12792210280895233,
          -0.348800927400589,
          0.09620996564626694,
          0.45272427797317505,
          -0.11832282692193985,
          -0.4451858401298523,
          -0.26136231422424316,
          -0.2200365960597992,
          0.28622129559516907,
          0.20880237221717834,
          0.041341688483953476,
          0.5894980430603027,
          0.17136560380458832,
          0.06525114178657532,
          -0.2646908462047577,
          0.8816336393356323,
          0.46375951170921326,
          0.06945814937353134,
          0.21151556074619293,
          -0.6269645094871521,
          -0.3710035979747772,
          0.10306480526924133,
          0.3707026541233063,
          0.0032437192276120186,
          0.07097601145505905,
          -0.2525269091129303,
          -0.4719924032688141,
          0.1313486099243164,
          -0.04145217686891556,
          0.27470874786376953,
          0.587782621383667,
          -0.012127893976867199,
          -0.39682579040527344,
          0.3159756064414978,
          0.1623004525899887,
          0.20809417963027954,
          0.13052156567573547,
          -0.33712315559387207,
          0.15155015885829926,
          0.6115115284919739,
          -0.2068360149860382,
          -0.283432275056839,
          0.00381724676117301,
          -0.5589532256126404,
          -0.105964794754982,
          -0.5759637355804443,
          -0.13735538721084595,
          0.3265206217765808,
          0.26820096373558044,
          -0.09937695413827896,
          -0.18066072463989258,
          0.22867722809314728,
          0.23313277959823608,
          0.16444359719753265,
          0.5183078646659851,
          0.013362878002226353,
          0.15182636678218842,
          -0.034737687557935715,
          -0.3143487274646759,
          0.3847752511501312,
          0.41315025091171265,
          -0.1502840369939804,
          0.12518668174743652,
          0.3916560709476471,
          -0.15053462982177734,
          0.16050876677036285,
          0.515358567237854,
          -0.5002444386482239,
          0.0943017303943634,
          0.19208669662475586,
          0.20312650501728058,
          0.011786581948399544,
          -0.04748564213514328,
          0.10879025608301163,
          0.14270363748073578,
          -0.1061849594116211,
          -0.06250999867916107,
          -0.2504923939704895,
          -0.26338210701942444,
          -0.3017991781234741,
          -0.3293246030807495,
          0.03552050143480301,
          0.28431522846221924,
          -0.1044057160615921,
          -0.2111750692129135,
          0.09168582409620285,
          0.06893286108970642,
          0.09216295182704926,
          0.31158143281936646,
          -0.13619579374790192,
          0.34116095304489136,
          0.2284880131483078,
          0.2458188831806183,
          -0.17695337533950806,
          0.1948530524969101,
          0.017561519518494606,
          -0.26683735847473145,
          -0.022194260731339455,
          0.5744141340255737,
          0.9004075527191162,
          -0.061740364879369736,
          0.1672009825706482,
          0.03569039702415466,
          -0.11679752171039581,
          -0.0927656814455986,
          0.334987610578537,
          0.11174806952476501,
          -0.30323338508605957,
          0.18353231251239777,
          -0.47892075777053833,
          0.049483928829431534,
          0.1561322659254074,
          -0.06884441524744034,
          0.04769045114517212,
          -0.01872953400015831,
          0.22938868403434753,
          0.04948468506336212,
          0.11094897240400314,
          0.32002100348472595,
          -0.0627816691994667,
          0.40857771039009094,
          -0.03961911052465439,
          0.3728877305984497,
          0.1196664348244667,
          0.21770501136779785,
          0.5359770655632019,
          -0.3940950930118561,
          0.5578717589378357,
          -0.07415428757667542,
          0.3379993736743927,
          0.23050369322299957,
          -0.39124777913093567,
          0.14751096069812775,
          0.10155870765447617,
          0.22752268612384796,
          -0.4709448516368866,
          -0.5698750615119934,
          -0.06683509796857834,
          -0.3566179871559143,
          -0.4355098605155945,
          0.060929037630558014,
          0.2095945030450821,
          0.15559132397174835,
          -0.36414551734924316,
          0.024037478491663933,
          0.13243994116783142,
          0.1389216184616089,
          0.24180088937282562,
          0.5360779762268066,
          0.13675978779792786,
          0.06483286619186401,
          -0.08193711191415787,
          0.09214089065790176,
          0.21557001769542694,
          0.6750020384788513,
          0.3314916789531708,
          -0.6828089952468872,
          0.46550315618515015,
          0.3221060335636139,
          -0.49699488282203674,
          -0.44035401940345764,
          0.43485596776008606,
          0.16155864298343658,
          0.8154186606407166,
          0.06895211338996887,
          -0.16847144067287445,
          -0.17451561987400055,
          0.03641914203763008,
          -0.02840110845863819,
          0.6144222021102905,
          -0.20489105582237244,
          0.8969957232475281,
          -0.2801364064216614,
          0.040489356964826584,
          0.7673702836036682,
          -0.12445595860481262,
          -0.21402601897716522,
          0.26209864020347595,
          0.22511520981788635,
          0.0009236414334736764,
          -0.2836917042732239,
          -0.5610673427581787,
          0.41356196999549866,
          0.32132378220558167,
          -0.16191691160202026,
          0.011009431444108486,
          0.14242413640022278,
          -0.4517037570476532,
          -0.053913284093141556,
          0.2602725625038147,
          0.23859938979148865,
          0.0275700856000185,
          0.14314956963062286,
          0.014741182327270508,
          -0.2510119676589966,
          0.012631464749574661,
          0.020841756835579872,
          0.21563522517681122,
          0.03852701187133789,
          0.1050952598452568,
          -0.24420590698719025,
          -0.6300044655799866,
          -0.03300037607550621,
          0.04450179636478424,
          0.05167001858353615,
          -0.17828893661499023,
          -0.07736445963382721,
          0.11997956782579422,
          -0.13147275149822235,
          -0.2829352617263794,
          -0.023115282878279686,
          0.47281673550605774,
          0.5409879088401794,
          0.17246875166893005,
          0.38230085372924805,
          0.14038307964801788,
          -0.5682533383369446,
          -0.5065558552742004,
          -0.29290562868118286,
          0.11143380403518677,
          -0.19398202002048492,
          0.18108293414115906,
          0.9483650326728821,
          -0.32319557666778564,
          0.2676897346973419,
          -0.6981160640716553,
          0.11821547895669937,
          0.2562367022037506,
          -0.22136197984218597,
          0.21401292085647583,
          -0.4094736874103546,
          0.17341336607933044,
          -0.16185855865478516,
          -0.23067942261695862,
          0.03813020512461662,
          0.6846566796302795,
          -0.43199673295021057,
          0.24287866055965424,
          -0.2526056170463562,
          0.7253750562667847,
          0.8459754586219788,
          -0.22755703330039978,
          0.5222411155700684,
          0.10714443773031235,
          0.46972376108169556,
          -0.352763295173645,
          0.09179449826478958,
          0.15702657401561737,
          -0.010193594731390476,
          -0.15866969525814056,
          0.2685682475566864,
          -0.0068709393963217735,
          0.17917485535144806,
          0.2162439525127411,
          0.25662752985954285,
          -0.2016429752111435,
          0.12212513387203217,
          0.8753571510314941,
          -0.22764268517494202,
          -0.007473149336874485,
          0.03428091108798981,
          -0.29040637612342834,
          0.10888474434614182,
          0.37385889887809753,
          -0.25615569949150085,
          0.030701663345098495,
          -0.6902461647987366,
          0.25739166140556335,
          0.2086692601442337,
          0.2296016663312912,
          0.11685462296009064,
          -0.09350456297397614,
          0.17842265963554382,
          -0.2680433392524719,
          0.2637803852558136,
          -0.18956686556339264,
          -0.09644170850515366,
          -0.21279294788837433,
          0.3296951651573181,
          0.2561057209968567,
          0.012755626812577248,
          0.5237179398536682,
          -0.03324803709983826,
          0.05758988484740257,
          -0.14727172255516052,
          0.07439303398132324,
          -0.014319689013063908,
          0.20660294592380524,
          0.15197701752185822,
          -0.15702274441719055,
          0.3720797896385193,
          -0.02638111636042595,
          0.49879729747772217,
          0.09266724437475204,
          -0.4551021456718445,
          0.6532725095748901,
          -0.38509678840637207,
          -0.08300254493951797,
          0.5453071594238281,
          -0.32634082436561584,
          0.0018873086664825678,
          -0.040371473878622055,
          0.30219799280166626,
          0.09970607608556747,
          0.39207684993743896,
          -0.042519088834524155,
          0.05550319701433182,
          -0.06872544437646866,
          -0.42223691940307617,
          0.17078514397144318,
          0.062201596796512604,
          -0.256428062915802,
          0.062027543783187866,
          0.40959423780441284,
          0.5918146967887878,
          0.19563038647174835,
          0.0966033786535263,
          0.11376814544200897,
          0.06524752080440521,
          -0.4048977196216583,
          -0.02863726206123829,
          -0.2614704370498657,
          -0.21788720786571503,
          -0.20674563944339752,
          -0.7891845107078552,
          0.7693453431129456,
          0.25564682483673096,
          -0.23668672144412994,
          -0.3230755031108856,
          -0.4034976363182068,
          -0.3024633526802063,
          -1.063616394996643,
          -0.33622074127197266,
          -0.02335168980062008,
          0.05767242610454559,
          -0.5110903978347778,
          -0.1999117136001587,
          -0.14494836330413818,
          0.20555825531482697,
          0.2538977563381195,
          0.04429265111684799,
          -0.10436689108610153,
          0.15497316420078278,
          -0.13015013933181763,
          0.5198951363563538,
          0.34571290016174316,
          0.2050734907388687,
          0.12543778121471405,
          0.3135039508342743,
          -0.07051526010036469,
          0.05554584786295891,
          -0.5153974890708923,
          -0.23973923921585083,
          -0.0465124286711216,
          -0.13419653475284576,
          0.14573867619037628,
          0.3367743194103241,
          -0.4598093032836914,
          -0.08444250375032425,
          -0.24815164506435394,
          0.2700711786746979,
          0.022573960945010185,
          0.09731346368789673,
          -0.2035386562347412,
          0.21436506509780884,
          -0.3797527551651001,
          -0.21647904813289642,
          0.3537510335445404,
          0.43531179428100586,
          0.168841153383255,
          -0.08230354636907578,
          -0.20407481491565704,
          -0.052646540105342865,
          0.04326166957616806,
          0.2304675579071045,
          0.43951672315597534,
          0.4298931062221527
        ]
      },
      "forgetHidden": {
        "rows": 20,
        "columns": 20,
        "weights": [
          0.7201434373855591,
          -0.20844142138957977,
          -1.117916226387024,
          0.32063037157058716,
          0.31601133942604065,
          -0.13427436351776123,
          -0.12730829417705536,
          -0.024867240339517593,
          0.21829530596733093,
          0.36038824915885925,
          -0.5331303477287292,
          0.20765289664268494,
          -0.10919395834207535,
          -0.9152852296829224,
          0.37331488728523254,
          0.3420659899711609,
          -0.2573084235191345,
          -0.699347734451294,
          -0.6976126432418823,
          1.5786412954330444,
          -0.8857213854789734,
          0.2260047048330307,
          0.5237218141555786,
          1.3846298456192017,
          0.1331884115934372,
          -0.6497617959976196,
          0.24144530296325684,
          0.17631255090236664,
          -0.6541232466697693,
          0.5690726637840271,
          0.32064858078956604,
          0.20607224106788635,
          -0.7449790239334106,
          -0.7069799304008484,
          0.9869573712348938,
          0.05984744429588318,
          -0.7306263446807861,
          -0.12452425062656403,
          0.059155579656362534,
          1.1698895692825317,
          -0.11098144948482513,
          0.25192978978157043,
          0.3759094178676605,
          0.13714352250099182,
          -0.506039559841156,
          -0.3516077995300293,
          -0.3350202441215515,
          0.04842323064804077,
          -0.2427676022052765,
          0.4227558970451355,
          1.5924335718154907,
          -0.2252800315618515,
          0.14705494046211243,
          -0.685261607170105,
          0.268156498670578,
          -0.5927400588989258,
          0.49189674854278564,
          0.8517149686813354,
          -0.16521020233631134,
          0.9386188983917236,
          0.10071719437837601,
          0.30463847517967224,
          -1.1908605098724365,
          0.31377312541007996,
          -0.05060385912656784,
          0.032405029982328415,
          0.7021181583404541,
          -0.0536203607916832,
          0.20161072909832,
          -1.901157021522522,
          0.6716659665107727,
          -0.5464094281196594,
          0.10300493240356445,
          -0.4401559829711914,
          1.6175248622894287,
          -0.7432147264480591,
          0.17092807590961456,
          -0.11519777774810791,
          1.0778398513793945,
          0.9108395576477051,
          0.14754599332809448,
          0.14650475978851318,
          -0.015864862129092216,
          0.16688235104084015,
          0.06675289571285248,
          -0.6397473812103271,
          0.10576774179935455,
          -0.15053825080394745,
          0.013872882351279259,
          0.5901946425437927,
          0.24567516148090363,
          -0.7252635359764099,
          0.5081181526184082,
          -0.5838306546211243,
          0.19283059239387512,
          0.42827633023262024,
          -0.7568413615226746,
          -1.5026568174362183,
          0.23082409799098969,
          0.06661118566989899,
          0.02356792613863945,
          -0.30631887912750244,
          0.3522137701511383,
          0.003279697382822633,
          0.6308856010437012,
          0.10940137505531311,
          -0.24866707623004913,
          -0.2933024764060974,
          1.3507962226867676,
          0.5272005200386047,
          1.0739330053329468,
          0.1246454194188118,
          -0.5200632214546204,
          0.252466082572937,
          -0.04286051541566849,
          -0.5094111561775208,
          -0.4356805980205536,
          0.11799828708171844,
          -0.6891340613365173,
          -0.24714258313179016,
          -0.38649147748947144,
          0.2042732536792755,
          -0.35730984807014465,
          -1.7047948837280273,
          -0.4210186302661896,
          -0.2043270319700241,
          0.1774735003709793,
          0.02659192681312561,
          0.30788132548332214,
          0.8041279911994934,
          -0.3895077407360077,
          0.44742271304130554,
          -0.6139571070671082,
          -0.42968249320983887,
          -0.2673340439796448,
          0.3251752555370331,
          0.1665038764476776,
          -0.6363643407821655,
          0.49228203296661377,
          -0.02490418031811714,
          0.5807512402534485,
          0.029108872637152672,
          -0.3189009428024292,
          -0.05420900881290436,
          -0.4414658546447754,
          -0.10903508961200714,
          0.39686617255210876,
          0.5233186483383179,
          0.5744438171386719,
          0.4814280867576599,
          -0.3496420681476593,
          0.41176027059555054,
          0.057778630405664444,
          -0.010908037424087524,
          -0.7575110793113708,
          1.0612514019012451,
          0.7903832197189331,
          -0.2823960483074188,
          -0.06474946439266205,
          -0.9104796648025513,
          0.41090822219848633,
          1.0902997255325317,
          -1.0696231126785278,
          0.2616559863090515,
          -0.618574321269989,
          0.13938429951667786,
          -0.5561131238937378,
          0.22260823845863342,
          -1.1855093240737915,
          0.15875957906246185,
          -0.393751323223114,
          0.15028350055217743,
          0.2585216462612152,
          0.5910608768463135,
          0.1976310759782791,
          0.11780885607004166,
          -0.03691625967621803,
          0.31575143337249756,
          0.8890353441238403,
          -0.5413450002670288,
          0.736180305480957,
          0.3878368139266968,
          0.3068915009498596,
          -0.5909073352813721,
          0.6218928098678589,
          0.00601201131939888,
          0.3647504150867462,
          1.5056781768798828,
          0.014566631056368351,
          -0.26500314474105835,
          -0.17591026425361633,
          0.6285162568092346,
          -0.4153691232204437,
          0.012335477396845818,
          -0.39730727672576904,
          0.18652941286563873,
          -0.038828130811452866,
          -1.4640928506851196,
          0.6882116794586182,
          -0.1883598268032074,
          -0.9351982474327087,
          -0.3153619170188904,
          -0.8634800910949707,
          -0.6768396496772766,
          0.11183442175388336,
          -0.03770008683204651,
          -0.19812454283237457,
          0.6694636344909668,
          -0.8505142331123352,
          -1.0414773225784302,
          0.10694879293441772,
          0.4579310715198517,
          -0.15304888784885406,
          -0.08776167780160904,
          -0.458163857460022,
          0.5733888149261475,
          0.0037800557911396027,
          0.03618345409631729,
          -0.2143155336380005,
          0.6981315612792969,
          1.0166093111038208,
          0.29875656962394714,
          -0.16267681121826172,
          0.12013602256774902,
          -0.33433103561401367,
          0.026094350963830948,
          -0.5378003716468811,
          -0.7084096670150757,
          -0.09611395001411438,
          0.06190609931945801,
          0.7780603170394897,
          0.4001762270927429,
          0.0890246331691742,
          -0.61378014087677,
          -0.03258487209677696,
          0.18224795162677765,
          -0.48070549964904785,
          0.568181574344635,
          0.14604130387306213,
          -0.7839520573616028,
          -0.40227609872817993,
          0.5229529142379761,
          0.31090810894966125,
          0.7439841032028198,
          1.2875792980194092,
          -0.651515543460846,
          -0.10356214642524719,
          0.4126986563205719,
          0.9863097071647644,
          0.06796913594007492,
          0.7233191728591919,
          -0.3974720537662506,
          -0.015227497555315495,
          -0.2882471978664398,
          0.9961404800415039,
          0.22971734404563904,
          0.5479938387870789,
          -0.25391724705696106,
          0.3722296357154846,
          0.3550448417663574,
          0.7524895668029785,
          -0.04788502678275108,
          0.028656065464019775,
          -1.2841551303863525,
          -0.815311849117279,
          -0.02896876446902752,
          0.33233219385147095,
          -0.2723696827888489,
          -0.1863032579421997,
          0.6039950847625732,
          0.44947174191474915,
          -0.27194106578826904,
          -0.453357994556427,
          -0.21919918060302734,
          0.10281297564506531,
          0.4701424241065979,
          0.9680114984512329,
          -0.2440367043018341,
          -0.03315160050988197,
          0.5020348429679871,
          0.4120309054851532,
          -0.5161893367767334,
          -1.4592748880386353,
          -0.7923307418823242,
          0.13521239161491394,
          0.08338887244462967,
          -0.23022738099098206,
          0.2588617205619812,
          0.5289251804351807,
          0.3225139081478119,
          0.13951824605464935,
          -1.0115662813186646,
          0.2537670135498047,
          0.13398993015289307,
          -0.30001533031463623,
          0.4136192500591278,
          -0.08044704794883728,
          -0.16156426072120667,
          -0.20959505438804626,
          0.10200722515583038,
          0.21709144115447998,
          -0.2751816213130951,
          -0.42512863874435425,
          -0.5640968680381775,
          0.6450743079185486,
          -0.7391964793205261,
          -0.024273747578263283,
          -0.7480068206787109,
          -0.15788614749908447,
          -0.529698371887207,
          -0.9026371836662292,
          0.07732328027486801,
          -0.1459014117717743,
          0.5088037848472595,
          -0.8841991424560547,
          -0.011680560186505318,
          -0.2880912125110626,
          0.3996511697769165,
          -0.380770742893219,
          -0.39606940746307373,
          0.9738460183143616,
          0.6382696628570557,
          -0.7912088632583618,
          0.025508243590593338,
          -0.04287070035934448,
          0.3670942485332489,
          -0.7736435532569885,
          0.38856324553489685,
          0.05921182781457901,
          -0.9163343906402588,
          0.7185149788856506,
          -0.7760171890258789,
          0.06771668791770935,
          0.1652984917163849,
          -0.35961249470710754,
          0.33194372057914734,
          0.1968936175107956,
          0.14416489005088806,
          -0.3530619442462921,
          0.882291316986084,
          -0.21964538097381592,
          0.5646492838859558,
          -0.04041355475783348,
          1.216927170753479,
          -0.062328945845365524,
          0.9336848258972168,
          -0.4964924156665802,
          -0.1219167485833168,
          0.18345999717712402,
          -0.4971526265144348,
          -0.8873603343963623,
          0.02098076231777668,
          0.5686761736869812,
          -0.14508184790611267,
          1.0134373903274536,
          0.11927635222673416,
          0.9849392771720886,
          -0.5623224377632141,
          0.24844509363174438,
          -0.02889793924987316,
          0.16947151720523834,
          -0.4940534234046936,
          0.4015863537788391,
          -0.41101503372192383,
          -0.15402238070964813,
          0.29129382967948914,
          -0.6204046010971069,
          0.7877890467643738,
          -0.34176018834114075,
          0.44091126322746277,
          -0.6869083046913147,
          0.03490598872303963,
          0.07906851172447205,
          0.4225651025772095,
          -0.0006177158793434501,
          -0.4673992395401001,
          0.3220987915992737,
          1.1709030866622925,
          -0.24263857305049896,
          0.2659189999103546,
          -0.2536863088607788,
          0.14309319853782654,
          -0.18544745445251465,
          0.8214255571365356,
          0.28021976351737976,
          -0.652507483959198,
          -0.13165758550167084,
          0.41842448711395264,
          -0.5922370553016663,
          0.8380470871925354,
          -0.8522180914878845,
          -0.16014137864112854,
          0.7164493799209595,
          -0.5601277351379395,
          1.0391894578933716,
          -0.922219455242157,
          1.1911612749099731,
          -0.017640650272369385,
          0.26881569623947144,
          0.3291039764881134
        ]
      },
      "forgetBias": {
        "rows": 20,
        "columns": 1,
        "weights": [
          0,
          0,
          0,
          0,
          0,
          0,
          0,
          0,
          0,
          0,
          0,
          0,
          0,
          0,
          0,
          0,
          0,
          0,
          0,
          0
        ]
      },
      "outputMatrix": {
        "rows": 20,
        "columns": 28,
        "weights": [
          0.11972606927156448,
          0.6124751567840576,
          0.10772325843572617,
          -0.2924102246761322,
          -0.1262570023536682,
          0.1013668105006218,
          0.03900924324989319,
          0.33757081627845764,
          0.1687956303358078,
          -0.08700184524059296,
          0.3274569511413574,
          0.015990866348147392,
          0.2428453117609024,
          0.3010399639606476,
          0.3995015025138855,
          0.054118264466524124,
          -0.12784507870674133,
          -0.013667834922671318,
          0.07230772823095322,
          -0.39157965779304504,
          0.39772137999534607,
          0.030465321615338326,
          -0.056749626994132996,
          -0.3585752844810486,
          -0.004135742783546448,
          0.13873109221458435,
          0.22440075874328613,
          0.13661615550518036,
          -0.4729321300983429,
          -0.64774090051651,
          0.2441340684890747,
          -0.2309199422597885,
          -0.18156063556671143,
          0.2992900013923645,
          -0.23389174044132233,
          -0.10625029355287552,
          -0.07364992052316666,
          -0.3837200105190277,
          -0.3306005299091339,
          0.0694430023431778,
          -0.052831605076789856,
          0.6311856508255005,
          0.0847688615322113,
          -0.2738740146160126,
          -0.040124714374542236,
          0.2964487373828888,
          0.22379957139492035,
          -0.07183592021465302,
          0.22639784216880798,
          -0.04365140572190285,
          0.13222110271453857,
          0.11013831198215485,
          -0.10055050998926163,
          0.11826124042272568,
          0.13622768223285675,
          -0.11533709615468979,
          0.03466159105300903,
          0.12881797552108765,
          -0.008898518048226833,
          -0.30737343430519104,
          -0.6591106653213501,
          0.4307718276977539,
          0.3136884272098541,
          0.17054453492164612,
          0.2950548529624939,
          0.8013902306556702,
          -0.010059172287583351,
          0.4453986585140228,
          0.3487202525138855,
          -0.04263569042086601,
          0.12764275074005127,
          0.06817096471786499,
          0.3729289770126343,
          -0.35609912872314453,
          -0.023421749472618103,
          0.15491227805614471,
          0.38881227374076843,
          0.05735542252659798,
          0.7342728972434998,
          -0.17541971802711487,
          -0.08061756193637848,
          0.1289033740758896,
          -0.11793796718120575,
          0.14363908767700195,
          0.36582595109939575,
          -0.19916774332523346,
          0.23653674125671387,
          0.18428419530391693,
          -0.1678258776664734,
          -0.024717064574360847,
          -0.31049665808677673,
          -0.10462809354066849,
          0.21722540259361267,
          0.02616776153445244,
          0.18081322312355042,
          0.10274173319339752,
          -0.2582544982433319,
          -0.19488906860351562,
          0.2853315472602844,
          0.3450946509838104,
          0.3775278329849243,
          0.24671894311904907,
          0.21720805764198303,
          -0.01824173703789711,
          0.2342536896467209,
          -0.12353552877902985,
          0.7688243389129639,
          -0.02828735113143921,
          0.06022115424275398,
          0.15334181487560272,
          0.10928035527467728,
          0.5017958283424377,
          0.5144922733306885,
          0.20693613588809967,
          0.19388867914676666,
          -0.5345868468284607,
          0.4727587103843689,
          -0.36866337060928345,
          -0.3742375075817108,
          -0.1197051852941513,
          0.39966273307800293,
          -0.3194892108440399,
          0.10828396677970886,
          0.11459695547819138,
          0.4249952733516693,
          -0.5961383581161499,
          -0.4747926890850067,
          -0.060364287346601486,
          0.6647322177886963,
          -0.014676243998110294,
          0.18204288184642792,
          -0.4532218277454376,
          -0.026323668658733368,
          0.25224971771240234,
          -0.2838478982448578,
          0.38649770617485046,
          -0.37160056829452515,
          0.19555683434009552,
          -0.013289128430187702,
          0.47004956007003784,
          0.1352725476026535,
          -0.043670736253261566,
          -0.15959887206554413,
          0.06438016891479492,
          -0.3595566749572754,
          0.4698767066001892,
          0.1239301785826683,
          0.04565434530377388,
          -0.08508584648370743,
          -0.2065344750881195,
          0.0255439393222332,
          -0.21348249912261963,
          0.2964768707752228,
          -0.06518135219812393,
          -0.17479580640792847,
          -0.030294198542833328,
          0.22940491139888763,
          0.1445883959531784,
          0.034885384142398834,
          -0.2877371609210968,
          0.6141053438186646,
          -0.10663989186286926,
          0.2879634201526642,
          0.0930265411734581,
          0.5177536010742188,
          0.20056408643722534,
          0.16632084548473358,
          0.19201011955738068,
          -0.18295882642269135,
          -0.5199029445648193,
          -0.24066710472106934,
          -0.5974727272987366,
          0.09315498173236847,
          0.10127870738506317,
          0.005513294134289026,
          -0.2539980113506317,
          0.5143608450889587,
          -0.30958685278892517,
          -0.33711057901382446,
          0.301401823759079,
          -0.0913909450173378,
          -0.01062808558344841,
          -0.13479642570018768,
          -0.2495449185371399,
          -0.04366503283381462,
          0.3003259599208832,
          0.23329320549964905,
          -0.2879246473312378,
          -0.0882444679737091,
          0.04638741537928581,
          -0.05929230526089668,
          0.17052331566810608,
          0.21973493695259094,
          0.2450261116027832,
          -0.42198532819747925,
          -0.4674913287162781,
          -0.17461591958999634,
          -0.5264407396316528,
          -0.12258224934339523,
          -0.13971897959709167,
          -0.37743109464645386,
          -0.053067971020936966,
          0.3922751843929291,
          0.18146908283233643,
          0.09813303500413895,
          0.1340072751045227,
          0.10169467329978943,
          0.12270218133926392,
          -0.10161669552326202,
          0.1785702258348465,
          0.1537770926952362,
          -0.036128491163253784,
          0.09941376000642776,
          0.07720927894115448,
          0.1927785724401474,
          0.05276354402303696,
          0.43004050850868225,
          -0.049526698887348175,
          0.46962830424308777,
          -0.2642958462238312,
          0.3282162845134735,
          0.2624848783016205,
          -0.6761704683303833,
          0.24443598091602325,
          -1.0500919818878174,
          -0.2939521372318268,
          0.12171721458435059,
          -0.8057787418365479,
          0.21474844217300415,
          -0.8509629964828491,
          -0.2887152135372162,
          -1.224276065826416,
          0.5043058395385742,
          -0.11379797011613846,
          0.46579957008361816,
          0.10748744755983353,
          0.7463518977165222,
          -0.6514928340911865,
          -0.04779941961169243,
          -0.7157663702964783,
          0.23970380425453186,
          0.23190748691558838,
          0.4774636924266815,
          -0.33027222752571106,
          -0.6961321234703064,
          -0.16043858230113983,
          -0.6329967379570007,
          0.023154867812991142,
          -0.4954107403755188,
          -0.1210542693734169,
          -0.14573723077774048,
          -0.32345300912857056,
          0.27793052792549133,
          0.2893834710121155,
          -0.08701703697443008,
          -0.14611808955669403,
          0.14165054261684418,
          0.04167640209197998,
          0.10324116051197052,
          -0.2511063516139984,
          -0.14803168177604675,
          -0.006630023010075092,
          -0.42710480093955994,
          -0.3315337300300598,
          -0.02378144860267639,
          -0.07598844170570374,
          0.182471364736557,
          -0.1039079949259758,
          0.3249387741088867,
          -0.1908462941646576,
          -0.2701514959335327,
          -0.0674738883972168,
          0.1041182354092598,
          0.06872484087944031,
          0.22868701815605164,
          0.26163774728775024,
          -0.5083012580871582,
          0.0022251990158110857,
          0.11135224997997284,
          -0.17331023514270782,
          -0.8583870530128479,
          -0.050486672669649124,
          0.037129152566194534,
          -0.6645817756652832,
          -0.41533076763153076,
          0.43104875087738037,
          -0.299466609954834,
          -0.012398461811244488,
          -0.48901763558387756,
          0.14315158128738403,
          0.02119497023522854,
          0.37567847967147827,
          -0.12765789031982422,
          0.31487202644348145,
          0.22037380933761597,
          -0.36050117015838623,
          -0.45494544506073,
          -0.4283682405948639,
          0.1779382824897766,
          -0.12559953331947327,
          0.32495877146720886,
          -0.2817729711532593,
          0.6102153062820435,
          -0.5088543891906738,
          -0.5330758094787598,
          -0.03005281090736389,
          -0.2257809340953827,
          0.42626136541366577,
          -0.3839627802371979,
          -0.16522282361984253,
          -0.2718099057674408,
          -0.12353505194187164,
          0.07233788818120956,
          0.18648867309093475,
          0.2631590664386749,
          -0.3981991112232208,
          0.290076345205307,
          -0.20033714175224304,
          -0.6291919350624084,
          0.1367800086736679,
          0.047187354415655136,
          0.2705308496952057,
          0.017757151275873184,
          -0.16734793782234192,
          0.0880204290151596,
          0.0032259763684123755,
          -0.1077907457947731,
          -0.08122163265943527,
          -0.252526193857193,
          -0.02222839556634426,
          -0.18450723588466644,
          0.3088301420211792,
          -0.027130600064992905,
          0.14524883031845093,
          -0.019762542098760605,
          -0.2554956376552582,
          -0.4972016215324402,
          0.1507725864648819,
          -0.04626219719648361,
          -0.5331010818481445,
          0.0670972689986229,
          0.26993998885154724,
          -0.21553346514701843,
          0.04517766088247299,
          0.10111922770738602,
          0.007458357606083155,
          0.30266040563583374,
          0.18520821630954742,
          0.13648591935634613,
          -0.2818503975868225,
          -0.27297669649124146,
          -0.566409707069397,
          0.1440068781375885,
          -0.3508458435535431,
          0.01124314684420824,
          -0.0969138965010643,
          -0.10156437009572983,
          -0.4077085256576538,
          0.36148521304130554,
          -0.5044497847557068,
          -0.27910497784614563,
          0.1772090643644333,
          0.13895682990550995,
          -0.031066736206412315,
          -0.3439224660396576,
          0.1389867514371872,
          0.6536698937416077,
          -0.13289739191532135,
          0.13226762413978577,
          0.7657137513160706,
          -0.3780798614025116,
          0.19748537242412567,
          0.10792692005634308,
          0.05127289518713951,
          -0.3277003765106201,
          -0.6649481058120728,
          -0.27052247524261475,
          0.1321183294057846,
          -0.05071010813117027,
          0.22056381404399872,
          -0.23424169421195984,
          0.1508484184741974,
          0.4246728718280792,
          -0.3493908941745758,
          0.3329026997089386,
          0.15149597823619843,
          -0.06415430456399918,
          0.30310237407684326,
          -0.30238157510757446,
          0.3183768391609192,
          0.17419226467609406,
          0.24661679565906525,
          -0.16935020685195923,
          0.7452116012573242,
          -0.24647174775600433,
          -0.4100205898284912,
          -0.2037481665611267,
          -0.15111806988716125,
          -0.03733249753713608,
          -0.05996977910399437,
          0.021553274244070053,
          0.3407644033432007,
          0.07666602730751038,
          0.09727974236011505,
          0.2196233868598938,
          0.11930591613054276,
          -0.14170917868614197,
          0.2904958724975586,
          -0.43586134910583496,
          -0.3549816906452179,
          0.03370717912912369,
          -0.09722813963890076,
          -0.04224178194999695,
          -0.15125852823257446,
          0.3726867437362671,
          -0.06860872358083725,
          -0.09702398627996445,
          0.11399395018815994,
          -0.07063575088977814,
          -0.028924603015184402,
          0.11692164093255997,
          -0.4926295280456543,
          -0.5349725484848022,
          -0.7910687327384949,
          -0.35221877694129944,
          0.16200797259807587,
          0.16004100441932678,
          -0.7823429107666016,
          0.1340124011039734,
          -0.030541490763425827,
          -0.26977047324180603,
          0.01888544298708439,
          0.5269619226455688,
          0.1748921275138855,
          0.34842178225517273,
          0.022868823260068893,
          0.37602242827415466,
          -0.3080247938632965,
          -0.31097471714019775,
          0.09597937017679214,
          -0.16441687941551208,
          -0.08097182214260101,
          0.037993352860212326,
          -0.18700578808784485,
          -0.26176717877388,
          0.007243162486702204,
          -0.12111394852399826,
          -0.2380671352148056,
          0.22100478410720825,
          -0.49007830023765564,
          0.2718547582626343,
          -0.6880260109901428,
          0.1271187663078308,
          -0.49497106671333313,
          0.011921035125851631,
          -0.5024420619010925,
          0.43085166811943054,
          -0.03524928167462349,
          -0.09168614447116852,
          0.34184780716896057,
          0.3294932246208191,
          -0.4009400010108948,
          -0.17896099388599396,
          -0.2979855239391327,
          0.5891631245613098,
          0.47637075185775757,
          0.20733943581581116,
          -0.5641106963157654,
          0.012510948814451694,
          -0.05528734251856804,
          -0.1925870031118393,
          -0.0693446546792984,
          0.0802769809961319,
          0.2247883379459381,
          -0.6545273661613464,
          0.10388103872537613,
          -0.21644043922424316,
          -0.12453063577413559,
          -0.22343137860298157,
          -0.8305869698524475,
          0.28598958253860474,
          -0.3112933337688446,
          -0.1920650750398636,
          -0.2788998782634735,
          -0.253000408411026,
          0.025187965482473373,
          -0.2569178342819214,
          0.1806299388408661,
          0.12808755040168762,
          -0.19695283472537994,
          -0.1847841441631317,
          -0.14041632413864136,
          -0.05011386051774025,
          -0.30044081807136536,
          -0.03789030387997627,
          0.21018387377262115,
          -0.2609758973121643,
          -0.39026710391044617,
          -0.12126258760690689,
          0.19807322323322296,
          -0.4963464140892029,
          0.17644210159778595,
          -0.38159117102622986,
          0.6554533243179321,
          -0.46617135405540466,
          -0.4568817913532257,
          0.7532786726951599,
          0.3359089195728302,
          0.20141035318374634,
          0.7223013043403625,
          -0.2598622739315033,
          0.4700165390968323,
          0.18630820512771606,
          0.19024768471717834,
          -0.2911951243877411,
          -0.43675822019577026,
          -0.5545033812522888,
          0.08238978683948517,
          0.011290146969258785,
          -0.04306923970580101,
          -0.22757387161254883,
          0.4044642150402069,
          0.08048929274082184,
          -0.1933116763830185,
          0.43204429745674133,
          -0.27105435729026794,
          -0.07187127321958542,
          0.7761502861976624,
          -0.15626969933509827,
          -0.04598752036690712,
          -0.25939351320266724,
          0.026562752202153206,
          -0.5158811211585999,
          -1.7528952360153198,
          0.11346989870071411,
          0.09580652415752411,
          0.8082807660102844,
          0.2434072345495224,
          -0.21890050172805786,
          -0.01961582526564598,
          0.14454802870750427,
          -0.2009507119655609,
          -0.460132360458374,
          -0.3560633957386017,
          -0.3479759395122528,
          0.3455553948879242,
          0.06546036154031754,
          -0.1043095514178276,
          -0.11089718341827393,
          0.5121588706970215,
          0.606797456741333,
          -0.14915210008621216,
          0.1293904036283493,
          -0.1886044144630432,
          0.020814955234527588,
          0.3331187665462494,
          -0.30118218064308167,
          0.30427858233451843,
          -0.20348693430423737,
          0.4223814308643341
        ]
      },
      "outputHidden": {
        "rows": 20,
        "columns": 20,
        "weights": [
          0.8739723563194275,
          1.0281352996826172,
          -1.2892308235168457,
          0.6663596034049988,
          1.4768643379211426,
          -0.42285382747650146,
          0.5981660485267639,
          0.5448563694953918,
          -0.1350812166929245,
          0.11019419878721237,
          0.1299641877412796,
          0.6710948944091797,
          1.2727127075195312,
          -0.25914064049720764,
          -0.6711247563362122,
          0.4793160557746887,
          -0.5307316780090332,
          -0.44966834783554077,
          -0.09711198508739471,
          -0.12621478736400604,
          -0.3987477719783783,
          -0.37511342763900757,
          -0.7001899480819702,
          0.8176755905151367,
          0.30083635449409485,
          -0.14568834006786346,
          0.33513227105140686,
          0.3933364450931549,
          -0.6049325466156006,
          0.3158489167690277,
          0.7352331876754761,
          -0.005415983963757753,
          0.012250853702425957,
          -1.5583292245864868,
          0.41898640990257263,
          -0.41617974638938904,
          -0.5743919014930725,
          -0.20244275033473969,
          0.5747761726379395,
          1.3204342126846313,
          -0.1450181007385254,
          -0.3383558392524719,
          0.1308850795030594,
          -0.021265879273414612,
          0.6612967252731323,
          -0.542725682258606,
          -0.32854801416397095,
          1.177856206893921,
          -0.11914844065904617,
          -0.5187291502952576,
          0.6131730079650879,
          0.8401930332183838,
          -0.6299076676368713,
          -1.0419343709945679,
          -1.2413742542266846,
          -0.2842443585395813,
          -0.15829183161258698,
          -1.5073943138122559,
          0.3670685589313507,
          1.6927952766418457,
          0.27753520011901855,
          1.7047314643859863,
          -0.4278985261917114,
          -0.1272663027048111,
          0.5749716758728027,
          -0.9828079342842102,
          3.116184949874878,
          1.5333284139633179,
          0.41768285632133484,
          -0.09219517558813095,
          1.1203316450119019,
          -0.30941900610923767,
          0.07911235094070435,
          -0.14593078196048737,
          -0.12235189974308014,
          -1.6152149438858032,
          0.1698092669248581,
          0.030497953295707703,
          0.14116814732551575,
          0.18732064962387085,
          0.7661322355270386,
          0.10686109960079193,
          0.7119764685630798,
          -0.7131535410881042,
          0.888949453830719,
          0.2838626205921173,
          -0.5198287963867188,
          0.7877509593963623,
          -0.4825025200843811,
          0.054144252091646194,
          -0.46379363536834717,
          1.0140408277511597,
          -0.21595564484596252,
          -0.4778466820716858,
          -0.21205346286296844,
          -0.10177268832921982,
          0.1974482387304306,
          0.08342629671096802,
          0.3814179599285126,
          0.5281822681427002,
          1.253470778465271,
          -0.7646859884262085,
          0.06470256298780441,
          -0.3172179162502289,
          0.00728683453053236,
          -0.5641005635261536,
          -0.4210726022720337,
          1.0476254224777222,
          -0.29336977005004883,
          -0.04034082591533661,
          0.28741398453712463,
          -0.042054709047079086,
          0.7457942366600037,
          -1.103269338607788,
          -0.4338422119617462,
          0.4905659556388855,
          -0.5831997990608215,
          -0.9268131852149963,
          1.2107170820236206,
          0.9122541546821594,
          0.5171169638633728,
          -0.11264346539974213,
          -0.41334521770477295,
          -0.1569546014070511,
          0.7337985038757324,
          0.049791548401117325,
          0.6107643246650696,
          0.15302598476409912,
          -1.1747303009033203,
          -0.148406520485878,
          1.3800878524780273,
          0.6159985065460205,
          -0.3330122232437134,
          0.1312548965215683,
          -0.744798481464386,
          -0.3630870580673218,
          -0.6784389019012451,
          -0.599632978439331,
          0.36901217699050903,
          0.22466768324375153,
          0.695828914642334,
          1.286800742149353,
          -0.8144211769104004,
          1.4396864175796509,
          -0.3826228082180023,
          -0.4888612926006317,
          1.234104871749878,
          0.0752977505326271,
          -0.9862342476844788,
          0.44980815052986145,
          0.7087758183479309,
          -0.6857844591140747,
          0.8943689465522766,
          -1.2880746126174927,
          0.39998146891593933,
          0.02001078613102436,
          0.36921945214271545,
          0.053978197276592255,
          1.5641084909439087,
          0.7186252474784851,
          0.3472774624824524,
          0.8406761884689331,
          -0.09140428155660629,
          0.34374892711639404,
          -0.5342399477958679,
          0.026035606861114502,
          0.04330332949757576,
          0.4451199769973755,
          -0.41003239154815674,
          -0.09162450581789017,
          0.9187204241752625,
          -0.05517346411943436,
          0.14680317044258118,
          -1.1424899101257324,
          -0.5441439747810364,
          0.2409326285123825,
          0.624306857585907,
          -0.009172797203063965,
          0.3560918867588043,
          0.1610637754201889,
          -0.0027813755441457033,
          1.3234044313430786,
          -0.39558854699134827,
          -0.16391262412071228,
          0.9147020578384399,
          -0.44123178720474243,
          1.322075605392456,
          0.6913438439369202,
          0.20220017433166504,
          0.19821089506149292,
          1.190648078918457,
          -1.3210124969482422,
          -0.44008275866508484,
          -0.4208971858024597,
          -0.7614611387252808,
          -1.1098401546478271,
          -0.7370227575302124,
          0.4256247580051422,
          1.0835604667663574,
          0.6534421443939209,
          0.3752261996269226,
          1.06011962890625,
          -0.5661692023277283,
          0.36709681153297424,
          0.3948008120059967,
          -0.4190368354320526,
          0.3995320796966553,
          -0.23746556043624878,
          0.4858417212963104,
          0.0030611702241003513,
          0.8177351355552673,
          0.2542101740837097,
          -0.07407238334417343,
          0.23678982257843018,
          -1.4581329822540283,
          0.08329378068447113,
          -0.6102336645126343,
          -0.2846466898918152,
          0.4230709671974182,
          -0.5181262493133545,
          0.4713742136955261,
          0.8309414386749268,
          -0.5234002470970154,
          -0.22497665882110596,
          1.0556602478027344,
          0.5332209467887878,
          0.6036011576652527,
          1.2586225271224976,
          -0.7424240708351135,
          -0.7519522309303284,
          0.4148538112640381,
          0.010886592790484428,
          0.39503830671310425,
          -0.5261836647987366,
          -0.5556520223617554,
          -0.821648895740509,
          -0.1709388643503189,
          -0.009669351391494274,
          1.4904407262802124,
          0.3186355531215668,
          -0.3179512917995453,
          0.35195615887641907,
          -1.078508734703064,
          0.6676122546195984,
          0.23228633403778076,
          -0.5927659273147583,
          0.31810468435287476,
          -0.12232642620801926,
          -1.0406910181045532,
          -0.17336492240428925,
          0.5283686518669128,
          -1.1432664394378662,
          -0.24885614216327667,
          -0.7240379452705383,
          -0.3032670021057129,
          -0.8290877342224121,
          0.12008652091026306,
          0.28475314378738403,
          0.9048990607261658,
          0.5229787826538086,
          1.3267725706100464,
          0.15677253901958466,
          -0.04167632386088371,
          0.2610403597354889,
          -0.1352822333574295,
          0.18982933461666107,
          0.5732092261314392,
          0.14138387143611908,
          0.3342649042606354,
          -0.30494704842567444,
          1.00607430934906,
          0.959282398223877,
          0.669101893901825,
          -0.26964449882507324,
          -0.5936148762702942,
          -0.14531849324703217,
          -0.9284597635269165,
          0.2360968142747879,
          -0.31400442123413086,
          -0.04429991915822029,
          1.900166392326355,
          0.5660514831542969,
          -0.46708816289901733,
          0.61097651720047,
          1.6414945125579834,
          -0.35904213786125183,
          0.3090323209762573,
          0.3434305787086487,
          0.30510056018829346,
          -1.3290343284606934,
          0.19219250977039337,
          0.07045155763626099,
          0.1398257613182068,
          -0.6488687992095947,
          -0.03548045828938484,
          -0.5931278467178345,
          -1.268916368484497,
          0.11794551461935043,
          1.220974326133728,
          0.30009111762046814,
          -0.34166231751441956,
          0.5384443998336792,
          -1.3273447751998901,
          -0.9155662655830383,
          0.28124308586120605,
          -0.4052083194255829,
          0.08048726618289948,
          1.2378044128417969,
          -1.2451395988464355,
          0.609234631061554,
          -0.19009092450141907,
          -0.4848664700984955,
          0.38934871554374695,
          -0.5355119109153748,
          -0.31596508622169495,
          0.28351637721061707,
          -0.22033874690532684,
          0.5611609220504761,
          1.5497617721557617,
          0.8497428297996521,
          -1.3040751218795776,
          0.44990742206573486,
          -0.7794603109359741,
          -0.2078889012336731,
          0.3368406593799591,
          -0.6258154511451721,
          0.45140931010246277,
          0.17024177312850952,
          -1.6276164054870605,
          0.07167555391788483,
          0.3804054260253906,
          -0.6842138767242432,
          -1.369215726852417,
          0.25848862528800964,
          -0.3751266598701477,
          0.15807472169399261,
          -0.3890884518623352,
          -0.9696429967880249,
          -0.27480170130729675,
          0.4114903211593628,
          0.522376298904419,
          0.3490865230560303,
          -0.8407357931137085,
          0.655699610710144,
          0.15653875470161438,
          0.5999814867973328,
          0.17211122810840607,
          1.5174634456634521,
          -0.8869355916976929,
          -0.27742648124694824,
          -0.33417561650276184,
          0.5757705569267273,
          0.6828635334968567,
          0.40481770038604736,
          -0.7548314929008484,
          -0.1033819168806076,
          -0.2495812326669693,
          -0.06467732042074203,
          0.22942422330379486,
          -0.9138104915618896,
          0.9968563914299011,
          0.5880907773971558,
          -0.0651114359498024,
          0.8182130455970764,
          0.9848211407661438,
          -1.0650733709335327,
          0.6126867532730103,
          1.3644758462905884,
          -0.2904185950756073,
          -0.4701473116874695,
          0.47344455122947693,
          -1.1945456266403198,
          -0.09403723478317261,
          0.4239312410354614,
          -1.1318272352218628,
          0.7368205785751343,
          0.05545143038034439,
          -0.8212313055992126,
          0.8221007585525513,
          -0.2321590930223465,
          0.47085413336753845,
          0.23496586084365845,
          -0.2551039457321167,
          1.2736036777496338,
          0.17608442902565002,
          0.636012077331543,
          0.5955939888954163,
          -0.03890251740813255,
          -0.3012065291404724,
          -0.10721788555383682,
          0.053792379796504974,
          1.111501693725586,
          0.7344394326210022,
          -0.0048711602576076984,
          0.9295662641525269,
          -0.5438436269760132,
          0.41448333859443665,
          -0.13415034115314484,
          -0.4288605749607086,
          0.4041564166545868
        ]
      },
      "outputBias": {
        "rows": 20,
        "columns": 1,
        "weights": [
          0.16211096942424774,
          0.18005990982055664,
          0.05171674117445946,
          -0.2686396539211273,
          0.6210809350013733,
          0.4902507960796356,
          0.8703786730766296,
          0.22105586528778076,
          0.6207807660102844,
          -0.08167187869548798,
          0.21626248955726624,
          -0.631963849067688,
          -0.21983177959918976,
          1.0369969606399536,
          0.1493438482284546,
          0.30958667397499084,
          0.4884417653083801,
          1.378528118133545,
          1.060544729232788,
          1.0754475593566895
        ]
      },
      "cellActivationMatrix": {
        "rows": 20,
        "columns": 28,
        "weights": [
          0.04579503834247589,
          0.0215118620544672,
          -0.05422268062829971,
          0.09516586363315582,
          0.05679955706000328,
          0.5069819688796997,
          -0.3135012984275818,
          0.026128515601158142,
          -0.1586131751537323,
          -0.30381810665130615,
          -0.31253743171691895,
          -0.7328625321388245,
          0.1651611030101776,
          0.021572774276137352,
          -0.15622733533382416,
          0.21000799536705017,
          0.3782101571559906,
          0.09902101010084152,
          0.011790188029408455,
          0.019341811537742615,
          -0.08103858679533005,
          0.030624961480498314,
          0.19047382473945618,
          0.020071661099791527,
          -0.093046635389328,
          -0.06556566059589386,
          -0.2301439642906189,
          -0.46111905574798584,
          -0.1742013543844223,
          0.5301316976547241,
          -0.11133213341236115,
          -0.26417338848114014,
          -0.4441978633403778,
          -0.03327649459242821,
          -0.11715957522392273,
          0.0030777514912188053,
          -0.04900293052196503,
          -0.2870030999183655,
          0.18733707070350647,
          0.049352820962667465,
          0.4749288260936737,
          -0.06180872768163681,
          0.01838499680161476,
          -0.06715221703052521,
          -0.23441511392593384,
          0.36618882417678833,
          0.09828922897577286,
          -0.22547949850559235,
          0.2977675795555115,
          -0.004228309728205204,
          0.25899738073349,
          -0.45634421706199646,
          0.26442044973373413,
          -0.29914769530296326,
          -0.1979684829711914,
          0.10204519331455231,
          -0.09237892180681229,
          0.22402602434158325,
          -0.2691875398159027,
          0.3440626561641693,
          -0.5239654183387756,
          -0.11280959099531174,
          0.20262010395526886,
          0.44464725255966187,
          0.029525617137551308,
          0.8264668583869934,
          0.09352387487888336,
          0.5603712201118469,
          -0.20946605503559113,
          0.16140435636043549,
          0.14315637946128845,
          -0.2649870216846466,
          -0.5081075429916382,
          0.03813647851347923,
          -0.1509314775466919,
          0.1908920258283615,
          0.24374043941497803,
          -0.014861684292554855,
          0.1646544486284256,
          0.018453268334269524,
          0.35039153695106506,
          -0.10637031495571136,
          -0.05763271078467369,
          0.15642903745174408,
          -0.09983286261558533,
          0.12704236805438995,
          -0.29035183787345886,
          -0.3659352958202362,
          0.18518148362636566,
          -0.24114729464054108,
          -0.17543534934520721,
          -0.4518921971321106,
          0.38733580708503723,
          -0.21655802428722382,
          0.3720391094684601,
          0.13762424886226654,
          0.3182922303676605,
          -0.2989480495452881,
          -0.27988165616989136,
          -0.16883215308189392,
          0.28546929359436035,
          -0.02027318812906742,
          0.04782222583889961,
          -0.5243905782699585,
          -0.18467934429645538,
          0.28312763571739197,
          -0.37743258476257324,
          -0.42277851700782776,
          -0.14225348830223083,
          0.10763809829950333,
          -0.006335001904517412,
          0.1436038464307785,
          -0.3841193616390228,
          -0.12000508606433868,
          0.5612296462059021,
          0.013122945092618465,
          0.11423943191766739,
          -0.011765123344957829,
          0.10816922038793564,
          0.30728694796562195,
          0.04497004672884941,
          -0.11497567594051361,
          0.32686570286750793,
          0.24405722320079803,
          -0.20292548835277557,
          0.2007845640182495,
          -0.16908778250217438,
          -0.13917995989322662,
          -0.2922361195087433,
          0.018160969018936157,
          -0.0646170824766159,
          -0.490823358297348,
          -0.061569493263959885,
          0.10729002952575684,
          -0.13733720779418945,
          -0.05827551335096359,
          -0.01032034307718277,
          -0.10013864189386368,
          0.3579254448413849,
          0.19386692345142365,
          0.05773046985268593,
          0.20069096982479095,
          0.08525346219539642,
          -0.2824997305870056,
          0.11756965517997742,
          -0.20732036232948303,
          -0.09722084552049637,
          -0.1247955709695816,
          -0.044759929180145264,
          -0.2810036242008209,
          0.29373064637184143,
          -0.15052920579910278,
          0.4517818093299866,
          0.2589700520038605,
          -0.21044504642486572,
          -0.22875607013702393,
          -0.003023571101948619,
          0.16702070832252502,
          -0.028329670429229736,
          0.11912738531827927,
          -0.048262108117341995,
          -0.11143516004085541,
          -0.18100790679454803,
          -0.4483664333820343,
          -0.011873016133904457,
          0.1890169084072113,
          -0.029047755524516106,
          -0.018183311447501183,
          -0.13508541882038116,
          -0.8032179474830627,
          -0.5732987523078918,
          -0.2775260806083679,
          -0.15953977406024933,
          -0.37358400225639343,
          -0.1446695178747177,
          0.022833576425909996,
          0.5456089973449707,
          0.3053242564201355,
          0.3008056581020355,
          0.17238877713680267,
          0.0658872053027153,
          -0.12915240228176117,
          -0.20407679677009583,
          0.11163054406642914,
          -0.12358643114566803,
          -0.08986233919858932,
          0.2741365134716034,
          0.005576279480010271,
          -0.013641773723065853,
          0.03543106094002724,
          -0.11012277752161026,
          0.03343401476740837,
          0.5401594638824463,
          0.07350195944309235,
          0.10364922136068344,
          -0.0079018110409379,
          0.081368088722229,
          0.3332240879535675,
          0.09049465507268906,
          -0.048414237797260284,
          -0.20347799360752106,
          0.12287593632936478,
          0.030731093138456345,
          -0.4756152331829071,
          0.02040538191795349,
          -0.19481894373893738,
          0.18877804279327393,
          0.15965285897254944,
          -0.09633206576108932,
          -0.3784101605415344,
          0.8449043035507202,
          0.0446811281144619,
          0.2707882821559906,
          -0.1789405792951584,
          -0.1893310248851776,
          0.11600947380065918,
          -0.026203475892543793,
          -0.15548545122146606,
          -0.4481709599494934,
          0.655513346195221,
          -0.44362035393714905,
          0.15245990455150604,
          -0.17396248877048492,
          -0.19602912664413452,
          0.09940987825393677,
          0.20487898588180542,
          -0.24596881866455078,
          0.07051187008619308,
          0.0667070671916008,
          0.16254539787769318,
          -0.04384884610772133,
          -0.0982312336564064,
          -0.21180014312267303,
          0.45086896419525146,
          -0.29293882846832275,
          -0.027417955920100212,
          -0.4334143102169037,
          -0.1849455088376999,
          -0.09911037981510162,
          -0.015366042964160442,
          0.36320632696151733,
          0.10377863794565201,
          0.07004515081644058,
          -0.03502485901117325,
          0.23934058845043182,
          -0.137492373585701,
          -0.09359361976385117,
          0.5025473833084106,
          -0.0930430069565773,
          0.06587982177734375,
          -0.3187594711780548,
          0.2108420431613922,
          0.479825884103775,
          -0.3579075336456299,
          0.006010065320879221,
          0.058737050741910934,
          -0.349384605884552,
          0.00045192582183517516,
          0.03192019835114479,
          0.348373681306839,
          -0.09395726025104523,
          -0.12427541613578796,
          -0.05215895548462868,
          0.33980822563171387,
          -0.4284316301345825,
          0.2503136992454529,
          -0.007442555855959654,
          0.1959926187992096,
          -0.1904764026403427,
          -0.28059396147727966,
          -0.2921506464481354,
          0.22505733370780945,
          -0.22239823639392853,
          -0.127559095621109,
          0.019044706597924232,
          0.1770382523536682,
          0.25654420256614685,
          -0.015275492332875729,
          0.10563413053750992,
          0.21412605047225952,
          -0.29580017924308777,
          0.5578687191009521,
          -0.06468554586172104,
          0.05161024257540703,
          -0.26280152797698975,
          0.1296999156475067,
          0.20889650285243988,
          0.3921973705291748,
          -0.12710680067539215,
          0.22146618366241455,
          -0.17595231533050537,
          -0.05895229056477547,
          0.023098846897482872,
          0.6319536566734314,
          0.3786069452762604,
          0.13090458512306213,
          0.2436767816543579,
          0.020001504570245743,
          0.050067637115716934,
          0.13255494832992554,
          0.6983007788658142,
          -0.5069310665130615,
          -0.20064547657966614,
          -0.14779631793498993,
          0.4206145107746124,
          0.24808810651302338,
          0.24724921584129333,
          0.08922311663627625,
          0.644016683101654,
          -0.2627870440483093,
          -0.3024637699127197,
          0.23423659801483154,
          0.021659163758158684,
          -0.18013744056224823,
          0.055760908871889114,
          -0.42880645394325256,
          -0.26508572697639465,
          0.2020147144794464,
          0.24872800707817078,
          -0.012023814022541046,
          0.3039323091506958,
          -0.3656894266605377,
          -0.044358182698488235,
          -0.035572778433561325,
          0.46257418394088745,
          0.01787528023123741,
          0.04087577387690544,
          0.13359521329402924,
          -0.3228442072868347,
          0.5965157747268677,
          0.29121777415275574,
          0.1595422625541687,
          0.24006713926792145,
          -0.10962700098752975,
          -0.1300874650478363,
          -0.3286914825439453,
          0.036289967596530914,
          -0.28839999437332153,
          -0.2948366403579712,
          -0.21010145545005798,
          -0.06066460534930229,
          0.08645034581422806,
          -0.3794429302215576,
          -0.22975164651870728,
          0.11430428177118301,
          -0.3420296609401703,
          -0.13825049996376038,
          -0.31609976291656494,
          -0.00976553838700056,
          -0.26694202423095703,
          0.16437430679798126,
          -0.05899904668331146,
          0.5686814188957214,
          0.11879352480173111,
          0.4156096875667572,
          -0.3319312632083893,
          -0.44194093346595764,
          0.1202913299202919,
          -0.08543471992015839,
          0.47688913345336914,
          0.11999008059501648,
          0.0780433788895607,
          0.1222882866859436,
          -0.2310008406639099,
          0.5499619245529175,
          -0.2522023320198059,
          0.0001211879716720432,
          0.06948574632406235,
          -0.07665194571018219,
          0.3900495171546936,
          0.28665030002593994,
          0.07437541335821152,
          -0.057879574596881866,
          -0.4243256449699402,
          0.3742997646331787,
          -0.037554528564214706,
          0.4745321571826935,
          0.25213393568992615,
          -0.24885371327400208,
          -0.46373897790908813,
          -0.09623077511787415,
          0.42314547300338745,
          -0.4462951421737671,
          0.3901556730270386,
          -0.21126872301101685,
          -0.008455690927803516,
          -0.21838141977787018,
          0.04069595783948898,
          0.25663596391677856,
          -0.20509210228919983,
          0.3008047342300415,
          0.12418484687805176,
          0.19182810187339783,
          0.1118355393409729,
          0.11228401213884354,
          0.630420446395874,
          -0.18559452891349792,
          -0.3690720796585083,
          0.23441465198993683,
          -0.18893149495124817,
          -0.0985606461763382,
          0.05984777957201004,
          -0.030240269377827644,
          0.7356289029121399,
          -0.14541614055633545,
          0.1402854174375534,
          0.3001718819141388,
          -0.27452903985977173,
          -1.0826600790023804,
          -0.32824599742889404,
          0.0006778112729080021,
          0.3058938682079315,
          -0.4484010636806488,
          0.0022333809174597263,
          -0.42937949299812317,
          0.30020806193351746,
          0.016015660017728806,
          -0.27332809567451477,
          0.22804492712020874,
          -0.05048748478293419,
          0.05204292759299278,
          0.16901081800460815,
          -0.19772611558437347,
          -0.2866044044494629,
          0.11635677516460419,
          -0.1410824954509735,
          0.11486789584159851,
          -0.24261857569217682,
          -0.26261135935783386,
          0.08028402179479599,
          -0.1039072796702385,
          -0.1759146898984909,
          0.10692290961742401,
          -0.23153188824653625,
          -0.14296592772006989,
          -0.0953633114695549,
          0.02895396575331688,
          0.18755677342414856,
          0.04990403726696968,
          -0.3934552073478699,
          -0.16324861347675323,
          0.8204292058944702,
          0.0874682068824768,
          0.259775847196579,
          -0.14344869554042816,
          0.013287895359098911,
          -0.373656690120697,
          -0.08623690903186798,
          -0.13745342195034027,
          -0.28858309984207153,
          -0.43889421224594116,
          0.0501457080245018,
          -0.08430899679660797,
          0.0831107571721077,
          -0.11411696672439575,
          0.08123548328876495,
          -0.20114301145076752,
          -0.15677425265312195,
          -0.07983209937810898,
          0.039849478751420975,
          0.16546355187892914,
          0.25951558351516724,
          0.4124561548233032,
          -0.045727819204330444,
          -0.4086749255657196,
          -0.12309325486421585,
          -0.09036272764205933,
          -0.0403408519923687,
          0.08634477853775024,
          -0.1145610362291336,
          -0.42329949140548706,
          0.3058217763900757,
          -0.08572817593812943,
          -0.06373445689678192,
          0.09006837755441666,
          -0.2263079583644867,
          0.0032262594904750586,
          0.2794472277164459,
          0.5016911625862122,
          0.12078560143709183,
          0.2313012182712555,
          -0.007342912256717682,
          -0.2353234589099884,
          0.4988900423049927,
          0.30328884720802307,
          -0.48396173119544983,
          0.3262144923210144,
          -0.508660614490509,
          0.10522624105215073,
          0.05387046933174133,
          0.3225645124912262,
          0.14581257104873657,
          0.2776784598827362,
          0.2571481466293335,
          0.08746882528066635,
          -0.32190364599227905,
          0.2653077244758606,
          -0.8236980438232422,
          0.22192071378231049,
          -0.3207358717918396,
          0.1375332474708557,
          -0.3935736417770386,
          0.3492659032344818,
          -0.07883080840110779,
          -0.1931634545326233,
          -0.23625469207763672,
          0.44212237000465393,
          -0.07969646900892258,
          0.15836627781391144,
          0.13522382080554962,
          -0.279745876789093,
          0.22705680131912231,
          -0.0849112719297409,
          0.18144851922988892,
          -0.3295406699180603,
          -0.13544316589832306,
          -0.6785083413124084,
          -0.3684495687484741,
          -0.1351235955953598,
          -0.07327701151371002,
          0.23771511018276215,
          -0.01958072930574417,
          0.3571447432041168,
          -0.19123512506484985,
          0.1095426082611084,
          0.1949833482503891,
          0.07532959431409836,
          0.3115755319595337,
          0.07657415419816971,
          -0.05427367985248566,
          0.10345645993947983,
          0.009430351667106152,
          -0.03848574683070183,
          -0.3265191912651062,
          -0.11599088460206985,
          0.13068042695522308,
          0.25998663902282715,
          -0.1309078186750412,
          -0.11147066950798035,
          0.028258154168725014,
          -0.26573657989501953,
          -0.026166493073105812,
          -0.05303337797522545,
          0.2270662486553192,
          -0.18916667997837067,
          0.12951110303401947,
          -0.677975594997406,
          0.27017757296562195,
          -0.2701123058795929,
          0.10564830154180527,
          0.2929961383342743,
          -0.0033691097050905228,
          -0.30419594049453735,
          -0.16141104698181152,
          -0.08851716667413712,
          0.4002537131309509,
          -0.27247411012649536,
          0.13161231577396393,
          0.5235388875007629,
          -0.18239563703536987
        ]
      },
      "cellActivationHidden": {
        "rows": 20,
        "columns": 20,
        "weights": [
          1.0510385036468506,
          0.08591083437204361,
          0.2508103847503662,
          0.5577653050422668,
          -0.2136557251214981,
          0.5653144121170044,
          -0.0009119107271544635,
          -0.04951382428407669,
          -0.4121672511100769,
          -0.010362789034843445,
          -0.08270217478275299,
          -0.11147995293140411,
          -0.1871693879365921,
          0.19788402318954468,
          -0.00843842327594757,
          0.6186349391937256,
          -0.35939374566078186,
          0.1030200943350792,
          -0.5981323719024658,
          -0.07767070084810257,
          0.08501061797142029,
          0.33348721265792847,
          -0.10873246937990189,
          0.6878486275672913,
          -0.4384711980819702,
          -0.04412968084216118,
          -0.4933762550354004,
          -0.2227034866809845,
          0.15335480868816376,
          -0.12877009809017181,
          -0.45884138345718384,
          -0.5511453747749329,
          -0.35880976915359497,
          0.37009695172309875,
          0.19082380831241608,
          0.42689207196235657,
          -0.5055772066116333,
          0.26044169068336487,
          -0.24451041221618652,
          -0.40770357847213745,
          0.4238544702529907,
          0.8281046748161316,
          -0.17821788787841797,
          0.47418075799942017,
          0.500065803527832,
          -0.1706746518611908,
          0.2746228873729706,
          -0.31586068868637085,
          0.47941523790359497,
          -0.2356826812028885,
          0.13359402120113373,
          0.8294686079025269,
          0.41134557127952576,
          -0.04364589974284172,
          -0.3831169307231903,
          0.5016494989395142,
          0.7635998129844666,
          -0.8689903616905212,
          0.12902630865573883,
          0.2514011859893799,
          0.016009703278541565,
          -0.08173226565122604,
          -0.4527512788772583,
          -0.06801189482212067,
          -0.45899614691734314,
          0.44870543479919434,
          0.0017994156805798411,
          -0.0382353737950325,
          0.09166156500577927,
          -0.3572605848312378,
          0.0006991152185946703,
          -0.19530266523361206,
          -0.20710094273090363,
          -0.21246857941150665,
          0.5555418133735657,
          -0.6702885031700134,
          -0.7645641565322876,
          -0.40757566690444946,
          0.41784214973449707,
          0.10082259029150009,
          0.04084102064371109,
          0.2796556055545807,
          -0.34263142943382263,
          -0.07720191776752472,
          -0.27273958921432495,
          -0.286589115858078,
          0.25852644443511963,
          0.4177829921245575,
          -0.30898553133010864,
          0.09140560775995255,
          0.21765445172786713,
          -0.6999656558036804,
          0.5542245507240295,
          -0.8817472457885742,
          0.5912507772445679,
          -0.018716083839535713,
          -0.9563018083572388,
          -0.26063522696495056,
          0.09009204804897308,
          0.038186606019735336,
          0.0045381588861346245,
          -0.47707387804985046,
          -0.5189715623855591,
          -0.49718615412712097,
          -0.36710333824157715,
          -0.3477804660797119,
          0.30756115913391113,
          -0.09278682619333267,
          -0.3022083342075348,
          -0.43610575795173645,
          -0.1488175392150879,
          -0.23629820346832275,
          0.9004837870597839,
          0.07120811939239502,
          0.3157302737236023,
          -0.11656010150909424,
          -0.2290838062763214,
          0.4123377501964569,
          -0.7444007396697998,
          0.02601870708167553,
          0.6901708245277405,
          0.151577427983284,
          0.16273440420627594,
          -0.5817902088165283,
          -0.41533055901527405,
          -0.6022045612335205,
          0.423419713973999,
          -0.25909867882728577,
          0.5741697549819946,
          0.8912562131881714,
          0.39925533533096313,
          0.4394442141056061,
          -0.0036491930950433016,
          0.6305851340293884,
          0.30786216259002686,
          0.3309020400047302,
          0.10468561947345734,
          -0.5071966052055359,
          0.02000214159488678,
          -0.9665405750274658,
          -0.1820969432592392,
          0.10904175788164139,
          0.0179628636687994,
          -0.293380469083786,
          0.1736774444580078,
          -0.01536092720925808,
          -0.04321780800819397,
          0.11758139729499817,
          0.6303665041923523,
          -0.25609028339385986,
          -0.7632013559341431,
          0.5158362984657288,
          -0.1790970265865326,
          0.16953963041305542,
          -0.698763370513916,
          0.6802151799201965,
          -0.021709758788347244,
          -0.3050503432750702,
          0.3335224688053131,
          -0.38435566425323486,
          -0.5244671106338501,
          -0.2753742039203644,
          0.0915963351726532,
          -0.0548798069357872,
          -0.5881149768829346,
          0.08284974098205566,
          -0.11155374348163605,
          -0.32259711623191833,
          0.8269011378288269,
          0.10517379641532898,
          0.07122360914945602,
          -0.6216475367546082,
          -0.04839257523417473,
          0.16448378562927246,
          -0.05294627323746681,
          -0.117538683116436,
          0.18467654287815094,
          0.32511106133461,
          -0.378335565328598,
          0.16948512196540833,
          0.512349009513855,
          -0.8180888295173645,
          0.3819901645183563,
          -0.39739248156547546,
          -0.8662284016609192,
          -0.18176624178886414,
          -0.10315226763486862,
          0.1333184540271759,
          0.24909253418445587,
          0.47962549328804016,
          0.24403028190135956,
          -0.18208639323711395,
          0.5133261680603027,
          0.10650528967380524,
          -0.22353631258010864,
          0.46877872943878174,
          0.8403922915458679,
          0.016830869019031525,
          -0.1376306712627411,
          -0.23589199781417847,
          -0.2680925726890564,
          -0.29831066727638245,
          -0.6514958739280701,
          -0.15316811203956604,
          -0.18725065886974335,
          -0.03007456846535206,
          0.2386999875307083,
          0.455117791891098,
          -1.2009164094924927,
          -1.0346626043319702,
          0.5315678715705872,
          0.4161698818206787,
          0.7185541391372681,
          0.018472202122211456,
          0.04034833610057831,
          -0.003250536508858204,
          -0.15618932247161865,
          0.3280031979084015,
          -0.5260260105133057,
          -0.04321295768022537,
          0.09414073079824448,
          -0.4642326235771179,
          -0.10456062108278275,
          0.22274905443191528,
          -0.10303453356027603,
          -0.11579491198062897,
          0.011084189638495445,
          -0.21835769712924957,
          0.2666187882423401,
          -0.356379896402359,
          0.14965938031673431,
          -0.5515660047531128,
          -0.14080266654491425,
          -0.18063360452651978,
          -0.07634137570858002,
          -0.5738827586174011,
          0.6739279627799988,
          0.0008251800900325179,
          -0.2552340030670166,
          -0.10686959326267242,
          0.5143885612487793,
          -0.18719686567783356,
          -0.43137305974960327,
          0.09146932512521744,
          -0.4432498514652252,
          -0.04788893833756447,
          -0.1602601259946823,
          -0.3166992664337158,
          0.0070090810768306255,
          0.24882668256759644,
          -0.40357106924057007,
          0.21525274217128754,
          0.6713123321533203,
          0.3591742217540741,
          0.19670484960079193,
          -0.11026755720376968,
          -0.4740612804889679,
          -0.4838230311870575,
          -0.46505701541900635,
          -0.4883494973182678,
          -0.4250697195529938,
          0.17862746119499207,
          0.3825637400150299,
          -0.56749427318573,
          0.5804629921913147,
          0.3704957962036133,
          0.7398418188095093,
          -0.2058478593826294,
          0.10559416562318802,
          0.008918638341128826,
          -0.20549048483371735,
          0.07185021787881851,
          -0.6813647150993347,
          -0.07998189330101013,
          -0.6447973251342773,
          -0.15399083495140076,
          0.11360025405883789,
          0.5303260684013367,
          0.41249480843544006,
          -0.3134324252605438,
          0.5784226059913635,
          -0.45222511887550354,
          -0.0470595583319664,
          0.2248746156692505,
          1.2239007949829102,
          -0.5136715173721313,
          -0.03576911613345146,
          0.5358354449272156,
          -0.6765836477279663,
          -0.3378366529941559,
          -0.07499821484088898,
          1.3169989585876465,
          -0.49425166845321655,
          0.01997501216828823,
          -0.03506951034069061,
          -0.0577947273850441,
          -0.5734302997589111,
          0.2950076162815094,
          0.051380790770053864,
          -0.8722984194755554,
          -0.3240548074245453,
          -0.21729980409145355,
          1.0124579668045044,
          0.5416120886802673,
          0.056090109050273895,
          0.5688955783843994,
          -0.29100438952445984,
          0.5034355521202087,
          -0.09107799828052521,
          0.250744104385376,
          0.5467429757118225,
          -0.7185145020484924,
          0.04619106277823448,
          -0.29275059700012207,
          -0.144087553024292,
          -0.009193750098347664,
          0.20638687908649445,
          0.30831849575042725,
          0.35980692505836487,
          0.2388809621334076,
          -0.49425414204597473,
          -0.17071254551410675,
          -0.36891427636146545,
          -0.349484920501709,
          0.1836218386888504,
          0.2621670961380005,
          0.06441880762577057,
          -0.1709545999765396,
          -0.1940295398235321,
          0.19477145373821259,
          -0.5508765578269958,
          0.3720179796218872,
          0.15794947743415833,
          0.7897952198982239,
          -0.02155250310897827,
          -0.16828759014606476,
          0.5405235886573792,
          0.4319303631782532,
          0.1330288201570511,
          -0.2705644965171814,
          -0.19953308999538422,
          0.3190131187438965,
          -0.158376082777977,
          1.0654501914978027,
          0.40110430121421814,
          -0.13039398193359375,
          0.5486657023429871,
          0.32969895005226135,
          -0.21218401193618774,
          -0.32075801491737366,
          0.633310854434967,
          0.4661652743816376,
          0.5532975792884827,
          -0.030000198632478714,
          0.536973237991333,
          0.2582761347293854,
          0.3247254192829132,
          0.04772219434380531,
          -0.2571626901626587,
          0.5512006878852844,
          0.06202084198594093,
          -0.3168316185474396,
          0.9808002710342407,
          0.21546408534049988,
          0.7555084228515625,
          0.4043075442314148,
          -0.4448659121990204,
          0.5834913849830627,
          -0.5633374452590942,
          0.10116629302501678,
          -0.12252769619226456,
          0.574102520942688,
          -0.1260242760181427,
          0.3132200241088867,
          -0.25847941637039185,
          -0.019292838871479034,
          -0.0570063479244709,
          0.4019211232662201,
          -0.1271437704563141,
          -0.35616135597229004,
          -0.09895087778568268,
          -0.30274754762649536,
          0.4628846049308777,
          -0.21551725268363953,
          -0.054851874709129333,
          0.6766356825828552,
          -0.4723328948020935,
          -0.6678312420845032,
          0.32087376713752747,
          0.050296373665332794,
          -0.39712271094322205,
          0.2880100905895233,
          0.3706086575984955,
          1.3756743669509888,
          0.4524177014827728,
          -0.07239513099193573,
          0.3910996913909912,
          -0.27507248520851135,
          -0.4420735836029053,
          -0.2515610158443451
        ]
      },
      "cellActivationBias": {
        "rows": 20,
        "columns": 1,
        "weights": [
          0.23176006972789764,
          0.4822775721549988,
          -0.24109892547130585,
          0.06352085620164871,
          0.855901300907135,
          -0.532614529132843,
          0.8926862478256226,
          0.2921134829521179,
          0.3812031149864197,
          0.1335856020450592,
          0.2707267999649048,
          0.36309894919395447,
          -0.19824890792369843,
          -1.0579736232757568,
          -0.17438898980617523,
          -0.27937889099121094,
          -0.01092995423823595,
          -1.4182769060134888,
          1.0737231969833374,
          1.1134129762649536
        ]
      }
    },
    {
      "inputMatrix": {
        "rows": 20,
        "columns": 20,
        "weights": [
          0.7784894704818726,
          1.632729411125183,
          -1.0162955522537231,
          3.8619837760925293,
          0.5702627897262573,
          -0.36364343762397766,
          0.8407409191131592,
          -0.48390868306159973,
          -0.9088165760040283,
          0.09573599696159363,
          -0.44608914852142334,
          -1.3669582605361938,
          0.9087625741958618,
          0.45998838543891907,
          -0.32731837034225464,
          -0.40807414054870605,
          -0.30522915720939636,
          -0.2252834439277649,
          0.1512104719877243,
          1.2491235733032227,
          0.37499043345451355,
          0.24352160096168518,
          -1.220418095588684,
          0.1063733845949173,
          1.379489541053772,
          -0.7902573347091675,
          -0.6480052471160889,
          0.7356059551239014,
          -0.05405843257904053,
          -0.3424055576324463,
          0.2538743019104004,
          0.9222664833068848,
          -0.0705990269780159,
          -0.8039555549621582,
          -1.581528902053833,
          -0.24405981600284576,
          0.36133483052253723,
          -0.3403361141681671,
          2.039862632751465,
          1.5704832077026367,
          0.5771867632865906,
          -0.011448604054749012,
          0.2867674231529236,
          0.7575599551200867,
          0.34417372941970825,
          0.2510630190372467,
          0.18282689154148102,
          -0.5047848224639893,
          -0.21896176040172577,
          -1.1747885942459106,
          1.112980604171753,
          1.3537778854370117,
          0.5565546751022339,
          -0.48183560371398926,
          0.6259946823120117,
          1.087768316268921,
          -0.18161895871162415,
          -0.7396249175071716,
          0.13295604288578033,
          1.3826755285263062,
          -0.48985546827316284,
          -0.06338156759738922,
          -0.058178290724754333,
          0.2599247395992279,
          0.461076557636261,
          -0.555277407169342,
          1.582396388053894,
          0.8393085598945618,
          -0.589048445224762,
          -0.9594899415969849,
          0.12315545231103897,
          -0.887369692325592,
          1.0722391605377197,
          -0.913146436214447,
          0.5106242895126343,
          -1.1177582740783691,
          -0.8645346760749817,
          0.9174973964691162,
          0.7438191771507263,
          -0.09557249397039413,
          0.023076744750142097,
          0.4809131324291229,
          -1.0219390392303467,
          -0.18251292407512665,
          0.4682580530643463,
          0.40635353326797485,
          0.23065397143363953,
          0.9009444117546082,
          0.5462444424629211,
          -1.209665298461914,
          -0.5558761358261108,
          0.7659233212471008,
          0.6469937562942505,
          -0.8057363629341125,
          -2.042368173599243,
          -0.3068000078201294,
          0.3932095766067505,
          -0.21885976195335388,
          1.1358829736709595,
          0.6782777309417725,
          1.2352956533432007,
          0.33590394258499146,
          0.19938220083713531,
          0.2685602903366089,
          0.08725448697805405,
          -0.13441215455532074,
          -0.06033940613269806,
          0.755307137966156,
          0.20090718567371368,
          -0.30052450299263,
          0.836701512336731,
          -0.2274620085954666,
          0.15856796503067017,
          -0.22406776249408722,
          0.7430670261383057,
          -0.03711652755737305,
          0.1614752858877182,
          -0.1918974667787552,
          0.6568318009376526,
          0.6731349229812622,
          -0.6227650046348572,
          0.26494356989860535,
          -0.6183724403381348,
          -0.32796525955200195,
          0.4788161516189575,
          0.2382642775774002,
          -0.03291833773255348,
          0.17952072620391846,
          -0.16322878003120422,
          -0.42485764622688293,
          -0.12453654408454895,
          0.36928054690361023,
          -0.05319466441869736,
          -0.2906688451766968,
          -0.14138393104076385,
          -0.05697984620928764,
          -1.0815391540527344,
          0.03280758112668991,
          0.45961615443229675,
          -0.06688059121370316,
          0.20715413987636566,
          -0.040175966918468475,
          -1.0224860906600952,
          0.6086358428001404,
          0.31502750515937805,
          -0.049842532724142075,
          -0.07872236520051956,
          0.3197311758995056,
          -0.19969932734966278,
          0.0012586117954924703,
          0.10696794092655182,
          0.6562519669532776,
          -0.009054864756762981,
          -0.09953270107507706,
          -0.29210954904556274,
          0.04162631928920746,
          -0.43461084365844727,
          0.13018406927585602,
          0.01535444613546133,
          0.03551321104168892,
          1.0514229536056519,
          0.17569957673549652,
          0.46593159437179565,
          1.6326348781585693,
          1.6690866947174072,
          -0.306612104177475,
          0.5213882923126221,
          -0.6802743077278137,
          1.0630614757537842,
          -0.9972353577613831,
          1.9125030040740967,
          0.2942578196525574,
          0.4867095649242401,
          0.35974612832069397,
          -0.8727368712425232,
          0.6905766129493713,
          -1.7932116985321045,
          2.412534236907959,
          -0.18398486077785492,
          -1.2857540845870972,
          1.190144419670105,
          0.4466617703437805,
          0.09719322621822357,
          -1.0376222133636475,
          1.042249083518982,
          0.4614674150943756,
          0.09494715929031372,
          0.40498286485671997,
          -0.5892623066902161,
          0.22664567828178406,
          0.4124472737312317,
          0.8562713861465454,
          -1.1385985612869263,
          -0.019354883581399918,
          0.16417014598846436,
          -0.48677200078964233,
          0.3204423189163208,
          -0.012740245088934898,
          0.25727352499961853,
          0.08388279378414154,
          0.034302860498428345,
          0.1673155128955841,
          -0.8659915924072266,
          0.4595850110054016,
          0.3116031289100647,
          -0.17690818011760712,
          -0.09448062628507614,
          0.2814123034477234,
          0.0042487033642828465,
          -0.626236081123352,
          0.4639085531234741,
          -0.09822846204042435,
          -0.344573050737381,
          -0.0912288948893547,
          -0.11285143345594406,
          -0.41875314712524414,
          -0.21386530995368958,
          0.29319319128990173,
          -0.06392879039049149,
          -0.2563963532447815,
          0.42966848611831665,
          0.7377084493637085,
          -1.0997693538665771,
          -0.7467641830444336,
          0.18143616616725922,
          0.03022681549191475,
          1.9108878374099731,
          0.14660821855068207,
          -0.7211207151412964,
          -0.537791907787323,
          0.22753264009952545,
          -0.38531580567359924,
          0.8447688221931458,
          -1.3208149671554565,
          0.7255350351333618,
          -0.7861756086349487,
          -0.367794930934906,
          -0.9394912719726562,
          2.4216148853302,
          0.4075874090194702,
          -0.8530979752540588,
          0.15783128142356873,
          0.21607302129268646,
          0.8644737005233765,
          -0.29368337988853455,
          -0.8742072582244873,
          1.8958874940872192,
          0.06688278168439865,
          0.2754409611225128,
          -1.6208792924880981,
          0.32731446623802185,
          -0.26943907141685486,
          0.5493586659431458,
          -1.2220349311828613,
          -0.03590768203139305,
          -0.6283984184265137,
          -1.1171921491622925,
          -0.6497732996940613,
          0.12418688088655472,
          2.5110628604888916,
          0.19682855904102325,
          0.6387607455253601,
          -0.32731544971466064,
          -0.2959785759449005,
          0.04883863031864166,
          -0.4033649265766144,
          0.11870288848876953,
          0.3586660921573639,
          -0.5971928238868713,
          -0.26508796215057373,
          0.0016436780570074916,
          -0.3834630846977234,
          0.9288188815116882,
          -0.1142205223441124,
          0.2833724319934845,
          0.47853848338127136,
          -0.7136011123657227,
          0.48260968923568726,
          0.5608982443809509,
          0.3786618113517761,
          0.46338364481925964,
          0.4573354721069336,
          -0.4992905557155609,
          0.10376705974340439,
          0.3134211301803589,
          -0.16330407559871674,
          0.7547364830970764,
          0.3806554675102234,
          -0.6268370151519775,
          0.17444919049739838,
          0.14673079550266266,
          0.09229063987731934,
          0.025415508076548576,
          -0.33525851368904114,
          -0.56166011095047,
          0.022468868643045425,
          -0.3717102110385895,
          -0.44751542806625366,
          0.21275444328784943,
          0.6514183878898621,
          0.4220634698867798,
          0.7118197083473206,
          0.569576621055603,
          -0.7327898740768433,
          -0.7247189879417419,
          -0.6868953704833984,
          1.3499305248260498,
          0.496107816696167,
          -0.8287021517753601,
          -1.0201032161712646,
          0.40645524859428406,
          -0.19198951125144958,
          -0.5038001537322998,
          -0.8093165159225464,
          0.8831741809844971,
          -0.31724947690963745,
          0.49327385425567627,
          -0.8681952357292175,
          1.0147939920425415,
          0.46536779403686523,
          1.0150245428085327,
          -0.2778301239013672,
          -0.02672339417040348,
          0.048842817544937134,
          -0.3889288902282715,
          0.09877876937389374,
          0.9066668152809143,
          0.07365256547927856,
          -0.19369857013225555,
          -0.07525092363357544,
          -0.1913071870803833,
          -0.9345349669456482,
          0.5397247672080994,
          -0.22020268440246582,
          0.05202711373567581,
          -1.5637931823730469,
          -0.54905104637146,
          0.56239914894104,
          1.8003995418548584,
          -0.17110837996006012,
          -0.1122017502784729,
          0.0666859969496727,
          0.11562766134738922,
          0.39349260926246643,
          0.522834837436676,
          -0.13679629564285278,
          1.1050797700881958,
          0.17583569884300232,
          -0.2119448482990265,
          -0.3612723648548126,
          -0.14077110588550568,
          1.9827625751495361,
          -0.7438828945159912,
          -1.713502287864685,
          0.043397776782512665,
          1.291463851928711,
          -0.06242692843079567,
          -0.6124424338340759,
          0.12405899167060852,
          2.897355794906616,
          0.6746594905853271,
          -0.7808154225349426,
          -0.4231143891811371,
          0.28758078813552856,
          0.559309720993042,
          -0.6402586102485657,
          0.297383576631546,
          0.8364883661270142,
          -1.2149693965911865,
          -0.03865950182080269,
          0.061084337532520294,
          -1.109822154045105,
          1.3328527212142944,
          -0.0441991426050663,
          -0.48409953713417053,
          2.043454170227051,
          -0.16064155101776123,
          0.6444540619850159,
          2.077742338180542,
          0.22733937203884125,
          1.0930883884429932,
          0.3485138416290283,
          -0.1934485286474228,
          0.9328306317329407,
          0.11573129147291183,
          -0.41550058126449585,
          -0.00872207060456276,
          -0.0773920863866806,
          -0.7558939456939697,
          0.4572853446006775,
          0.20489488542079926,
          0.7988179922103882,
          -0.29848966002464294,
          -0.21438683569431305,
          0.2370149940252304,
          -0.14981050789356232,
          -0.05135509744286537,
          -0.2489175945520401,
          -0.2463524341583252,
          0.3580958843231201
        ]
      },
      "inputHidden": {
        "rows": 20,
        "columns": 20,
        "weights": [
          0.1521245241165161,
          -0.7016698122024536,
          -0.7575658559799194,
          0.7967349886894226,
          -1.1767797470092773,
          0.6453429460525513,
          0.45739686489105225,
          -0.7460654377937317,
          0.6564784049987793,
          -0.9001119136810303,
          -1.116204857826233,
          0.30588069558143616,
          -0.8462729454040527,
          -0.8054683804512024,
          -0.8533276915550232,
          -0.6910324096679688,
          -0.09284062683582306,
          -1.5837006568908691,
          1.0498448610305786,
          0.655896782875061,
          0.5088754296302795,
          -0.18639706075191498,
          -0.26076704263687134,
          0.5056681036949158,
          0.04247353598475456,
          -0.6816325187683105,
          0.49432894587516785,
          -0.0877494215965271,
          0.941642165184021,
          -0.23483000695705414,
          -0.7476133108139038,
          0.40989577770233154,
          -1.1806951761245728,
          1.3929756879806519,
          -0.0010730804642662406,
          -0.8895875215530396,
          -0.41369566321372986,
          1.1957134008407593,
          1.3356337547302246,
          -0.45228660106658936,
          -0.5174211263656616,
          -0.18556228280067444,
          2.5801901817321777,
          0.6332396268844604,
          -0.2983120083808899,
          1.1625065803527832,
          -0.12148768454790115,
          -0.2712489366531372,
          -0.46550825238227844,
          -1.2008388042449951,
          -0.9646455645561218,
          -0.4283351004123688,
          0.2839529514312744,
          -0.5011407136917114,
          -0.5275792479515076,
          -0.7714967727661133,
          -0.0584096685051918,
          0.12856826186180115,
          0.1106090322136879,
          -0.5625942349433899,
          0.6362779140472412,
          0.2145017385482788,
          0.012687506154179573,
          -0.32271191477775574,
          0.6366819739341736,
          -1.0260818004608154,
          0.09995146095752716,
          0.5350754857063293,
          1.7351009845733643,
          -0.049833498895168304,
          -0.6217056512832642,
          0.7509359121322632,
          -0.10678587853908539,
          -0.758359968662262,
          -0.6530935764312744,
          0.7430111169815063,
          0.8264309763908386,
          -0.6064267158508301,
          0.15046733617782593,
          -0.33653724193573,
          0.05684959515929222,
          0.2213665395975113,
          0.22404074668884277,
          0.11549308151006699,
          0.38643789291381836,
          -1.1108814477920532,
          -0.2755114734172821,
          -0.1484721601009369,
          0.5451833009719849,
          0.6270192265510559,
          0.14168432354927063,
          -0.9329200387001038,
          0.3492066562175751,
          -0.018076347187161446,
          -0.5525239109992981,
          -0.1083575189113617,
          0.04853307083249092,
          -0.36795616149902344,
          -0.10136819630861282,
          -0.13310137391090393,
          0.12911538779735565,
          0.4604514241218567,
          -0.13535204529762268,
          0.2456182837486267,
          0.058007147163152695,
          -1.364618182182312,
          0.39246663451194763,
          0.31522393226623535,
          -0.3294897973537445,
          -0.06763690710067749,
          -0.45235514640808105,
          -0.5610479116439819,
          0.32579344511032104,
          0.7049283385276794,
          -0.2848832905292511,
          0.3877047598361969,
          0.8339816927909851,
          0.8870317935943604,
          -1.4928617477416992,
          -0.2983006536960602,
          -0.13717229664325714,
          0.4729888439178467,
          1.0609056949615479,
          -0.5713172554969788,
          0.26327085494995117,
          1.0995769500732422,
          0.5698166489601135,
          0.31948238611221313,
          -0.9115254282951355,
          -0.43758562207221985,
          -0.33405208587646484,
          -0.10617627948522568,
          0.5017595887184143,
          -0.7016130089759827,
          -0.22552897036075592,
          0.1661641001701355,
          -0.7018733024597168,
          -0.5851154923439026,
          -0.33078908920288086,
          -0.5813824534416199,
          -0.29149994254112244,
          0.26469069719314575,
          1.0545886754989624,
          -0.013611630536615849,
          0.3376019597053528,
          -0.1354849487543106,
          0.39191189408302307,
          0.4823276698589325,
          -0.9435810446739197,
          -0.6538670659065247,
          -1.0582300424575806,
          -1.3051921129226685,
          0.17693421244621277,
          -0.004368619993329048,
          -0.5357957482337952,
          0.35691380500793457,
          0.5940631031990051,
          -0.31083419919013977,
          -0.22643449902534485,
          0.9158433079719543,
          -0.5542688965797424,
          0.20697511732578278,
          -0.2882421016693115,
          -1.5920225381851196,
          0.31949931383132935,
          1.0389106273651123,
          0.187398299574852,
          0.5777066946029663,
          -0.7646715641021729,
          -1.5940606594085693,
          -1.9643163681030273,
          -0.9113143086433411,
          0.4956846237182617,
          1.4500542879104614,
          -0.96251380443573,
          0.0309971421957016,
          -2.174375057220459,
          -1.1032902002334595,
          -0.6745420694351196,
          -0.961808979511261,
          -0.3573572337627411,
          0.4968288242816925,
          0.1623532474040985,
          0.5253708362579346,
          -0.31110966205596924,
          0.5042244791984558,
          0.8021492958068848,
          -0.13637901842594147,
          1.363420844078064,
          -2.3847544193267822,
          0.37404927611351013,
          1.0162566900253296,
          -0.36585474014282227,
          -0.5752666592597961,
          -0.3347559869289398,
          -0.5872769355773926,
          -0.3113928735256195,
          0.3790382444858551,
          -0.10357419401407242,
          -0.08654600381851196,
          0.0012944627087563276,
          0.23029763996601105,
          1.0164352655410767,
          -0.0709545910358429,
          0.3025110960006714,
          -0.08614210784435272,
          0.4925125539302826,
          0.41861942410469055,
          0.8694714307785034,
          -0.23211602866649628,
          -0.532228946685791,
          -1.3002921342849731,
          0.24666959047317505,
          -0.019062427803874016,
          -0.4228202700614929,
          0.08990753442049026,
          0.274764746427536,
          -0.38498619198799133,
          -0.4999740719795227,
          0.1664258986711502,
          0.40967634320259094,
          0.04752630367875099,
          1.907921552658081,
          -0.15711963176727295,
          -0.6203951239585876,
          -1.4015198945999146,
          0.40874001383781433,
          0.18475699424743652,
          1.466983437538147,
          -0.16395209729671478,
          0.5163083672523499,
          0.8783178925514221,
          -0.5305167436599731,
          -0.36253973841667175,
          -0.5206784605979919,
          -0.4290097951889038,
          -0.028779543936252594,
          0.5581355690956116,
          -0.5623598098754883,
          -0.3502131402492523,
          -1.6847102642059326,
          0.5839308500289917,
          -0.27414470911026,
          -1.1773695945739746,
          0.962160587310791,
          0.8638764023780823,
          -0.2107885777950287,
          0.5691043138504028,
          -1.0344934463500977,
          0.4486794173717499,
          -0.20971816778182983,
          -0.8492757081985474,
          0.004373797215521336,
          -0.11867469549179077,
          0.7021357417106628,
          0.2709502577781677,
          -0.9318323731422424,
          -0.7443360686302185,
          0.14688964188098907,
          -0.7484713196754456,
          -0.011918598785996437,
          0.5325921773910522,
          0.5093008875846863,
          0.15131303668022156,
          0.36727508902549744,
          -0.41435331106185913,
          -0.03528324142098427,
          0.23779769241809845,
          -1.6838990449905396,
          -0.12420108914375305,
          -1.1124569177627563,
          0.7100485563278198,
          0.3113175928592682,
          0.18649429082870483,
          -0.12793050706386566,
          0.25282490253448486,
          0.5108158588409424,
          -0.6544127464294434,
          -0.33478331565856934,
          -0.8005918264389038,
          -0.5271214842796326,
          0.1644526869058609,
          0.6138073801994324,
          -0.10698498785495758,
          0.14832042157649994,
          0.2270064502954483,
          1.234689474105835,
          1.148460865020752,
          -0.09715932607650757,
          -0.7890926003456116,
          -1.0293300151824951,
          -0.36542046070098877,
          0.35912829637527466,
          -0.290795236825943,
          -0.4780356287956238,
          0.6147103905677795,
          0.18982712924480438,
          0.13847953081130981,
          -0.7141462564468384,
          0.49656280875205994,
          0.15783213078975677,
          0.2853493094444275,
          0.8731239438056946,
          0.25846630334854126,
          -0.39508941769599915,
          -1.794062614440918,
          0.612875759601593,
          0.9196205139160156,
          1.997239351272583,
          0.07514543831348419,
          0.059157513082027435,
          -0.9233971238136292,
          -0.5565817356109619,
          1.3606806993484497,
          -0.40280774235725403,
          -1.10207998752594,
          -0.7467233538627625,
          0.11162075400352478,
          -0.8367279171943665,
          2.488865613937378,
          -1.0265949964523315,
          0.48198866844177246,
          0.6353650093078613,
          -0.27622127532958984,
          0.805374801158905,
          -0.3102096617221832,
          -0.30306464433670044,
          -0.11916112154722214,
          -0.6113648414611816,
          0.2266252487897873,
          0.11005046218633652,
          -1.6608624458312988,
          1.0918527841567993,
          0.8364315032958984,
          -0.4002862274646759,
          0.463496595621109,
          1.2048125267028809,
          0.5771275162696838,
          -0.19652338325977325,
          0.069649338722229,
          -0.10884139686822891,
          -0.5100626349449158,
          -0.007596897892653942,
          -0.05111955106258392,
          0.17842797935009003,
          -1.0829567909240723,
          0.6263576745986938,
          0.2833676040172577,
          0.643912136554718,
          -1.032094955444336,
          -0.8026348352432251,
          1.1518828868865967,
          -1.2183637619018555,
          0.5599899291992188,
          -0.9723191857337952,
          -1.684406042098999,
          -0.9207307696342468,
          0.7420267462730408,
          -0.06579124182462692,
          0.12094386667013168,
          -0.30268394947052,
          0.4238930940628052,
          -0.5626462697982788,
          -0.4777216613292694,
          -0.17590820789337158,
          0.4647267162799835,
          0.6986297369003296,
          0.48225289583206177,
          -1.4121023416519165,
          0.1721401959657669,
          -0.3384041488170624,
          -0.38372915983200073,
          0.0007857283344492316,
          -1.2845526933670044,
          0.19861356914043427,
          0.683758020401001,
          -0.6707579493522644,
          0.9851400852203369,
          0.7059217095375061,
          -0.23397952318191528,
          -0.17267590761184692,
          0.3522467613220215,
          1.244274616241455,
          0.2386733740568161,
          0.1401757299900055,
          -0.7087704539299011,
          0.14571644365787506,
          0.09524385631084442,
          0.7839108109474182,
          0.028297070413827896,
          -0.4200576841831207,
          0.13227149844169617,
          0.3954163193702698,
          0.28365960717201233,
          -1.0880593061447144,
          -0.06702061742544174,
          0.049897126853466034,
          0.01242342684417963,
          -0.6132218837738037,
          -0.6214571595191956
        ]
      },
      "inputBias": {
        "rows": 20,
        "columns": 1,
        "weights": [
          0.6646804809570312,
          0.7738335132598877,
          0.03224581480026245,
          0.04627542197704315,
          0.8930221199989319,
          -0.03952452912926674,
          0.21974515914916992,
          0.1083524078130722,
          -0.8666883707046509,
          0.43433713912963867,
          0.14325810968875885,
          0.6393148899078369,
          0.7955762147903442,
          0.019127804785966873,
          0.190266951918602,
          -0.5101714134216309,
          -0.05862255394458771,
          -0.309396356344223,
          0.2635604739189148,
          0.28851404786109924
        ]
      },
      "forgetMatrix": {
        "rows": 20,
        "columns": 20,
        "weights": [
          -1.0989946126937866,
          0.059291962534189224,
          0.8968368172645569,
          -0.490425169467926,
          0.428343266248703,
          -0.550430417060852,
          -0.1996299773454666,
          -0.38524436950683594,
          0.8372877836227417,
          0.5483170747756958,
          0.7590609192848206,
          0.8008596301078796,
          -0.3636569678783417,
          -0.7897123694419861,
          -1.1761280298233032,
          -1.3936433792114258,
          0.6034923195838928,
          -1.1578160524368286,
          -0.16144110262393951,
          0.022591212764382362,
          -0.7681554555892944,
          0.03849015012383461,
          -0.28830772638320923,
          -0.7126282453536987,
          0.4609302580356598,
          -0.6167777180671692,
          -0.32521772384643555,
          1.0455567836761475,
          -0.13836580514907837,
          -0.43022045493125916,
          -0.9311065077781677,
          0.7744272947311401,
          0.25336402654647827,
          -0.604763388633728,
          -0.5023430585861206,
          0.43346962332725525,
          0.44827720522880554,
          0.9815272688865662,
          0.8263533115386963,
          0.7279810905456543,
          0.7116014957427979,
          -0.08693881332874298,
          0.533428430557251,
          -0.3325514495372772,
          0.6355206966400146,
          0.744874894618988,
          -0.22884930670261383,
          0.43947815895080566,
          -0.015964049845933914,
          -0.34282469749450684,
          -0.23179708421230316,
          -1.393538236618042,
          -1.0337677001953125,
          -0.14514890313148499,
          0.0703141987323761,
          -0.8615202903747559,
          0.2905397117137909,
          -0.25582119822502136,
          0.4832882285118103,
          -0.9043979048728943,
          -0.079166941344738,
          0.36583268642425537,
          0.08512555807828903,
          0.26305562257766724,
          0.6581695675849915,
          -0.5251123905181885,
          0.4181576371192932,
          0.12476236373186111,
          -0.05311740189790726,
          0.24622640013694763,
          -0.45828327536582947,
          0.453415185213089,
          -0.20590244233608246,
          -0.08102549612522125,
          0.43131816387176514,
          0.03525002300739288,
          0.446165531873703,
          -0.20863103866577148,
          0.289288729429245,
          1.728865146636963,
          0.9918646812438965,
          -0.0844845101237297,
          0.7097636461257935,
          -0.4156455099582672,
          -0.09456941485404968,
          -0.5154933333396912,
          0.6166672706604004,
          -0.5365289449691772,
          -0.7037069797515869,
          0.4992533028125763,
          0.7786586284637451,
          -0.5761566758155823,
          -0.22896933555603027,
          -0.49041301012039185,
          0.6359171867370605,
          0.7342444062232971,
          0.28522613644599915,
          -1.3364039659500122,
          -0.5511474609375,
          0.9618430733680725,
          -0.7405852675437927,
          -0.08520863205194473,
          -0.7761324644088745,
          -0.12394696474075317,
          0.7272181510925293,
          0.0471935048699379,
          -0.20003117620944977,
          -0.5382909178733826,
          -1.1671985387802124,
          -0.028232572600245476,
          0.04332585260272026,
          0.27655699849128723,
          -0.14708076417446136,
          -0.6903075575828552,
          0.4261994957923889,
          -2.0847110748291016,
          0.33585652709007263,
          0.3876546621322632,
          -0.5450039505958557,
          -0.6338198184967041,
          0.9676922559738159,
          -0.1688738614320755,
          -0.4880874454975128,
          -0.013279374688863754,
          -0.23439225554466248,
          0.5255033373832703,
          -0.05053575709462166,
          -0.5395485758781433,
          -0.3743644058704376,
          -0.3153771162033081,
          -0.5634740591049194,
          -0.012048672884702682,
          0.4172901511192322,
          0.7786912322044373,
          0.04303974658250809,
          -0.28118887543678284,
          -0.16828389465808868,
          0.38224467635154724,
          -0.7486161589622498,
          0.2261011302471161,
          0.40411683917045593,
          0.1664980947971344,
          -0.14079181849956512,
          -0.299400269985199,
          -0.6003682017326355,
          0.9655191898345947,
          -1.0111509561538696,
          0.26094189286231995,
          -0.26061931252479553,
          -0.07148454338312149,
          0.18227475881576538,
          0.1809847354888916,
          -0.8616419434547424,
          0.7524295449256897,
          -0.40620261430740356,
          0.2833811342716217,
          0.06667150557041168,
          0.977025032043457,
          -0.5527574419975281,
          -0.586736261844635,
          -0.3662910461425781,
          0.5622336268424988,
          0.5589916706085205,
          -0.5647573471069336,
          -0.6649261713027954,
          1.0300194025039673,
          -0.9476358890533447,
          0.34651950001716614,
          0.6924808621406555,
          -0.24378907680511475,
          0.36179861426353455,
          0.20962736010551453,
          -0.09476917237043381,
          3.109569549560547,
          0.578045666217804,
          -0.7233489155769348,
          1.1828253269195557,
          0.786848783493042,
          -0.7337087392807007,
          -1.4214234352111816,
          -0.33888936042785645,
          -0.48245546221733093,
          0.13007570803165436,
          0.15624314546585083,
          0.09401068091392517,
          -0.4872528612613678,
          0.34598952531814575,
          -0.32066652178764343,
          -0.3523131310939789,
          -0.5733946561813354,
          0.6972326040267944,
          -0.7618852853775024,
          0.9160196781158447,
          0.5899072885513306,
          -0.10818538814783096,
          1.2231965065002441,
          0.4213832914829254,
          0.6555079221725464,
          0.22992044687271118,
          0.9354947805404663,
          -0.09020360559225082,
          0.07136570662260056,
          -0.04386146739125252,
          -0.37804725766181946,
          -0.2717229425907135,
          0.680513858795166,
          0.023756952956318855,
          -0.7975388765335083,
          -0.59834885597229,
          0.38158154487609863,
          0.028202436864376068,
          0.49588966369628906,
          -0.4204944372177124,
          0.6362767219543457,
          1.3535629510879517,
          -0.7861334085464478,
          0.23847608268260956,
          -0.5501295328140259,
          0.4373745918273926,
          1.4521737098693848,
          1.0817314386367798,
          0.5922806859016418,
          -0.008923184126615524,
          -1.3826215267181396,
          0.017443135380744934,
          0.9082562923431396,
          1.2280470132827759,
          -0.48824286460876465,
          -0.28956329822540283,
          -0.13325628638267517,
          -0.9624436497688293,
          1.1225059032440186,
          0.7503726482391357,
          -1.1520030498504639,
          1.075880527496338,
          0.443050742149353,
          -0.5243456959724426,
          -2.4432694911956787,
          1.180903673171997,
          -1.852304458618164,
          -0.25056785345077515,
          -0.23805361986160278,
          -0.06353180855512619,
          -0.21500638127326965,
          -0.26331350207328796,
          -0.3292962610721588,
          0.03311045095324516,
          0.0804448351264,
          0.4449431300163269,
          -0.598706841468811,
          0.4831062853336334,
          0.37163910269737244,
          -0.4466654658317566,
          -0.6289798021316528,
          0.01721866987645626,
          0.3341842591762543,
          -0.6518860459327698,
          0.045645132660865784,
          -0.05967119708657265,
          0.3228204548358917,
          0.6172272562980652,
          -0.4003041386604309,
          -0.20126117765903473,
          -0.2504284977912903,
          -0.1496349722146988,
          0.196250781416893,
          0.10119140893220901,
          -0.35583025217056274,
          -0.6622912883758545,
          -0.25363701581954956,
          0.5913481712341309,
          -0.48089152574539185,
          -0.29591861367225647,
          -0.10866164416074753,
          0.03244661167263985,
          -0.2301131635904312,
          0.018454089760780334,
          -0.12324889004230499,
          0.3911767303943634,
          0.5901133418083191,
          0.43813368678092957,
          -1.0691734552383423,
          -0.8866693377494812,
          -0.1209137961268425,
          0.18288816511631012,
          0.931090235710144,
          -0.21572047472000122,
          -0.09956832230091095,
          -0.05129346624016762,
          -0.14604760706424713,
          0.20048856735229492,
          0.2825232148170471,
          -0.48317646980285645,
          0.3303121328353882,
          1.0235545635223389,
          -0.7504537105560303,
          1.2805339097976685,
          0.08300470560789108,
          -0.20573674142360687,
          -0.9781965017318726,
          -0.1505005806684494,
          -0.6546542048454285,
          0.4115208089351654,
          -0.8223208785057068,
          0.4194954037666321,
          -0.5256198644638062,
          0.6879557371139526,
          1.076120138168335,
          0.47321268916130066,
          0.013876037672162056,
          0.21641096472740173,
          1.1588900089263916,
          0.9765022397041321,
          -1.162528157234192,
          -0.8502727746963501,
          -0.29692572355270386,
          0.08702164143323898,
          -0.7760042548179626,
          -0.11700686812400818,
          0.06718996912240982,
          0.08944893628358841,
          0.011631078086793423,
          -0.019877227023243904,
          1.1189701557159424,
          0.9863100647926331,
          0.14889854192733765,
          0.6977259516716003,
          0.46525484323501587,
          0.2729600667953491,
          -0.17929650843143463,
          -0.2605377733707428,
          0.556883692741394,
          -0.9746130704879761,
          0.1640310138463974,
          -0.27831393480300903,
          0.10287689417600632,
          -0.980871319770813,
          -0.5435733795166016,
          -0.15432992577552795,
          -0.4327010214328766,
          0.32042011618614197,
          -0.2659972906112671,
          0.35038089752197266,
          -0.8639366626739502,
          -0.26454320549964905,
          -0.27438631653785706,
          1.327917456626892,
          0.310115784406662,
          -0.07534848898649216,
          -0.567378044128418,
          -0.798245370388031,
          -0.6408411860466003,
          0.34464409947395325,
          0.34865328669548035,
          -0.38394859433174133,
          0.2851223945617676,
          -0.11829004436731339,
          0.2561539113521576,
          0.4291865825653076,
          0.8683615326881409,
          1.0566855669021606,
          -0.7595465779304504,
          -0.0913684293627739,
          1.1590960025787354,
          0.4519304633140564,
          -0.36415359377861023,
          -0.11398065090179443,
          -0.47597989439964294,
          -1.4226222038269043,
          0.5078878998756409,
          -0.09189562499523163,
          1.3975805044174194,
          1.6304157972335815,
          -0.06250621378421783,
          0.7622861266136169,
          1.4004251956939697,
          -0.0002197979047195986,
          1.8086411952972412,
          1.4566277265548706,
          -2.3766558170318604,
          -0.10220630466938019,
          -0.4496307373046875,
          0.3687998056411743,
          -0.4580865800380707,
          1.1251578330993652,
          -1.0072112083435059,
          0.7843493223190308,
          -0.20606552064418793,
          -0.3292205333709717,
          -0.9462398290634155,
          0.868807852268219,
          -1.1347087621688843,
          -0.08449533581733704,
          -0.1167517602443695,
          -0.570406973361969,
          -0.03236266225576401,
          -0.17264485359191895,
          -0.6625933647155762,
          0.03490711376070976,
          -0.09945303201675415
        ]
      },
      "forgetHidden": {
        "rows": 20,
        "columns": 20,
        "weights": [
          0.07194623351097107,
          -0.6749982237815857,
          0.2543807029724121,
          0.027432573959231377,
          -0.2376471906900406,
          0.6403434872627258,
          -0.022079668939113617,
          0.5923799276351929,
          1.514129877090454,
          0.8713845610618591,
          -0.24204865097999573,
          -0.49199098348617554,
          0.1415410190820694,
          0.902721643447876,
          0.44798925518989563,
          -0.038778841495513916,
          0.14657099545001984,
          -0.3275686800479889,
          -0.11683854460716248,
          -0.9682680368423462,
          0.2792690694332123,
          0.5353213548660278,
          0.5363075733184814,
          0.18561923503875732,
          -0.24958696961402893,
          -1.3529016971588135,
          0.2099483162164688,
          0.22793026268482208,
          0.19882483780384064,
          0.6170480847358704,
          -0.38620054721832275,
          -0.2537969648838043,
          0.38350826501846313,
          1.4901641607284546,
          -0.4842497706413269,
          -0.6568214893341064,
          -0.06807620823383331,
          1.2269703149795532,
          0.35694456100463867,
          -1.00063157081604,
          -0.353347510099411,
          0.26180294156074524,
          0.04486062377691269,
          -0.5509753823280334,
          2.105703115463257,
          -0.6035172343254089,
          -0.25678491592407227,
          0.7681581974029541,
          -0.7669923305511475,
          -0.010923519730567932,
          0.28332626819610596,
          0.2094830423593521,
          0.588718056678772,
          -0.5855407118797302,
          -0.02383158914744854,
          1.341813325881958,
          -0.11517249792814255,
          -0.2767355442047119,
          0.134414941072464,
          -2.3618240356445312,
          -0.3431392312049866,
          0.11477945744991302,
          -0.3587055504322052,
          0.02033163607120514,
          -1.001279592514038,
          0.24336571991443634,
          0.052973151206970215,
          0.1880612075328827,
          -0.945135772228241,
          0.358011394739151,
          0.1587381511926651,
          0.04537129029631615,
          -0.8230100870132446,
          -0.2506673038005829,
          0.6502000093460083,
          -0.5651044845581055,
          -0.32006317377090454,
          0.5739327073097229,
          -0.5268089771270752,
          1.3801963329315186,
          -0.005312483757734299,
          -0.3145098388195038,
          -0.6498582363128662,
          0.24914871156215668,
          0.19835522770881653,
          -0.4786158800125122,
          -0.10299081355333328,
          -0.3294544219970703,
          2.3116986751556396,
          -0.2319791615009308,
          -0.29594686627388,
          -0.15336821973323822,
          0.24020396173000336,
          0.3160208463668823,
          -0.08433982729911804,
          0.6457791924476624,
          -0.5504363179206848,
          -0.6272395849227905,
          0.5236005187034607,
          0.20816542208194733,
          -0.7296417951583862,
          -0.11039400845766068,
          1.0392601490020752,
          -0.8519061803817749,
          -0.0990872010588646,
          0.5039364695549011,
          -0.5817628502845764,
          0.16977907717227936,
          0.856224536895752,
          -0.006350610870867968,
          1.0531604290008545,
          0.2804899215698242,
          0.5736662745475769,
          0.5482358336448669,
          0.31252560019493103,
          -0.3920992612838745,
          0.015178346075117588,
          -0.44123366475105286,
          -0.5289491415023804,
          0.1248210147023201,
          0.21885551512241364,
          -0.08859863877296448,
          -0.45799264311790466,
          -0.3940202593803406,
          0.5552372336387634,
          -0.8379468321800232,
          0.09747923910617828,
          0.20583586394786835,
          0.5571699142456055,
          0.45103180408477783,
          0.08177179098129272,
          0.06072859838604927,
          0.09255306422710419,
          0.6297490000724792,
          -0.147517591714859,
          -0.022906839847564697,
          0.6328224539756775,
          0.4437219798564911,
          0.18174579739570618,
          0.3570241928100586,
          0.5032832026481628,
          -0.5527251362800598,
          -0.4445696473121643,
          -0.39675700664520264,
          -0.2524050176143646,
          -0.039636652916669846,
          -0.1520039290189743,
          0.36177703738212585,
          0.9997440576553345,
          0.2545100152492523,
          0.19114410877227783,
          0.34902000427246094,
          -0.7166786789894104,
          -0.8440681099891663,
          -0.1946028620004654,
          0.4337518513202667,
          0.9028947949409485,
          0.5383290648460388,
          0.5389452576637268,
          0.1082874983549118,
          0.9811042547225952,
          0.03930674120783806,
          0.7230910658836365,
          -0.2623603045940399,
          -1.4376976490020752,
          -0.33810940384864807,
          0.18617656826972961,
          -0.48945289850234985,
          0.13430093228816986,
          0.4281570315361023,
          -0.08003910630941391,
          1.079124927520752,
          -1.6660950183868408,
          -0.03996122255921364,
          -0.2608471214771271,
          -0.6343145966529846,
          0.2259499579668045,
          -0.30000996589660645,
          -0.3237770199775696,
          1.3991483449935913,
          -0.8770915269851685,
          -0.4164138734340668,
          -0.15131860971450806,
          0.19509299099445343,
          1.686808466911316,
          0.7182133197784424,
          -0.29430916905403137,
          -0.48509860038757324,
          -0.03932730481028557,
          -0.19569352269172668,
          0.0405736118555069,
          0.059173040091991425,
          0.8141142725944519,
          -0.33729875087738037,
          -0.3800313174724579,
          0.8980455994606018,
          0.19023367762565613,
          -0.57319176197052,
          0.9548386335372925,
          -0.6788281798362732,
          0.36318308115005493,
          -0.0558653399348259,
          0.1141664981842041,
          0.24427036941051483,
          0.26738277077674866,
          0.060821592807769775,
          0.282163143157959,
          -0.12140615284442902,
          0.8023831844329834,
          0.13882504403591156,
          -0.40068671107292175,
          -0.04383401200175285,
          0.354970782995224,
          -0.1688411980867386,
          -0.18489184975624084,
          0.007103045471012592,
          -0.17481482028961182,
          -0.17519201338291168,
          0.32385724782943726,
          -0.38962310552597046,
          0.35531085729599,
          -0.02412501350045204,
          1.3820607662200928,
          0.028942232951521873,
          0.6939100027084351,
          0.36554744839668274,
          -0.2232363224029541,
          0.3020634949207306,
          -0.01909783110022545,
          0.6537943482398987,
          0.8254032135009766,
          -0.40987375378608704,
          -0.12709294259548187,
          0.5001862645149231,
          0.348533570766449,
          -0.13428895175457,
          -0.24453678727149963,
          0.051698509603738785,
          0.10210347920656204,
          0.5278459787368774,
          -0.38052457571029663,
          0.4701576828956604,
          -0.3445143699645996,
          -0.09294509887695312,
          0.3689538240432739,
          -0.12585602700710297,
          0.0865187793970108,
          0.5072391629219055,
          -1.3381799459457397,
          0.5674585700035095,
          0.25535088777542114,
          -1.2807934284210205,
          0.2712666392326355,
          0.16471602022647858,
          0.5246034860610962,
          0.09463108330965042,
          -0.279443621635437,
          -0.0545862652361393,
          -0.36112451553344727,
          0.16543760895729065,
          -0.19137254357337952,
          -0.23346839845180511,
          0.2798181176185608,
          -0.0079771364107728,
          -0.20859362185001373,
          0.323879599571228,
          -0.06179901212453842,
          0.6062213182449341,
          1.0754287242889404,
          -0.45933371782302856,
          0.3145115375518799,
          -0.12212696671485901,
          -0.10528340935707092,
          0.13467368483543396,
          -0.5931873917579651,
          0.22180798649787903,
          -0.09471142292022705,
          0.34260037541389465,
          0.07578019052743912,
          -0.37019017338752747,
          0.4914214611053467,
          -0.6772578358650208,
          0.21560992300510406,
          1.1124236583709717,
          -0.11065037548542023,
          -0.11804593354463577,
          -1.0529464483261108,
          -0.346340537071228,
          0.49469253420829773,
          0.8194807767868042,
          -0.07195117324590683,
          0.6260578036308289,
          0.6164878010749817,
          0.5577201843261719,
          -0.6241288781166077,
          0.242327019572258,
          0.5654001832008362,
          0.6198755502700806,
          -0.05742938071489334,
          -0.7298153638839722,
          1.0518041849136353,
          0.05241254344582558,
          0.3729850947856903,
          0.1609080731868744,
          -0.47928324341773987,
          1.1279217004776,
          0.05853806063532829,
          0.36642777919769287,
          0.8006995916366577,
          0.41471409797668457,
          -0.030329952016472816,
          -0.09994321316480637,
          -0.5537729263305664,
          0.22341600060462952,
          0.37351617217063904,
          -0.2128010243177414,
          -2.0648908615112305,
          -0.6015898585319519,
          -0.2491779327392578,
          -0.9306459426879883,
          -0.34480994939804077,
          0.3071528971195221,
          -0.00829391647130251,
          -0.33322298526763916,
          0.5148960947990417,
          0.4129592478275299,
          0.32815441489219666,
          0.3188612163066864,
          -0.48108553886413574,
          0.1263028383255005,
          0.15376250445842743,
          0.22141730785369873,
          0.2417636215686798,
          -0.38801777362823486,
          -0.2512839138507843,
          0.4992155432701111,
          0.34553566575050354,
          0.12139211595058441,
          -0.796236515045166,
          -0.12219396978616714,
          0.6672737002372742,
          -0.24077746272087097,
          0.2286674827337265,
          0.7353681921958923,
          0.7501840591430664,
          -3.5006191730499268,
          -0.3629266023635864,
          -0.580387532711029,
          -0.4454664885997772,
          -0.39490392804145813,
          0.8261997699737549,
          -1.1613012552261353,
          0.25943440198898315,
          0.4941779375076294,
          0.026373980566859245,
          0.13472385704517365,
          -0.9109554886817932,
          0.24209646880626678,
          0.04025724157691002,
          1.4555076360702515,
          0.7581771016120911,
          0.1533464938402176,
          0.6637975573539734,
          -0.7216958403587341,
          0.5848539471626282,
          1.5441118478775024,
          0.49204015731811523,
          1.120890498161316,
          -1.2317688465118408,
          0.5626528263092041,
          -0.13295812904834747,
          0.6183456182479858,
          -0.03316555544734001,
          -0.8151520490646362,
          1.2420434951782227,
          0.9211426973342896,
          0.2514576017856598,
          0.9834578037261963,
          0.7423037886619568,
          -0.6476510167121887,
          -0.4175727963447571,
          -0.36442989110946655,
          0.5240893363952637,
          0.6182019114494324,
          -0.06381123512983322,
          0.025695612654089928,
          -0.11176922172307968,
          0.19062820076942444,
          0.029334532096982002,
          -0.06709561496973038,
          -0.33336836099624634,
          0.3807339370250702,
          -0.43409252166748047,
          0.5235356688499451,
          -0.3289513885974884,
          -0.1597032994031906,
          0.582298219203949,
          -0.6155785322189331,
          -0.1507333666086197,
          -0.49864059686660767
        ]
      },
      "forgetBias": {
        "rows": 20,
        "columns": 1,
        "weights": [
          0,
          0,
          0,
          0,
          0,
          0,
          0,
          0,
          0,
          0,
          0,
          0,
          0,
          0,
          0,
          0,
          0,
          0,
          0,
          0
        ]
      },
      "outputMatrix": {
        "rows": 20,
        "columns": 20,
        "weights": [
          0.20740634202957153,
          0.5279501080513,
          -1.4398276805877686,
          0.30711570382118225,
          0.5264375805854797,
          -0.9398805499076843,
          0.5130823850631714,
          0.7663875222206116,
          -1.3811137676239014,
          -0.20135048031806946,
          1.949251413345337,
          -0.2762114703655243,
          -1.0378000736236572,
          -0.8326019644737244,
          -1.1306215524673462,
          -1.5951738357543945,
          -0.3508325517177582,
          -1.5511733293533325,
          -0.11954787373542786,
          1.8542051315307617,
          0.9497787952423096,
          -0.17725615203380585,
          -0.6968872547149658,
          0.5739579796791077,
          2.1343531608581543,
          -0.8775128126144409,
          -0.3544965088367462,
          0.85785973072052,
          -0.21639776229858398,
          0.3252430856227875,
          -0.4863024652004242,
          -0.2747182846069336,
          1.6419130563735962,
          0.5861220359802246,
          -1.8487666845321655,
          -0.7772240042686462,
          -0.3868884742259979,
          -0.566399872303009,
          1.9963361024856567,
          -0.9227626323699951,
          -0.07951798290014267,
          1.204944372177124,
          -0.26420852541923523,
          -0.1921503096818924,
          1.5930671691894531,
          0.978717565536499,
          1.1579192876815796,
          1.3851442337036133,
          -1.5669883489608765,
          -0.03435439616441727,
          0.27195605635643005,
          1.0403666496276855,
          0.5717371106147766,
          -0.9177553057670593,
          -3.1455767154693604,
          1.4244385957717896,
          -0.07549847662448883,
          -0.3225210905075073,
          -0.45138996839523315,
          -0.017485270276665688,
          0.5638496279716492,
          0.870631754398346,
          0.2889540493488312,
          -0.4378213584423065,
          0.3782356083393097,
          -1.5920917987823486,
          3.3433315753936768,
          0.04294801875948906,
          -0.86199551820755,
          -1.0926376581192017,
          0.34617581963539124,
          -0.4482566714286804,
          1.2314586639404297,
          0.046827927231788635,
          0.6058259606361389,
          -2.639843702316284,
          -0.12945875525474548,
          0.7350227236747742,
          2.249689817428589,
          0.9291694760322571,
          -0.14298614859580994,
          0.9499353170394897,
          0.03333413600921631,
          0.11475539207458496,
          0.16480594873428345,
          -1.7192612886428833,
          1.2753788232803345,
          0.9426630139350891,
          -0.3435547649860382,
          0.7280227541923523,
          1.4990307092666626,
          -0.0247739739716053,
          0.17739854753017426,
          -3.0803403854370117,
          0.17027300596237183,
          0.027544554322957993,
          -0.3866681456565857,
          0.006215697154402733,
          0.9415534138679504,
          1.2994428873062134,
          1.048723816871643,
          0.0072936126962304115,
          0.1831473708152771,
          -0.26536497473716736,
          0.23015618324279785,
          0.4230709969997406,
          0.3152616024017334,
          0.602936327457428,
          0.09861297905445099,
          -1.8058797121047974,
          1.2325100898742676,
          2.1855387687683105,
          0.004338069353252649,
          -0.042668405920267105,
          -0.43101629614830017,
          -0.6081530451774597,
          -0.2943879961967468,
          -0.43493714928627014,
          0.1362096220254898,
          0.9810454249382019,
          0.13835904002189636,
          -0.2587611973285675,
          -0.315389484167099,
          -0.6119239330291748,
          -0.40306800603866577,
          0.19799108803272247,
          0.08480353653430939,
          -0.02114802785217762,
          -0.7633386254310608,
          -0.10686969757080078,
          -0.31135544180870056,
          0.3873603343963623,
          -0.051538873463869095,
          0.05040353164076805,
          -0.040867507457733154,
          -0.10816054791212082,
          -0.44104906916618347,
          -0.3643539845943451,
          0.4016380310058594,
          0.43699175119400024,
          0.09200185537338257,
          -0.1067420095205307,
          -1.3895477056503296,
          0.6423214077949524,
          0.3010675609111786,
          0.0961480662226677,
          -0.19824270904064178,
          0.4747169017791748,
          0.0532144233584404,
          -0.18797846138477325,
          -0.04333414137363434,
          0.5131659507751465,
          0.08948055654764175,
          -0.0205241609364748,
          -0.26262935996055603,
          -0.02463901787996292,
          -0.49377110600471497,
          0.38971948623657227,
          0.008912565186619759,
          -0.14469510316848755,
          0.09367696940898895,
          1.23055899143219,
          -0.34387001395225525,
          -0.0695551261305809,
          -0.5622268915176392,
          0.0554063580930233,
          0.18749813735485077,
          0.5704962015151978,
          -0.9219099283218384,
          -0.7745210528373718,
          1.2636985778808594,
          1.100820541381836,
          -0.15421080589294434,
          0.2825189530849457,
          -0.4095568060874939,
          -0.3417561650276184,
          -1.1709237098693848,
          0.38046836853027344,
          -0.14943529665470123,
          -0.8069089651107788,
          0.9418856501579285,
          -0.6119343042373657,
          -0.16457027196884155,
          -0.6246941089630127,
          -0.16180753707885742,
          0.5370829701423645,
          -0.15760979056358337,
          0.6826851963996887,
          -0.3545122444629669,
          0.4240029752254486,
          0.051244594156742096,
          0.144926980137825,
          -1.3708469867706299,
          -0.6465588212013245,
          -0.5509975552558899,
          -1.3350350856781006,
          0.19483470916748047,
          -0.3983325958251953,
          0.647242546081543,
          0.00003371970524312928,
          0.10810691863298416,
          -0.08143153786659241,
          -0.7663851380348206,
          0.6925442814826965,
          0.19431816041469574,
          0.10910072177648544,
          -0.4123119115829468,
          0.05102589353919029,
          -0.16330213844776154,
          -0.2608625888824463,
          0.5688628554344177,
          0.6060042381286621,
          -0.21454262733459473,
          0.23858338594436646,
          -0.3628503084182739,
          -0.07066433876752853,
          0.08356787264347076,
          0.5322414040565491,
          -0.06958320736885071,
          -0.15341266989707947,
          0.9365137219429016,
          1.8194078207015991,
          -0.6684501767158508,
          -0.8783299326896667,
          0.2534283399581909,
          0.41841915249824524,
          0.2491856962442398,
          0.19284571707248688,
          -0.1506066471338272,
          -0.33604657649993896,
          0.2911558747291565,
          -0.16129323840141296,
          0.032670583575963974,
          -0.3928700089454651,
          -0.2177136093378067,
          -1.1907610893249512,
          0.349331796169281,
          0.19598448276519775,
          0.8036401867866516,
          0.09106699377298355,
          1.1450839042663574,
          0.27812856435775757,
          0.30796533823013306,
          0.8363274931907654,
          -0.19185400009155273,
          -0.08039098978042603,
          1.7338109016418457,
          -1.3350679874420166,
          0.19183523952960968,
          0.6442183256149292,
          0.13975094258785248,
          0.5941689014434814,
          -0.017656341195106506,
          -0.7811143398284912,
          0.3454015851020813,
          2.157844066619873,
          -0.6669662594795227,
          -3.0146613121032715,
          -0.5530425906181335,
          0.5706778168678284,
          0.38292396068573,
          -0.19039386510849,
          0.22396612167358398,
          -1.292847752571106,
          0.12729324400424957,
          -0.4055451452732086,
          0.10338854044675827,
          0.43875226378440857,
          -0.18829745054244995,
          -0.6541779041290283,
          0.34237876534461975,
          -0.7123211622238159,
          -0.033656973391771317,
          -0.21022439002990723,
          -0.2370469868183136,
          -0.1351790726184845,
          -0.5292919874191284,
          0.09027127176523209,
          0.5727033019065857,
          0.29125866293907166,
          0.45688730478286743,
          0.1734161376953125,
          -0.5717427730560303,
          0.20790599286556244,
          0.30835890769958496,
          -0.12836730480194092,
          0.25814250111579895,
          0.3370172083377838,
          -0.3935618996620178,
          -0.2892008125782013,
          0.39401775598526,
          0.06767522543668747,
          -0.04122608155012131,
          -0.21134501695632935,
          -0.6168604493141174,
          -0.37421196699142456,
          -0.14217086136341095,
          -0.19369740784168243,
          0.16423402726650238,
          0.21893402934074402,
          0.26641517877578735,
          0.18473662436008453,
          0.11698329448699951,
          -0.447512149810791,
          -0.35425522923469543,
          -0.21782347559928894,
          0.10065053403377533,
          0.6148096323013306,
          -1.0535368919372559,
          -0.3892379403114319,
          0.1162981167435646,
          0.744150698184967,
          -0.17351427674293518,
          -1.4185729026794434,
          0.26387399435043335,
          0.7965288162231445,
          -0.5996410250663757,
          0.061168257147073746,
          0.3472003936767578,
          0.06960618495941162,
          0.03060310333967209,
          0.039412837475538254,
          -0.001837290357798338,
          0.1523287445306778,
          0.8453248739242554,
          -0.21423585712909698,
          0.4693882167339325,
          0.6003857254981995,
          -0.4407581388950348,
          -0.13320142030715942,
          0.17812694609165192,
          -0.7335929870605469,
          0.22989509999752045,
          -0.6880414485931396,
          -0.28306844830513,
          -0.4269116520881653,
          -0.7596737742424011,
          1.3003162145614624,
          1.53616464138031,
          0.44125932455062866,
          -0.9046480059623718,
          0.44559189677238464,
          0.6651082634925842,
          -0.29999637603759766,
          -0.23628036677837372,
          -1.3939565420150757,
          3.423015832901001,
          1.0364515781402588,
          -1.3477067947387695,
          -0.11924773454666138,
          -0.5749924778938293,
          0.35123124718666077,
          -0.00906734075397253,
          -0.909089207649231,
          -0.2873290181159973,
          2.0015883445739746,
          -0.16412445902824402,
          0.2737530469894409,
          -0.7066047787666321,
          1.7120877504348755,
          -0.075668565928936,
          -0.5980433821678162,
          0.8122082948684692,
          1.2203192710876465,
          0.10263989865779877,
          -1.1002237796783447,
          1.9295215606689453,
          0.5251744985580444,
          -0.4046039879322052,
          -0.29705527424812317,
          0.29964813590049744,
          -2.0001347064971924,
          -0.9878115653991699,
          -1.4250938892364502,
          -1.5690799951553345,
          0.2915990948677063,
          0.0854901596903801,
          -1.8808578252792358,
          1.2347697019577026,
          -0.4479292929172516,
          -0.5540187358856201,
          -0.24387982487678528,
          -0.3406113088130951,
          -0.11395857483148575,
          0.24125322699546814,
          -0.17013905942440033,
          0.8372775316238403,
          0.3854809105396271,
          -0.743793249130249,
          -0.10271886736154556,
          0.20369981229305267,
          -0.14817498624324799,
          0.8006956577301025,
          -1.4125208854675293,
          0.03424277529120445,
          -0.22495102882385254,
          -2.1741437911987305,
          -0.7708969116210938,
          0.9338704347610474,
          1.2427394390106201
        ]
      },
      "outputHidden": {
        "rows": 20,
        "columns": 20,
        "weights": [
          -1.4834332466125488,
          0.6070643663406372,
          0.042119137942790985,
          0.4843037724494934,
          -1.1943076848983765,
          0.7118102312088013,
          0.998450756072998,
          -0.36704564094543457,
          1.7272440195083618,
          -1.679932951927185,
          -0.8454354405403137,
          0.6618194580078125,
          -1.0227314233779907,
          0.5184653401374817,
          0.4140261113643646,
          -0.5646681189537048,
          0.9961239099502563,
          0.5694742798805237,
          0.2382417768239975,
          0.27072277665138245,
          1.1287063360214233,
          -0.648897647857666,
          0.8329780101776123,
          -0.1999710202217102,
          -0.6246466040611267,
          -1.0653491020202637,
          0.13742102682590485,
          -0.2551787495613098,
          0.3077229857444763,
          0.04998596012592316,
          -0.38978761434555054,
          0.03784257173538208,
          0.6132221817970276,
          0.04532866179943085,
          0.03185080364346504,
          0.3370822072029114,
          -0.70723956823349,
          0.5505555272102356,
          1.2362322807312012,
          2.6811153888702393,
          -0.6234719753265381,
          -0.027077624574303627,
          -0.04502509906888008,
          0.748257040977478,
          -0.9654695987701416,
          0.4997716546058655,
          -0.20293857157230377,
          -0.15132999420166016,
          1.3117362260818481,
          -0.06652437150478363,
          0.5490845441818237,
          -1.4886448383331299,
          0.21379338204860687,
          -0.8959735631942749,
          -0.06697942316532135,
          -0.09531089663505554,
          0.7654697895050049,
          -0.024838164448738098,
          0.13369391858577728,
          1.0275739431381226,
          0.026446275413036346,
          0.8138769268989563,
          -0.022867795079946518,
          -1.6951042413711548,
          0.5837751626968384,
          -0.7380232214927673,
          0.18835513293743134,
          0.792323112487793,
          1.799569010734558,
          0.47590774297714233,
          -0.7050879001617432,
          1.3640886545181274,
          -0.8809016346931458,
          -2.203299045562744,
          -0.29872167110443115,
          0.9890964031219482,
          0.34442389011383057,
          0.9659218788146973,
          0.4277706444263458,
          1.6536941528320312,
          0.798206090927124,
          -0.13347706198692322,
          -0.16482919454574585,
          0.5187976360321045,
          -1.4973444938659668,
          -0.15528504550457,
          0.06456659734249115,
          1.8391979932785034,
          1.8104915618896484,
          0.3543022871017456,
          -0.40142711997032166,
          -0.13031119108200073,
          -0.2227896898984909,
          0.6363648772239685,
          0.2302100658416748,
          0.364947110414505,
          0.5195601582527161,
          1.270025610923767,
          0.809890627861023,
          -0.34006866812705994,
          -1.5084178447723389,
          0.2055709809064865,
          -0.7909724116325378,
          -1.936420202255249,
          0.34616929292678833,
          -3.0506184101104736,
          -0.7083986401557922,
          0.042937517166137695,
          -1.2851550579071045,
          -1.0051060914993286,
          -0.0559554249048233,
          1.536277413368225,
          -0.016469154506921768,
          0.37718042731285095,
          -0.5890767574310303,
          1.6669962406158447,
          -1.1953339576721191,
          -0.8609113693237305,
          0.4103541076183319,
          0.25918424129486084,
          -0.6254355311393738,
          0.24471375346183777,
          0.4896402657032013,
          -0.7366136312484741,
          -0.09108097851276398,
          0.668000340461731,
          -0.3168908655643463,
          0.9614530205726624,
          -0.6650989651679993,
          -0.4804883599281311,
          -0.10241495072841644,
          -0.2206137329339981,
          0.6326174736022949,
          -0.2186640352010727,
          -0.4581209719181061,
          0.27425825595855713,
          -0.08018454164266586,
          0.06298976391553879,
          -0.08289230614900589,
          -0.6812350153923035,
          -0.1015051081776619,
          0.31354671716690063,
          0.9126001596450806,
          0.08049220591783524,
          0.41183361411094666,
          -0.2492164522409439,
          0.4532144367694855,
          0.474614679813385,
          -0.8352829813957214,
          -0.3672119081020355,
          -0.8324765563011169,
          -0.8532912135124207,
          0.27990442514419556,
          0.13316766917705536,
          -0.23839201033115387,
          0.1619160920381546,
          0.7777116298675537,
          -0.18639878928661346,
          -0.4420640766620636,
          0.19952097535133362,
          -0.2605202794075012,
          0.05208217725157738,
          1.0083407163619995,
          -0.4472511410713196,
          0.04439420625567436,
          0.9807969927787781,
          1.4588532447814941,
          0.6944235563278198,
          1.3270395994186401,
          -0.4629284739494324,
          -1.947197675704956,
          -2.030827760696411,
          0.2392408698797226,
          -0.39265865087509155,
          -0.8899041414260864,
          0.2178984135389328,
          -1.1023770570755005,
          -0.5230442881584167,
          -0.9193645119667053,
          0.10528590530157089,
          -0.3908850848674774,
          0.4709658920764923,
          0.5751764178276062,
          -0.2061789333820343,
          0.8398966789245605,
          -0.8971856832504272,
          -0.17297500371932983,
          0.5797756910324097,
          -1.1415824890136719,
          -0.09885313361883163,
          0.37226811051368713,
          0.9743640422821045,
          0.101533904671669,
          1.6374707221984863,
          -0.6885173320770264,
          0.47957712411880493,
          -1.3323742151260376,
          -0.5583515763282776,
          -0.5788037776947021,
          0.2750759422779083,
          0.39465126395225525,
          -0.1768971085548401,
          0.983869731426239,
          -0.14423726499080658,
          0.20866110920906067,
          0.3480184078216553,
          0.3219851553440094,
          0.018455831333994865,
          1.1780489683151245,
          -0.05712907761335373,
          -0.6950085163116455,
          -0.3063766062259674,
          -0.13649021089076996,
          -0.04040522873401642,
          -0.42828208208084106,
          -0.27488797903060913,
          1.0231561660766602,
          -0.4659815728664398,
          -0.11501443386077881,
          0.7870190143585205,
          0.2868345081806183,
          -0.1552990823984146,
          1.616278052330017,
          -0.24161513149738312,
          -0.38057148456573486,
          -0.7730292677879333,
          0.5047832727432251,
          0.6581193208694458,
          0.7445821166038513,
          -0.13344456255435944,
          0.3547535836696625,
          1.0999459028244019,
          -0.29097670316696167,
          0.8538772463798523,
          -0.22748224437236786,
          -0.2900761365890503,
          -0.27320024371147156,
          0.8820204138755798,
          -0.992919921875,
          -0.921129584312439,
          -3.1600396255271335e-7,
          -0.5014508366584778,
          0.25121521949768066,
          0.7642295956611633,
          -0.6500830054283142,
          -0.3247522711753845,
          0.05880196392536163,
          -0.11159520596265793,
          0.21942903101444244,
          -0.0960940420627594,
          -0.30185046792030334,
          -1.4080517292022705,
          0.11659558117389679,
          -1.1457023620605469,
          -0.1593891978263855,
          -0.19961373507976532,
          1.1173522472381592,
          -1.6694668531417847,
          -0.6613350510597229,
          -0.4893208146095276,
          -0.47687527537345886,
          1.0495301485061646,
          1.6300537586212158,
          -0.9228524565696716,
          0.18626870214939117,
          -0.363481730222702,
          -0.24568785727024078,
          1.1089792251586914,
          -0.20608186721801758,
          -0.5465565323829651,
          -0.5098214745521545,
          0.12359513342380524,
          0.10047447681427002,
          0.5991203784942627,
          0.05961926281452179,
          1.6514312028884888,
          0.4267832636833191,
          -2.575347423553467,
          -0.09831733256578445,
          0.10029039531946182,
          -1.4231126308441162,
          0.2640167772769928,
          0.5518916845321655,
          -0.35881003737449646,
          0.15238964557647705,
          0.38958850502967834,
          2.00758695602417,
          1.4668604135513306,
          0.5656570196151733,
          -1.1621731519699097,
          -1.7626392841339111,
          -0.84190434217453,
          0.22608093917369843,
          -0.5971754789352417,
          -1.3738367557525635,
          1.125813364982605,
          0.6948537230491638,
          -0.07553330063819885,
          -0.9540165066719055,
          0.49443864822387695,
          -0.6093544363975525,
          -0.2355610877275467,
          0.29264676570892334,
          -0.09573063999414444,
          0.13834330439567566,
          0.3982241153717041,
          0.7892847061157227,
          1.2268894910812378,
          1.4442209005355835,
          -0.27686208486557007,
          -1.8506640195846558,
          0.005378022789955139,
          0.40696167945861816,
          1.387068510055542,
          -0.5193228721618652,
          -0.15412209928035736,
          0.757187008857727,
          -0.3425154685974121,
          -0.8293250799179077,
          0.43020421266555786,
          0.4244060218334198,
          -0.33582109212875366,
          0.35307952761650085,
          0.4375452697277069,
          0.11801490932703018,
          0.3507126271724701,
          0.35720503330230713,
          0.24380646646022797,
          -0.26403355598449707,
          -0.07553969323635101,
          -0.2338373363018036,
          -0.11089502274990082,
          1.1364752054214478,
          0.7655762434005737,
          -0.7918584942817688,
          0.007390979677438736,
          0.221810445189476,
          -1.1448540687561035,
          -0.4190700948238373,
          -1.165923833847046,
          -1.0636882781982422,
          -0.04827084764838219,
          0.2938147783279419,
          -1.1056889295578003,
          0.3122996687889099,
          -0.12626630067825317,
          0.16597653925418854,
          0.0993712842464447,
          -0.8716270923614502,
          -0.6123822927474976,
          0.14316418766975403,
          -0.6401221752166748,
          0.7429298758506775,
          0.19967608153820038,
          -0.6530700325965881,
          0.5958754420280457,
          0.28076407313346863,
          0.27352792024612427,
          -1.272753119468689,
          -0.19444970786571503,
          -0.9483605027198792,
          0.08300605416297913,
          -0.5734712481498718,
          0.5045798420906067,
          -0.8794698119163513,
          -0.14988401532173157,
          0.7554184198379517,
          0.48518985509872437,
          -0.17478357255458832,
          -0.45567217469215393,
          -0.9898121356964111,
          -0.15419995784759521,
          0.6899575591087341,
          1.3239319324493408,
          -0.9184322357177734,
          0.25897839665412903,
          1.527644395828247,
          -0.4540232717990875,
          -0.5010518431663513,
          0.3147643208503723,
          -1.9444860219955444,
          0.8397837281227112,
          -0.2161555290222168,
          0.03671015426516533,
          1.0126923322677612,
          -0.5721960067749023,
          0.8484135270118713,
          0.19802604615688324,
          -0.6143051981925964,
          -0.15442849695682526,
          -0.7683148980140686,
          -0.17268909513950348,
          0.3201201260089874,
          1.0512911081314087,
          0.007998643442988396,
          0.6144526600837708,
          0.3640410304069519,
          0.2792570888996124,
          0.09479203820228577,
          2.0252504348754883
        ]
      },
      "outputBias": {
        "rows": 20,
        "columns": 1,
        "weights": [
          0.4834762215614319,
          0.7956673502922058,
          0.021475447341799736,
          0.01971522718667984,
          1.0241721868515015,
          -0.019737988710403442,
          0.2142702043056488,
          0.10311640053987503,
          -0.8629506826400757,
          0.45988917350769043,
          0.13689279556274414,
          0.6717013120651245,
          0.7303566932678223,
          0.09620002657175064,
          0.18501800298690796,
          -0.4665246605873108,
          -0.09282328188419342,
          -0.3150067925453186,
          0.3076344132423401,
          0.2620623707771301
        ]
      },
      "cellActivationMatrix": {
        "rows": 20,
        "columns": 20,
        "weights": [
          0.30155879259109497,
          0.14231497049331665,
          -0.1207386702299118,
          -0.26446130871772766,
          -0.4951403737068176,
          1.6522094011306763,
          -0.42997440695762634,
          0.03720003366470337,
          0.17794175446033478,
          0.4274526536464691,
          -0.34992778301239014,
          0.023045135661959648,
          -0.4547494351863861,
          0.5851527452468872,
          0.1262928545475006,
          -0.6439293026924133,
          0.788453996181488,
          0.9222396612167358,
          0.0997893437743187,
          -1.3469624519348145,
          -1.1219217777252197,
          -0.2339818924665451,
          0.6701937913894653,
          -0.9525105953216553,
          0.05039626732468605,
          -0.4191912114620209,
          0.2610594630241394,
          0.27840057015419006,
          -0.7930245995521545,
          -0.5836711525917053,
          0.9836744070053101,
          -0.25283417105674744,
          0.2112511843442917,
          -0.19151033461093903,
          0.19594509899616241,
          0.4670650064945221,
          0.5890569686889648,
          1.0599462985992432,
          -0.5836686491966248,
          0.03454054519534111,
          0.09445711225271225,
          -0.2965601682662964,
          0.32961443066596985,
          0.19091057777404785,
          0.14187344908714294,
          -0.15897196531295776,
          0.23617999255657196,
          0.5403162837028503,
          -0.06973596662282944,
          0.0009131417609751225,
          0.18760401010513306,
          -0.20826232433319092,
          -0.14305827021598816,
          0.19821710884571075,
          0.13380330801010132,
          -0.9375391006469727,
          -0.48078903555870056,
          0.2125600129365921,
          -0.03823142498731613,
          -0.013243937864899635,
          0.34118446707725525,
          -0.16966256499290466,
          0.46970808506011963,
          0.5030490756034851,
          0.8357405662536621,
          0.7707212567329407,
          -0.607036828994751,
          0.09844332188367844,
          -0.20974114537239075,
          0.3090769946575165,
          -0.3008212447166443,
          0.40274062752723694,
          -0.4552728533744812,
          0.9672107696533203,
          0.17848575115203857,
          0.6693774461746216,
          -0.08651848137378693,
          0.2091587781906128,
          -1.294021725654602,
          -1.271201491355896,
          -0.06811805069446564,
          -0.042190924286842346,
          -0.8170483708381653,
          -0.7583871483802795,
          -0.1664194017648697,
          -0.4425555169582367,
          0.09956800192594528,
          0.15951955318450928,
          -1.0866416692733765,
          -0.6515872478485107,
          0.38363710045814514,
          0.4909818470478058,
          -0.9465218186378479,
          -0.01893395557999611,
          0.39472588896751404,
          0.8903151750564575,
          -0.0498398132622242,
          0.3843493163585663,
          0.2741352915763855,
          -0.3812408447265625,
          0.8653790950775146,
          -0.06760863214731216,
          -0.2550269067287445,
          -0.05729677900671959,
          -0.6231128573417664,
          0.5834468007087708,
          0.0949455201625824,
          0.08417332172393799,
          0.202104389667511,
          0.12672416865825653,
          -0.2631681561470032,
          -0.8471916317939758,
          -0.23052504658699036,
          -0.017546476796269417,
          0.2588541805744171,
          0.7403742671012878,
          -0.37070828676223755,
          0.35474133491516113,
          0.099564328789711,
          0.633183479309082,
          0.5152286887168884,
          0.07254574447870255,
          -0.2644249498844147,
          0.6010919213294983,
          -0.1764569729566574,
          -0.39874422550201416,
          0.05835337191820145,
          0.09448407590389252,
          -0.2192745804786682,
          -0.04601287841796875,
          0.40990108251571655,
          -0.5202144980430603,
          0.09041867405176163,
          -0.687144935131073,
          0.16780327260494232,
          -0.47771787643432617,
          -0.23130162060260773,
          0.6697787046432495,
          -0.21354682743549347,
          -0.05249962583184242,
          0.5318287014961243,
          0.2998044490814209,
          0.23721058666706085,
          0.023942019790410995,
          -0.08772135525941849,
          -0.30884259939193726,
          0.3011558949947357,
          0.3072206676006317,
          -0.3017175793647766,
          -0.18084052205085754,
          0.2629660367965698,
          -0.6799695491790771,
          -0.5524933934211731,
          0.4596651494503021,
          -0.5884091854095459,
          0.11329896003007889,
          0.06480887532234192,
          -0.37613150477409363,
          0.02235628291964531,
          0.015394597314298153,
          -0.12950442731380463,
          -0.405902624130249,
          0.335365355014801,
          0.5374184250831604,
          0.2339620441198349,
          0.6358065605163574,
          -0.7532688975334167,
          0.12434175610542297,
          -0.5188766717910767,
          -0.2525756359100342,
          -0.1595458984375,
          -0.3361988365650177,
          -0.20309247076511383,
          1.8409109115600586,
          -0.274586945772171,
          0.018135525286197662,
          -0.015586570836603642,
          1.2436763048171997,
          -0.5786749124526978,
          -1.5818297863006592,
          0.40104207396507263,
          -0.2696123421192169,
          0.12133469432592392,
          -0.4720684289932251,
          0.12489131093025208,
          0.13282106816768646,
          -0.14694352447986603,
          -0.08918261528015137,
          -0.23551665246486664,
          0.6809359192848206,
          -0.8230284452438354,
          0.27705278992652893,
          -1.1335315704345703,
          -0.21393457055091858,
          -0.6398631930351257,
          -0.4252432882785797,
          0.7117020487785339,
          -0.00758020905777812,
          0.042940955609083176,
          -0.20961064100265503,
          0.20368023216724396,
          -0.246592715382576,
          -0.16155770421028137,
          0.12740418314933777,
          -0.4868747889995575,
          0.11597200483083725,
          0.04060596227645874,
          -0.25460729002952576,
          -0.26474884152412415,
          -0.09590190649032593,
          -0.41932666301727295,
          0.1439397782087326,
          0.42882269620895386,
          0.13621748983860016,
          -0.7402794361114502,
          0.6911850571632385,
          0.387618750333786,
          0.2576005756855011,
          -0.4960455894470215,
          -0.41131073236465454,
          0.03336184844374657,
          -0.08476771414279938,
          0.5796677470207214,
          -1.270280122756958,
          -0.11144477128982544,
          0.13925807178020477,
          0.41538286209106445,
          0.48218172788619995,
          0.507162868976593,
          1.1696453094482422,
          -0.08995852619409561,
          0.4107899069786072,
          -0.3698353171348572,
          0.1034655049443245,
          0.7594234943389893,
          -0.8481473326683044,
          -0.2967539131641388,
          0.1337270736694336,
          -0.301008015871048,
          0.15229086577892303,
          -0.2775467038154602,
          0.09994228929281235,
          -0.053057875484228134,
          -0.16499479115009308,
          -0.18718527257442474,
          0.12185287475585938,
          0.057578712701797485,
          -0.2606355547904968,
          -0.6827585101127625,
          -0.1989334225654602,
          0.11531423777341843,
          0.011641673743724823,
          -0.13732905685901642,
          -0.33146801590919495,
          0.16205959022045135,
          -0.2621019780635834,
          0.03287874534726143,
          0.0008296757587231696,
          -0.10531003773212433,
          -0.12507931888103485,
          -0.1913500428199768,
          -0.5461754202842712,
          0.02718903310596943,
          0.38182690739631653,
          -0.7723698616027832,
          -0.18308237195014954,
          0.4850069582462311,
          -0.030158016830682755,
          -0.1850646287202835,
          -0.4195764362812042,
          -0.2750662863254547,
          0.6287333369255066,
          -0.5385987758636475,
          0.6281157732009888,
          0.11042439937591553,
          0.29822012782096863,
          0.4325658082962036,
          0.40527820587158203,
          -0.4397747814655304,
          -0.36923322081565857,
          -0.19472715258598328,
          0.013159643858671188,
          0.3783864676952362,
          0.1428358554840088,
          -0.18032653629779816,
          0.1798877716064453,
          -0.18259741365909576,
          -0.3967704176902771,
          -0.2099781334400177,
          0.36713916063308716,
          0.6611267328262329,
          -0.10143876075744629,
          -0.10017378628253937,
          -0.20777040719985962,
          -0.06251491606235504,
          -0.069717176258564,
          -0.3325293958187103,
          0.35117602348327637,
          0.12353618443012238,
          0.15252363681793213,
          -0.42660003900527954,
          0.008121438324451447,
          -0.03373768553137779,
          0.15122871100902557,
          1.7739853858947754,
          0.4521920382976532,
          0.07673883438110352,
          -0.000007647680831723846,
          0.13346853852272034,
          -0.8777686357498169,
          0.6192267537117004,
          0.6922948360443115,
          0.9172202944755554,
          -0.7358772158622742,
          -1.0358203649520874,
          0.5815907120704651,
          0.5267820358276367,
          0.28297489881515503,
          0.25977635383605957,
          -0.24922320246696472,
          -0.38532811403274536,
          0.05493724346160889,
          -0.15145036578178406,
          -0.311762273311615,
          0.39955976605415344,
          -0.24589262902736664,
          -0.36678236722946167,
          -0.2841154932975769,
          -0.15380577743053436,
          0.45219844579696655,
          0.31286150217056274,
          -0.2851976454257965,
          0.34057366847991943,
          -0.10680274665355682,
          -0.3477782905101776,
          0.13019172847270966,
          0.029746463522315025,
          -0.02340700849890709,
          -0.35858994722366333,
          0.08820431679487228,
          -0.05317886546254158,
          -0.564146876335144,
          0.9968642592430115,
          0.39852431416511536,
          -0.4273114800453186,
          -0.2817433476448059,
          0.21752038598060608,
          -0.16263993084430695,
          0.14061987400054932,
          0.014735201373696327,
          0.275073379278183,
          -0.037428777664899826,
          -0.47011324763298035,
          0.11334804445505142,
          0.583971381187439,
          0.640350878238678,
          1.233476161956787,
          0.08753704279661179,
          -0.49057844281196594,
          0.25980594754219055,
          -0.30343273282051086,
          -0.23999927937984467,
          0.3605269193649292,
          0.007067411206662655,
          0.20135986804962158,
          0.31139081716537476,
          0.4100167453289032,
          0.1522274762392044,
          0.17151832580566406,
          -0.5354772806167603,
          -1.0675537586212158,
          -0.9291002154350281,
          0.05021887272596359,
          -0.3136863112449646,
          -0.8031013011932373,
          -0.04855630174279213,
          -1.3834152221679688,
          -0.18098534643650055,
          0.03541188687086105,
          0.009934606961905956,
          -0.1346832513809204,
          -0.41141846776008606,
          -0.3688584864139557,
          -0.05802979692816734,
          0.30395397543907166,
          0.12319923937320709,
          -0.2380445897579193,
          0.03532562404870987,
          -0.04841820150613785,
          0.0020547721069306135,
          0.6000357270240784,
          0.09386739879846573,
          -0.23738142848014832,
          -0.3381288945674896,
          0.19661109149456024,
          -0.7539307475090027,
          0.03455069288611412,
          0.19064268469810486,
          -0.4653775095939636,
          0.287213534116745
        ]
      },
      "cellActivationHidden": {
        "rows": 20,
        "columns": 20,
        "weights": [
          -0.47829851508140564,
          -0.16396698355674744,
          0.024715512990951538,
          -1.0326435565948486,
          0.28073376417160034,
          -0.3861483335494995,
          0.8507163524627686,
          0.31021445989608765,
          -0.555419921875,
          -0.2341824769973755,
          0.08507141470909119,
          0.24581478536128998,
          -0.13897199928760529,
          0.10630270093679428,
          -0.0695098489522934,
          0.2977555990219116,
          0.2490592896938324,
          -1.1180388927459717,
          0.12437379360198975,
          -0.13901275396347046,
          -1.207168459892273,
          0.2087380588054657,
          0.3791944086551666,
          -0.6651625633239746,
          0.0453253872692585,
          0.6073542237281799,
          0.24948018789291382,
          0.433526873588562,
          -0.2937701642513275,
          -0.710523784160614,
          -0.7936310768127441,
          -0.3288537263870239,
          0.5643099546432495,
          0.755073070526123,
          -0.8482267260551453,
          0.4053262174129486,
          0.9995138645172119,
          -0.851789116859436,
          -0.32332736253738403,
          -0.5500286221504211,
          -0.22325681149959564,
          0.2612449526786804,
          -0.0895797535777092,
          -0.37769612669944763,
          1.1833860874176025,
          -0.635075032711029,
          -0.1793304681777954,
          0.15008223056793213,
          -0.8822333812713623,
          0.278014600276947,
          0.20695531368255615,
          0.29869258403778076,
          0.11783155798912048,
          -0.07088012993335724,
          0.11128593236207962,
          0.60096275806427,
          0.029405521228909492,
          -0.6034427881240845,
          -0.15432564914226532,
          -1.2800763845443726,
          -0.0401260070502758,
          0.36521345376968384,
          0.6370733976364136,
          -0.02617812529206276,
          0.09219730645418167,
          -0.03292360529303551,
          -0.02607613056898117,
          -0.2660340368747711,
          -0.4858921766281128,
          -0.1054263785481453,
          -0.39706674218177795,
          0.123044952750206,
          -0.29143425822257996,
          0.1214502826333046,
          0.2209010124206543,
          0.837376058101654,
          0.2916646897792816,
          -0.19354547560214996,
          0.10834237188100815,
          -0.0006278250366449356,
          -0.861577570438385,
          -0.11183081567287445,
          0.553602933883667,
          -0.4815664291381836,
          -0.07460999488830566,
          -0.0982101634144783,
          0.8819929957389832,
          0.06608258187770844,
          0.02838011085987091,
          -0.5648075938224792,
          -0.37625718116760254,
          1.6550999879837036,
          0.09072959423065186,
          0.5349137783050537,
          -0.746884286403656,
          1.2897224426269531,
          -0.3857885003089905,
          -0.08094162493944168,
          -0.24744586646556854,
          1.0774240493774414,
          0.6086781024932861,
          0.25458359718322754,
          0.19290295243263245,
          0.4899202585220337,
          -0.3845619857311249,
          0.8602542877197266,
          -0.00031812567613087595,
          -0.1445336937904358,
          -0.22490724921226501,
          -0.13349847495555878,
          -0.3219234049320221,
          -0.1854279488325119,
          -0.0745004191994667,
          -0.07591161876916885,
          0.06035679578781128,
          -0.05966871976852417,
          0.6814416646957397,
          -0.06390655040740967,
          0.04351602867245674,
          -0.309207946062088,
          0.12797555327415466,
          -0.4218577742576599,
          0.05462170019745827,
          -0.42533281445503235,
          -0.22203429043293,
          -0.22415748238563538,
          0.210774764418602,
          0.1877579241991043,
          0.8942185044288635,
          0.16376914083957672,
          0.11707383394241333,
          -0.3233793079853058,
          -0.5927990674972534,
          -0.021641425788402557,
          -0.10482379794120789,
          0.10739560425281525,
          0.5540675520896912,
          0.6530370116233826,
          0.0644802451133728,
          0.36428382992744446,
          0.02739877812564373,
          -0.5015556216239929,
          -0.5626543760299683,
          -0.8174715638160706,
          0.045402612537145615,
          -0.0521584078669548,
          -0.15918393433094025,
          -0.3159325420856476,
          0.3250426650047302,
          -0.28076234459877014,
          -0.2839316129684448,
          0.019479837268590927,
          -0.1366194635629654,
          0.04873708263039589,
          -0.3985048234462738,
          0.7525931000709534,
          0.16580133140087128,
          0.01112154871225357,
          0.5485290288925171,
          -0.21248415112495422,
          0.06563399732112885,
          -0.28790318965911865,
          0.2084188461303711,
          -0.682612955570221,
          -0.09951967000961304,
          0.06514998525381088,
          -0.6210222244262695,
          0.008617285639047623,
          -0.8935478925704956,
          0.23376721143722534,
          0.026812845841050148,
          0.01689070276916027,
          0.0015583642525598407,
          0.0842800885438919,
          -0.2002425193786621,
          -0.9201257228851318,
          -0.4256964921951294,
          -0.087074875831604,
          -0.2464003711938858,
          0.2219460904598236,
          0.9160606861114502,
          0.6679573059082031,
          0.10363691300153732,
          -0.43742918968200684,
          -0.24053075909614563,
          -0.3986055254936218,
          0.13641227781772614,
          0.39831480383872986,
          0.17110033333301544,
          0.28585848212242126,
          0.3897533416748047,
          -0.4677174389362335,
          -0.11996333301067352,
          0.11287972331047058,
          -0.13599176704883575,
          -0.6982712149620056,
          -0.32081928849220276,
          0.00984225794672966,
          -0.6854301691055298,
          0.5024161338806152,
          0.37790384888648987,
          -0.43203017115592957,
          0.0686890184879303,
          0.2862131893634796,
          -0.2369159311056137,
          -0.23670801520347595,
          -0.3225441575050354,
          0.19801843166351318,
          0.4632354974746704,
          -0.4535576403141022,
          0.0337282232940197,
          -0.09019753336906433,
          0.1661936342716217,
          0.5761924386024475,
          0.4719119966030121,
          -0.609600841999054,
          0.6837438344955444,
          1.3251186609268188,
          -0.41618070006370544,
          0.6281195282936096,
          1.020894169807434,
          0.23658043146133423,
          -0.36785775423049927,
          -0.520904004573822,
          -0.4990364909172058,
          -0.6698926687240601,
          0.3933209776878357,
          -0.415405809879303,
          0.21712052822113037,
          -0.5892435908317566,
          0.00045479307300411165,
          0.8599004149436951,
          1.0317199230194092,
          0.5234057903289795,
          0.21229049563407898,
          -0.655284583568573,
          -0.5668444037437439,
          -0.2972005009651184,
          -0.573643147945404,
          -0.7593816518783569,
          -0.6312324404716492,
          0.22517038881778717,
          0.3686600625514984,
          -0.15587803721427917,
          0.21326814591884613,
          -0.09684040397405624,
          1.455684781074524,
          0.9572102427482605,
          0.6758313179016113,
          -0.28686022758483887,
          -0.9383109211921692,
          -0.13664178550243378,
          -0.29523131251335144,
          -0.18541578948497772,
          -1.1963415145874023,
          0.5754303336143494,
          0.29778242111206055,
          -0.1392572969198227,
          -0.19667643308639526,
          0.7851942777633667,
          -0.4260706603527069,
          -0.3242480158805847,
          -0.18849609792232513,
          -0.12367954105138779,
          -0.014850452542304993,
          0.5154224634170532,
          0.04460783675312996,
          0.10981231182813644,
          0.5052596926689148,
          -0.23995524644851685,
          0.2992468476295471,
          -0.450857013463974,
          -0.014572110027074814,
          0.7157949805259705,
          -0.05482645705342293,
          0.3456268012523651,
          -0.7122051119804382,
          -0.5346880555152893,
          -0.20364411175251007,
          0.7127538919448853,
          0.07407627999782562,
          -0.19143325090408325,
          -0.14691728353500366,
          -0.2855651080608368,
          -0.29603084921836853,
          0.2911171615123749,
          0.11313482373952866,
          -0.4182746410369873,
          0.2693731486797333,
          0.1992148458957672,
          0.05274296924471855,
          0.7094504833221436,
          -0.6736491918563843,
          -0.1698261946439743,
          0.08000613749027252,
          -0.01761401817202568,
          0.23907414078712463,
          -0.6451584696769714,
          0.4053221344947815,
          -0.005249948240816593,
          0.34449249505996704,
          0.15054179728031158,
          0.6334972977638245,
          -0.9797288775444031,
          0.3832603693008423,
          0.6367250680923462,
          0.60435950756073,
          0.04200451076030731,
          -0.484708309173584,
          -0.39518627524375916,
          -0.45993390679359436,
          0.2767649292945862,
          0.0037750054616481066,
          0.19947810471057892,
          0.147902250289917,
          -0.7219445109367371,
          -0.48331302404403687,
          -0.05599914863705635,
          -0.15311342477798462,
          -0.4273863732814789,
          0.2308426946401596,
          -0.08428631722927094,
          0.16983428597450256,
          0.574097752571106,
          -0.20424336194992065,
          0.052198491990566254,
          0.4127022922039032,
          0.43591174483299255,
          -0.037756700068712234,
          -0.35286402702331543,
          -0.39978647232055664,
          0.314304918050766,
          0.35397011041641235,
          0.17644725739955902,
          -0.44439923763275146,
          -0.31949782371520996,
          0.6797851324081421,
          0.5052374601364136,
          0.2013612687587738,
          -0.003723159898072481,
          -0.3984338045120239,
          0.010943074710667133,
          0.02571950852870941,
          -0.2198440432548523,
          -0.47014307975769043,
          -0.08817096799612045,
          -0.15768469870090485,
          0.3455962538719177,
          -0.4843524098396301,
          0.25953322649002075,
          -0.5772475004196167,
          0.1292097568511963,
          -0.6383603811264038,
          0.47406071424484253,
          -0.46056997776031494,
          -0.2647656798362732,
          0.11256647855043411,
          0.11056581139564514,
          -0.4250919818878174,
          -0.48301228880882263,
          1.025399088859558,
          0.7232770323753357,
          -0.5316921472549438,
          0.5223448872566223,
          -0.10549452155828476,
          -0.5190288424491882,
          -0.2067394107580185,
          -1.0182095766067505,
          0.09586194157600403,
          1.5085079669952393,
          0.6815978288650513,
          -0.6990818977355957,
          -0.13593007624149323,
          0.07027405500411987,
          -0.0017935961950570345,
          -0.28586211800575256,
          0.193288192152977,
          0.416652113199234,
          0.6851720809936523,
          -0.7122551798820496,
          0.036225493997335434,
          0.12709589302539825,
          -0.06135827675461769,
          -0.07845094054937363,
          -0.5380575060844421,
          -0.44876357913017273,
          -0.21919108927249908,
          -0.33496546745300293,
          -0.8396109342575073,
          -0.04526052623987198,
          0.20547011494636536,
          0.5126060843467712,
          -0.21300415694713593,
          0.3709985613822937,
          0.16037695109844208,
          -0.05044041946530342,
          -0.058727364987134933,
          0.4782932996749878,
          0.29891157150268555,
          0.7561533451080322
        ]
      },
      "cellActivationBias": {
        "rows": 20,
        "columns": 1,
        "weights": [
          -0.44727060198783875,
          -0.7160769701004028,
          0.4168359935283661,
          -0.12604573369026184,
          -1.0676087141036987,
          0.1875242292881012,
          0.2313123643398285,
          0.10271716117858887,
          0.17931844294071198,
          -0.34653380513191223,
          -0.1531047821044922,
          0.328108549118042,
          -0.9133409857749939,
          0.01598154939711094,
          -0.17258204519748688,
          0.047601327300071716,
          0.14861392974853516,
          -0.12356473505496979,
          0.3915930688381195,
          0.17268280684947968
        ]
      }
    }
  ],
  "outputConnector": {
    "rows": 29,
    "columns": 20,
    "weights": [
      4.143486022949219,
      0.5738113522529602,
      0.9500611424446106,
      4.0189032554626465,
      0.6204169392585754,
      3.851130723953247,
      1.1898020505905151,
      -0.6921753883361816,
      -0.16860677301883698,
      -0.2856842875480652,
      0.389639288187027,
      -3.3802387714385986,
      -0.39686667919158936,
      -3.92173171043396,
      1.7686883211135864,
      -5.798870086669922,
      3.641080141067505,
      -1.2330759763717651,
      1.627974033355713,
      -3.5692665576934814,
      -1.6884316205978394,
      -3.721938371658325,
      1.188747763633728,
      -0.9291110038757324,
      2.8185207843780518,
      0.9243347644805908,
      0.15613067150115967,
      -0.28902021050453186,
      -2.3241682052612305,
      0.9258279800415039,
      -0.2585136294364929,
      -0.35607442259788513,
      2.7515878677368164,
      -1.3603821992874146,
      -0.5708500742912292,
      0.8896239995956421,
      -1.2629406452178955,
      2.572227716445923,
      1.918924331665039,
      -1.4008259773254395,
      -0.4895513653755188,
      -3.2110111713409424,
      -0.7543572783470154,
      3.026794195175171,
      -0.23052696883678436,
      -1.506018042564392,
      0.8374695181846619,
      -0.3577783703804016,
      2.559999465942383,
      -0.036947235465049744,
      0.8478975296020508,
      2.0928337574005127,
      -0.2696164846420288,
      0.022766530513763428,
      0.6645938754081726,
      -0.8125090003013611,
      -0.19338688254356384,
      1.211966633796692,
      -1.3247302770614624,
      -2.0230464935302734,
      2.6810948848724365,
      0.8908488750457764,
      -0.5522525310516357,
      -1.622352957725525,
      2.497572660446167,
      -2.196546792984009,
      -0.28675907850265503,
      -0.47425535321235657,
      -1.345492959022522,
      0.8287943601608276,
      -0.3224440813064575,
      -1.7641631364822388,
      -5.149656772613525,
      -0.8930281400680542,
      -0.558497428894043,
      0.8371778130531311,
      3.56362247467041,
      3.548896312713623,
      -0.9966384172439575,
      1.6949819326400757,
      1.785983681678772,
      1.374974250793457,
      -4.448474884033203,
      -2.761151075363159,
      -1.8290013074874878,
      -0.49638354778289795,
      0.9399279952049255,
      -1.1295336484909058,
      -3.458404064178467,
      -1.6298785209655762,
      0.7996729016304016,
      0.3713797926902771,
      1.6799813508987427,
      1.2421088218688965,
      -0.07641088962554932,
      0.46618109941482544,
      1.6983463764190674,
      0.6283152103424072,
      0.4625093340873718,
      -0.969986617565155,
      2.779555559158325,
      -2.075714349746704,
      -0.9201255440711975,
      2.361508846282959,
      -1.018343448638916,
      -0.40888676047325134,
      0.8485442996025085,
      0.4717511832714081,
      -0.2054576873779297,
      -1.884064793586731,
      0.23124951124191284,
      0.6198915839195251,
      -0.024907762184739113,
      -2.7036781311035156,
      -0.5229111909866333,
      -2.9072327613830566,
      0.9151672720909119,
      -0.28202834725379944,
      0.5157192349433899,
      3.175992488861084,
      0.23938757181167603,
      -3.837419033050537,
      1.350460410118103,
      -3.029538154602051,
      -1.0214797258377075,
      3.4246692657470703,
      -1.4111610651016235,
      0.6535695791244507,
      2.980104923248291,
      0.9147511720657349,
      0.3263731002807617,
      -0.8176180720329285,
      1.5094585418701172,
      2.0679850578308105,
      0.07884710282087326,
      -4.307149410247803,
      -1.6023317575454712,
      -0.24024900794029236,
      -2.665747880935669,
      -1.3149937391281128,
      -3.1160922050476074,
      2.1513218879699707,
      0.9901209473609924,
      -1.3389116525650024,
      0.007846352644264698,
      -3.698953628540039,
      0.4616663455963135,
      -0.2048845887184143,
      -1.2142629623413086,
      -1.897708535194397,
      0.25186991691589355,
      -3.3852219581604004,
      0.7169899344444275,
      0.3000166118144989,
      0.20154637098312378,
      2.6071479320526123,
      3.5859153270721436,
      -0.4191327691078186,
      -4.152459621429443,
      -2.686248302459717,
      1.0780647993087769,
      -0.6842764019966125,
      -1.2490140199661255,
      0.09486299008131027,
      -0.9298954606056213,
      0.8406445980072021,
      0.8217804431915283,
      0.45787593722343445,
      1.4822767972946167,
      -0.6979665160179138,
      0.2583805024623871,
      0.5162816047668457,
      -2.3452444076538086,
      2.2065701484680176,
      0.058304741978645325,
      -0.6640661954879761,
      -3.537701368331909,
      -0.28039997816085815,
      2.1557767391204834,
      0.16592605412006378,
      0.3780355453491211,
      -0.19821949303150177,
      -5.085179328918457,
      3.0951921939849854,
      -1.4088246822357178,
      -1.544948935508728,
      -1.0810127258300781,
      1.3545844554901123,
      -2.1070761680603027,
      0.7401124238967896,
      -0.7263731956481934,
      -0.002299013314768672,
      -1.342530608177185,
      0.9296736717224121,
      -0.16873905062675476,
      0.8600478172302246,
      1.3364306688308716,
      -2.0021860599517822,
      -0.20854157209396362,
      1.8636605739593506,
      -1.3931560516357422,
      -1.476176142692566,
      0.23400042951107025,
      1.5904241800308228,
      -1.1635761260986328,
      -1.3366961479187012,
      0.6865928173065186,
      1.180799126625061,
      1.0628584623336792,
      2.191692352294922,
      -1.6992107629776,
      4.429785251617432,
      0.3277897834777832,
      1.2856849431991577,
      -0.5902493000030518,
      -1.7810646295547485,
      -1.5887975692749023,
      2.0656044483184814,
      1.5976217985153198,
      0.5582860708236694,
      -1.6349931955337524,
      2.9131581783294678,
      2.235081911087036,
      0.7040417194366455,
      1.993018627166748,
      1.1479623317718506,
      0.4357048571109772,
      0.8162879347801208,
      -2.867027997970581,
      1.2074308395385742,
      0.17501242458820343,
      3.006004571914673,
      -0.5980765223503113,
      -2.0717477798461914,
      0.4050244688987732,
      0.851714015007019,
      0.5876175165176392,
      -4.149139404296875,
      0.6297349333763123,
      -0.2669636011123657,
      -1.6023813486099243,
      -0.08827751874923706,
      -1.9218496084213257,
      1.0517438650131226,
      -0.4711580276489258,
      -1.6215006113052368,
      -1.1099063158035278,
      -1.8112140893936157,
      2.5665953159332275,
      2.499267578125,
      2.1187591552734375,
      0.06655790656805038,
      -0.13568919897079468,
      1.3982692956924438,
      0.6892396211624146,
      0.76363605260849,
      -2.0648860931396484,
      -1.628588318824768,
      0.8018076419830322,
      -1.0630444288253784,
      1.0277037620544434,
      1.7289268970489502,
      0.7802882790565491,
      -2.8835251331329346,
      -0.11011210829019547,
      0.902366578578949,
      -1.4011331796646118,
      -0.6952373385429382,
      3.6437392234802246,
      -0.7928349375724792,
      0.7022572755813599,
      1.0573780536651611,
      -2.203197479248047,
      0.7440109848976135,
      -0.09247536212205887,
      -2.116464138031006,
      1.8882838487625122,
      1.4291267395019531,
      0.14607705175876617,
      -0.3732232451438904,
      -0.6579738855361938,
      2.282214879989624,
      -0.5064085125923157,
      -1.4570908546447754,
      1.9233535528182983,
      4.5269975662231445,
      0.9770041108131409,
      1.1311298608779907,
      -1.4191182851791382,
      -1.7557330131530762,
      -1.3905888795852661,
      -0.9731436967849731,
      0.646633505821228,
      2.0131866931915283,
      -0.544036328792572,
      0.5226679444313049,
      -1.2150019407272339,
      0.20663046836853027,
      -2.4180095195770264,
      2.434607744216919,
      -0.025907941162586212,
      -1.316595196723938,
      -0.19391034543514252,
      2.1537551879882812,
      2.585036516189575,
      2.8949108123779297,
      -1.9348125457763672,
      0.5285748839378357,
      1.0234832763671875,
      1.4034531116485596,
      0.36796557903289795,
      -2.116072416305542,
      -0.41999348998069763,
      -0.44485872983932495,
      0.5015975832939148,
      -0.3032907545566559,
      -3.2702558040618896,
      0.5164662003517151,
      1.5875414609909058,
      1.5575546026229858,
      -2.014045476913452,
      3.3724324703216553,
      1.852258563041687,
      -2.149738073348999,
      -2.005014419555664,
      2.944662094116211,
      1.9249266386032104,
      0.7423790097236633,
      3.84659743309021,
      -0.6919922232627869,
      -1.2910149097442627,
      -2.8148982524871826,
      2.635129451751709,
      -1.8828712701797485,
      -1.7669668197631836,
      -0.9030333757400513,
      -1.3897230625152588,
      -3.451725721359253,
      -0.76173996925354,
      0.23156270384788513,
      -0.8270436525344849,
      1.0101301670074463,
      2.0927553176879883,
      3.1938421726226807,
      -1.2267225980758667,
      2.294670581817627,
      -2.6020102500915527,
      -3.1124613285064697,
      -1.132851481437683,
      -1.6291556358337402,
      -0.24207912385463715,
      1.7699509859085083,
      -0.4465373456478119,
      -0.6140140295028687,
      -0.1576809138059616,
      0.7685413360595703,
      -1.293965220451355,
      -0.13271187245845795,
      0.8028631210327148,
      -0.27602529525756836,
      2.539750576019287,
      0.6357585787773132,
      0.024953125044703484,
      0.06485339999198914,
      -1.992445707321167,
      -2.3347225189208984,
      -0.7160100340843201,
      0.8452534675598145,
      -0.09929751604795456,
      0.6956378221511841,
      -0.22733727097511292,
      5.048892498016357,
      -0.538916826248169,
      0.6387485265731812,
      0.5103929042816162,
      1.5803254842758179,
      -0.35652071237564087,
      0.9933519959449768,
      0.2644193470478058,
      1.845559000968933,
      -2.267629384994507,
      1.1659735441207886,
      1.6914969682693481,
      0.04309709370136261,
      -1.3030500411987305,
      1.3437153100967407,
      -1.8046276569366455,
      1.572414517402649,
      2.110536813735962,
      -0.010335121303796768,
      -1.287506341934204,
      -0.15268585085868835,
      1.6977801322937012,
      -3.064885139465332,
      -1.371647834777832,
      -3.693676233291626,
      1.1393868923187256,
      -0.8190485835075378,
      -1.6997652053833008,
      -1.6285465955734253,
      -0.6880378127098083,
      1.3350526094436646,
      -1.145020842552185,
      0.1512313187122345,
      -0.07633993029594421,
      -1.622564435005188,
      -1.241032361984253,
      -0.003508942434564233,
      0.9510939121246338,
      0.23888617753982544,
      3.6936049461364746,
      2.8029706478118896,
      0.16204461455345154,
      1.0252830982208252,
      0.5789321660995483,
      -1.0866957902908325,
      0.29543280601501465,
      -0.35456085205078125,
      1.2886500358581543,
      1.8638361692428589,
      -2.071901321411133,
      2.09230375289917,
      -3.75546932220459,
      0.9871017932891846,
      0.5541317462921143,
      0.5705131888389587,
      1.2259228229522705,
      0.3033461272716522,
      3.0285158157348633,
      2.6518354415893555,
      -1.846909999847412,
      0.43757373094558716,
      1.5496138334274292,
      -1.1728582382202148,
      -0.5933710336685181,
      -0.5550509095191956,
      2.7169933319091797,
      0.013080090284347534,
      -1.4205223321914673,
      1.6545146703720093,
      1.8292535543441772,
      -0.7427014708518982,
      0.43035420775413513,
      0.47442319989204407,
      -1.3337340354919434,
      -1.9512920379638672,
      -2.197861433029175,
      -2.201735496520996,
      -1.0705126523971558,
      -0.44526153802871704,
      -0.10055296868085861,
      -0.6345780491828918,
      0.6909261345863342,
      2.4552481174468994,
      1.4055198431015015,
      -1.0023380517959595,
      -0.14951971173286438,
      -1.1487492322921753,
      2.5732271671295166,
      1.7791426181793213,
      0.3005909025669098,
      0.04357632249593735,
      0.42260730266571045,
      1.414718747138977,
      -2.781970262527466,
      -2.094273090362549,
      -0.06964938342571259,
      -1.4880374670028687,
      0.09132616221904755,
      2.6467761993408203,
      -0.3737959861755371,
      -1.3699620962142944,
      -0.7263440489768982,
      0.03423835337162018,
      0.6638979315757751,
      -0.3863503634929657,
      -0.03977920487523079,
      -0.8099961280822754,
      0.32327407598495483,
      0.10066182166337967,
      1.8249434232711792,
      0.1354958713054657,
      0.4605375826358795,
      0.7265337705612183,
      -0.5313608646392822,
      2.4422950744628906,
      -2.8332016468048096,
      0.29178887605667114,
      0.8521201014518738,
      2.9130587577819824,
      -0.2637145221233368,
      3.000960350036621,
      -0.5200023651123047,
      2.1755588054656982,
      -0.24925090372562408,
      -0.05823538079857826,
      2.037550926208496,
      1.835497260093689,
      3.639852285385132,
      2.703496217727661,
      -0.44432857632637024,
      -0.6529852151870728,
      -2.600231885910034,
      -0.005960759706795216,
      0.6679396033287048,
      -0.9658540487289429,
      -0.391050785779953,
      -0.1493990421295166,
      -0.3897293210029602,
      0.49972403049468994,
      1.487689733505249,
      2.826838970184326,
      -0.7843117713928223,
      1.545296549797058,
      0.3296862244606018,
      -2.315716028213501,
      -0.5705519914627075,
      0.8381263017654419,
      1.3198704719543457,
      0.0035674816463142633,
      1.9699724912643433,
      -1.648848295211792,
      0.10254909843206406,
      -0.8766233325004578,
      -0.19777800142765045,
      -3.0674524307250977,
      -0.5658420324325562,
      -0.2475517988204956,
      1.3026436567306519,
      1.3869786262512207,
      1.9854763746261597,
      -1.5121583938598633,
      -1.0396312475204468,
      0.15765084326267242,
      0.8606116771697998,
      0.7316912412643433,
      2.9918272495269775,
      0.7678623795509338,
      -0.3072356879711151,
      -1.4714847803115845,
      0.4224224090576172,
      1.585294485092163,
      -1.8328015804290771,
      1.3126426935195923,
      -1.044548511505127,
      0.45315736532211304,
      0.21580779552459717,
      0.5213831067085266,
      -0.16374827921390533,
      -0.9583773016929626,
      0.7483286261558533,
      2.073197841644287,
      -0.9400210976600647,
      1.7469565868377686,
      0.7526809573173523,
      -1.36764395236969,
      1.883692741394043,
      1.8413643836975098,
      2.5799248218536377,
      -0.6617597341537476,
      3.324434518814087,
      -0.341948002576828,
      -1.0182355642318726,
      1.8029594421386719,
      -0.16712762415409088,
      -0.513962984085083,
      -2.8677330017089844,
      -2.7242612838745117,
      -0.7017171382904053,
      2.335817575454712,
      2.9966955184936523,
      1.0230926275253296,
      -0.41106751561164856,
      0.6695540547370911,
      2.5613014698028564,
      -2.420738935470581,
      -0.01951507106423378,
      0.5769794583320618,
      1.6422544717788696,
      -1.0634831190109253
    ]
  },
  "output": {
    "rows": 29,
    "columns": 1,
    "weights": [
      -3.2913975715637207,
      -1.5806074142456055,
      0.7815397381782532,
      -1.3560608625411987,
      -0.5248306393623352,
      0.6236439347267151,
      -0.4064788520336151,
      -9.6965913772583,
      0.3059881925582886,
      -0.38607823848724365,
      0.12600764632225037,
      -3.3889083862304688,
      1.241283893585205,
      0.02897343598306179,
      -7.916630268096924,
      -0.4179140329360962,
      -11.795214653015137,
      -0.9704054594039917,
      -0.08382891118526459,
      -10.212788581848145,
      -0.3639562129974365,
      -6.769982814788818,
      -0.11677879840135574,
      -0.3104548156261444,
      -0.5312234163284302,
      0.08472307026386261,
      -0.577343225479126,
      -0.10593458265066147,
      -2.6084516048431396
    ]
  }
}